<unk>	0
<s>	0
</s>	0
▁s	-0
en	-1
er	-2
ar	-3
et	-4
an	-5
▁d	-6
▁m	-7
▁.	-8
▁f	-9
in	-10
▁h	-11
▁o	-12
tt	-13
▁v	-14
ll	-15
▁a	-16
ag	-17
▁t	-18
är	-19
▁b	-20
▁k	-21
ch	-22
ör	-23
ig	-24
▁p	-25
▁och	-26
om	-27
▁,	-28
st	-29
▁j	-30
▁i	-31
de	-32
▁att	-33
▁n	-34
▁l	-35
or	-36
▁g	-37
▁in	-38
ka	-39
▁det	-40
▁jag	-41
än	-42
▁för	-43
te	-44
na	-45
ed	-46
▁är	-47
on	-48
ra	-49
▁en	-50
▁på	-51
ck	-52
ill	-53
▁som	-54
▁u	-55
el	-56
▁r	-57
is	-58
ing	-59
kt	-60
at	-61
▁var	-62
▁så	-63
▁med	-64
år	-65
pp	-66
▁till	-67
▁inte	-68
▁vi	-69
lig	-70
▁S	-71
▁st	-72
▁har	-73
▁D	-74
ade	-75
ån	-76
un	-77
it	-78
▁av	-79
▁e	-80
es	-81
am	-82
▁om	-83
as	-84
▁sk	-85
ter	-86
al	-87
▁bl	-88
id	-89
and	-90
▁den	-91
il	-92
▁M	-93
em	-94
der	-95
ett	-96
▁!	-97
äl	-98
ad	-99
åg	-100
re	-101
▁J	-102
ol	-103
iv	-104
ro	-105
▁H	-106
▁all	-107
ning	-108
ätt	-109
ans	-110
▁kom	-111
▁ut	-112
▁de	-113
▁men	-114
ver	-115
▁ett	-116
▁ska	-117
ta	-118
äg	-119
▁man	-120
ur	-121
ot	-122
▁fr	-123
are	-124
▁V	-125
ång	-126
▁li	-127
▁ö	-128
äll	-129
yck	-130
▁min	-131
▁mig	-132
itt	-133
ens	-134
▁upp	-135
dag	-136
us	-137
▁någ	-138
▁Jag	-139
▁F	-140
▁A	-141
ma	-142
▁kan	-143
▁N	-144
▁T	-145
ande	-146
▁när	-147
og	-148
▁I	-149
igt	-150
▁E	-151
sta	-152
▁Det	-153
▁bar	-154
▁hel	-155
▁nu	-156
ut	-157
▁an	-158
▁tr	-159
ller	-160
ort	-161
fter	-162
mer	-163
sa	-164
da	-165
sk	-166
▁K	-167
gen	-168
▁B	-169
ik	-170
ion	-171
ligt	-172
art	-173
▁bli	-174
▁ju	-175
▁lite	-176
änn	-177
▁ha	-178
ull	-179
ick	-180
▁1	-181
▁han	-182
▁sig	-183
▁L	-184
för	-185
ss	-186
▁O	-187
▁sp	-188
▁un	-189
la	-190
arna	-191
ste	-192
▁dag	-193
▁där	-194
ak	-195
▁?	-196
▁å	-197
het	-198
▁be	-199
▁sl	-200
▁här	-201
▁sj	-202
▁P	-203
äm	-204
▁än	-205
▁gör	-206
▁efter	-207
▁över	-208
äng	-209
▁fin	-210
▁då	-211
bb	-212
▁hon	-213
▁allt	-214
▁kl	-215
all	-216
att	-217
ns	-218
▁bara	-219
▁"	-220
ycket	-221
ent	-222
▁kommer	-223
ligen	-224
▁tid	-225
▁)	-226
▁sam	-227
▁G	-228
ram	-229
cka	-230
▁du	-231
▁från	-232
▁mycket	-233
▁bra	-234
ev	-235
så	-236
▁eller	-237
▁hem	-238
▁få	-239
▁(	-240
▁sv	-241
äv	-242
▁må	-243
erna	-244
▁vill	-245
▁Men	-246
▁kv	-247
opp	-248
▁vara	-249
ul	-250
▁väl	-251
den	-252
isk	-253
ff	-254
ist	-255
ulle	-256
ell	-257
dr	-258
▁hade	-259
um	-260
ger	-261
▁ig	-262
▁ny	-263
ga	-264
▁fl	-265
ud	-266
ikt	-267
▁tv	-268
▁ta	-269
▁sen	-270
▁får	-271
▁alla	-272
edan	-273
▁-	-274
▁skulle	-275
▁R	-276
ft	-277
im	-278
▁vad	-279
▁se	-280
ne	-281
▁under	-282
org	-283
ker	-284
▁bör	-285
▁år	-286
▁ock	-287
▁re	-288
äst	-289
os	-290
▁också	-291
▁blir	-292
▁gr	-293
ke	-294
▁hur	-295
ön	-296
ock	-297
sl	-298
▁sin	-299
▁mer	-300
ess	-301
▁pro	-302
ers	-303
▁fram	-304
älv	-305
▁br	-306
ov	-307
yg	-308
▁pl	-309
▁”	-310
bl	-311
ska	-312
andra	-313
od	-314
kar	-315
▁börj	-316
▁kun	-317
▁C	-318
nan	-319
und	-320
▁någon	-321
▁fa	-322
▁gå	-323
▁ver	-324
ilj	-325
ats	-326
▁något	-327
▁or	-328
▁idag	-329
▁själv	-330
▁jo	-331
kl	-332
▁2	-333
nat	-334
▁säg	-335
▁del	-336
est	-337
era	-338
▁kon	-339
▁bil	-340
iga	-341
iska	-342
▁hö	-343
unt	-344
▁kr	-345
oll	-346
▁mot	-347
ånga	-348
▁sn	-349
liga	-350
▁göra	-351
je	-352
▁vis	-353
mar	-354
ass	-355
riv	-356
▁förs	-357
▁ar	-358
▁vär	-359
▁Vi	-360
▁vet	-361
▁vil	-362
▁jobb	-363
▁tän	-364
▁fick	-365
▁finns	-366
ika	-367
▁ni	-368
▁gång	-369
▁går	-370
▁andra	-371
▁vid	-372
▁gj	-373
ken	-374
▁äv	-375
rat	-376
▁c	-377
▁varit	-378
▁igen	-379
eter	-380
▁pr	-381
▁bes	-382
iskt	-383
▁kän	-384
del	-385
▁Ä	-386
ug	-387
ets	-388
▁ty	-389
eck	-390
ts	-391
▁även	-392
ningen	-393
öj	-394
▁helt	-395
▁blev	-396
▁gl	-397
yr	-398
nar	-399
▁tyck	-400
▁känn	-401
▁sm	-402
som	-403
▁Den	-404
▁För	-405
▁sitt	-406
▁Och	-407
pa	-408
▁två	-409
öd	-410
sam	-411
▁hela	-412
des	-413
▁många	-414
ation	-415
▁beh	-416
▁läng	-417
▁verk	-418
▁sak	-419
äd	-420
▁utan	-421
ord	-422
▁U	-423
se	-424
anske	-425
▁dem	-426
▁al	-427
▁stor	-428
▁En	-429
▁sedan	-430
▁Nu	-431
tr	-432
ja	-433
▁ber	-434
▁rikt	-435
ott	-436
▁Så	-437
ok	-438
▁ser	-439
▁komm	-440
ket	-441
▁ing	-442
▁lä	-443
ara	-444
▁runt	-445
▁sy	-446
▁måste	-447
▁fort	-448
op	-449
▁mitt	-450
orgon	-451
▁–	-452
ia	-453
åt	-454
uk	-455
▁först	-456
åll	-457
ant	-458
▁oss	-459
öm	-460
▁detta	-461
kte	-462
▁liv	-463
ost	-464
ött	-465
digt	-466
▁hen	-467
ic	-468
vän	-469
▁några	-470
▁ner	-471
▁vän	-472
uv	-473
ling	-474
sp	-475
▁ex	-476
orna	-477
▁åt	-478
ber	-479
▁gick	-480
▁19	-481
▁Har	-482
ser	-483
fr	-484
▁In	-485
▁nog	-486
▁barn	-487
rev	-488
▁rätt	-489
ef	-490
ställ	-491
ukt	-492
▁hand	-493
äck	-494
▁gen	-495
▁kanske	-496
var	-497
▁sätt	-498
bet	-499
▁mat	-500
sen	-501
ek	-502
▁skol	-503
ekt	-504
ades	-505
▁skriv	-506
▁vår	-507
vet	-508
orde	-509
per	-510
▁blog	-511
tal	-512
▁er	-513
▁läg	-514
anska	-515
▁hj	-516
▁:	-517
00	-518
orm	-519
▁innan	-520
amilj	-521
▁kö	-522
▁tro	-523
ir	-524
▁säger	-525
▁behö	-526
vis	-527
inn	-528
▁tag	-529
▁dr	-530
nt	-531
ästa	-532
▁ly	-533
▁tycker	-534
ust	-535
▁mina	-536
▁familj	-537
ci	-538
▁ol	-539
tid	-540
▁riktigt	-541
▁ä	-542
▁vä	-543
ack	-544
ster	-545
▁St	-546
▁slut	-547
▁pers	-548
▁änd	-549
ningar	-550
▁ingen	-551
▁spel	-552
br	-553
lar	-554
▁verkligen	-555
▁männ	-556
ytt	-557
▁denna	-558
▁bet	-559
▁Han	-560
nas	-561
eg	-562
av	-563
▁försö	-564
uvud	-565
▁fakt	-566
▁hän	-567
▁När	-568
heten	-569
▁hopp	-570
▁ro	-571
ien	-572
▁väldigt	-573
nade	-574
▁just	-575
▁De	-576
▁hög	-577
man	-578
▁lång	-579
drig	-580
ägg	-581
▁lig	-582
▁res	-583
ingen	-584
▁första	-585
öl	-586
▁fråg	-587
vär	-588
ast	-589
▁trän	-590
▁str	-591
▁slä	-592
▁kväll	-593
gr	-594
ygg	-595
▁ra	-596
▁lag	-597
▁nya	-598
io	-599
▁aldrig	-600
▁bå	-601
▁alltid	-602
▁äl	-603
kten	-604
▁led	-605
▁hitt	-606
▁huvud	-607
aka	-608
▁hemma	-609
ym	-610
▁koll	-611
▁per	-612
▁genom	-613
▁veck	-614
▁fun	-615
▁annat	-616
ld	-617
▁väg	-618
▁ord	-619
▁pa	-620
ju	-621
▁stör	-622
▁van	-623
▁An	-624
ej	-625
nad	-626
▁dig	-627
▁fil	-628
ys	-629
▁so	-630
▁ändå	-631
▁bätt	-632
olk	-633
▁fall	-634
rå	-635
▁honom	-636
▁lit	-637
▁dagen	-638
▁person	-639
gar	-640
nen	-641
land	-642
▁egen	-643
▁hal	-644
▁eftersom	-645
▁bättre	-646
▁par	-647
kr	-648
▁sov	-649
men	-650
morgon	-651
str	-652
▁människ	-653
va	-654
▁tror	-655
▁tog	-656
▁fan	-657
▁ch	-658
▁pol	-659
yn	-660
▁3	-661
atten	-662
ellan	-663
▁gjort	-664
▁inne	-665
amma	-666
▁fått	-667
ige	-668
▁kunde	-669
bil	-670
▁sä	-671
▁faktiskt	-672
ors	-673
ier	-674
▁tiden	-675
ende	-676
▁ställ	-677
ina	-678
ppa	-679
▁Är	-680
far	-681
▁tar	-682
▁vilket	-683
nes	-684
▁besk	-685
pl	-686
▁komma	-687
▁henne	-688
essa	-689
▁kul	-690
▁håll	-691
▁ganska	-692
iss	-693
▁sina	-694
▁kunna	-695
▁känner	-696
tligen	-697
▁hör	-698
▁gjorde	-699
▁saker	-700
skar	-701
▁ans	-702
▁/	-703
▁lär	-704
▁känns	-705
▁olika	-706
▁Idag	-707
▁meter	-708
▁ur	-709
sätt	-710
igare	-711
kel	-712
fta	-713
enska	-714
▁säga	-715
▁tillb	-716
cis	-717
▁ligger	-718
▁ja	-719
▁hjäl	-720
▁arbet	-721
▁el	-722
▁haft	-723
▁pre	-724
kv	-725
▁vin	-726
▁skolan	-727
▁Om	-728
ang	-729
upp	-730
årt	-731
jer	-732
▁lika	-733
ida	-734
▁bort	-735
▁tim	-736
▁Fr	-737
▁familjen	-738
▁använ	-739
▁ute	-740
▁bliv	-741
▁mellan	-742
äff	-743
▁land	-744
utom	-745
▁fy	-746
eras	-747
▁fi	-748
▁samma	-749
▁lö	-750
tro	-751
pt	-752
▁Att	-753
assa	-754
ala	-755
dagen	-756
▁W	-757
▁dock	-758
ex	-759
▁tre	-760
iken	-761
▁hos	-762
ät	-763
ie	-764
▁fär	-765
▁vikt	-766
▁sa	-767
▁jätt	-768
alt	-769
kom	-770
dre	-771
me	-772
▁All	-773
ip	-774
net	-775
kade	-776
▁sna	-777
verige	-778
▁inl	-779
▁reg	-780
yd	-781
▁5	-782
▁bland	-783
▁best	-784
▁igår	-785
illa	-786
▁tillbaka	-787
▁Var	-788
tar	-789
▁bilder	-790
▁kvar	-791
ängen	-792
ark	-793
▁Efter	-794
▁Sk	-795
ce	-796
dan	-797
ök	-798
▁spr	-799
ål	-800
▁inv	-801
▁skön	-802
▁lätt	-803
▁havet	-804
giv	-805
▁folk	-806
▁redan	-807
▁mo	-808
▁vå	-809
agen	-810
▁varje	-811
▁Hon	-812
▁tra	-813
▁kör	-814
▁inget	-815
▁pass	-816
sten	-817
▁stan	-818
bland	-819
kat	-820
▁Jo	-821
EN	-822
▁di	-823
▁människor	-824
▁su	-825
▁kro	-826
aren	-827
▁Sen	-828
sson	-829
▁precis	-830
▁näst	-831
går	-832
erade	-833
ann	-834
väg	-835
pel	-836
▁sol	-837
▁snart	-838
nings	-839
▁dessa	-840
▁möj	-841
ER	-842
▁lå	-843
▁intr	-844
▁ka	-845
▁kall	-846
▁Ja	-847
▁Man	-848
met	-849
▁4	-850
hol	-851
▁ih	-852
itet	-853
änd	-854
ingar	-855
akt	-856
pr	-857
▁hans	-858
▁si	-859
ung	-860
▁fast	-861
▁behöver	-862
▁ingår	-863
▁dess	-864
▁satt	-865
AR	-866
▁plan	-867
▁mamma	-868
erar	-869
öt	-870
▁typ	-871
ionen	-872
▁bästa	-873
▁mest	-874
err	-875
▁lik	-876
lighet	-877
äs	-878
ighet	-879
▁god	-880
▁bo	-881
▁På	-882
▁le	-883
ars	-884
▁plats	-885
▁Ska	-886
▁sitter	-887
äk	-888
äder	-889
gi	-890
▁släkt	-891
▁morgon	-892
tat	-893
änner	-894
▁full	-895
▁träff	-896
aste	-897
▁börjar	-898
▁mus	-899
▁gäll	-900
▁länge	-901
blem	-902
▁stora	-903
▁ofta	-904
▁tan	-905
▁åter	-906
från	-907
▁hoppas	-908
▁annan	-909
▁sjuk	-910
▁val	-911
▁liten	-912
▁berätt	-913
▁mål	-914
▁imorgon	-915
▁kär	-916
aget	-917
▁flera	-918
▁små	-919
le	-920
skap	-921
▁trött	-922
▁väx	-923
ecka	-924
cent	-925
▁milj	-926
▁bak	-927
öst	-928
fall	-929
▁hus	-930
ella	-931
▁glad	-932
▁jul	-933
▁konst	-934
rekt	-935
▁både	-936
▁inom	-937
icka	-938
mans	-939
fl	-940
▁Som	-941
kon	-942
▁eg	-943
▁bor	-944
åller	-945
▁fot	-946
▁hår	-947
▁halv	-948
▁nästan	-949
▁blogg	-950
▁pen	-951
gång	-952
stället	-953
borg	-954
▁gam	-955
▁ville	-956
▁föl	-957
håll	-958
▁Å	-959
▁tidigare	-960
▁titt	-961
atur	-962
▁började	-963
▁blivit	-964
ellt	-965
▁km	-966
▁sommar	-967
amn	-968
▁såg	-969
▁skriva	-970
▁snabb	-971
häll	-972
▁tj	-973
▁tur	-974
min	-975
ningarna	-976
rik	-977
▁dagar	-978
▁sag	-979
▁dra	-980
▁änn	-981
par	-982
▁kropp	-983
▁gott	-984
edag	-985
▁enda	-986
det	-987
▁skall	-988
▁senare	-989
bar	-990
▁ge	-991
▁ännu	-992
▁vecka	-993
▁skönt	-994
▁säker	-995
▁längre	-996
▁200	-997
son	-998
▁fel	-999
▁massa	-1000
▁förb	-1001
tra	-1002
▁intress	-1003
esta	-1004
▁problem	-1005
▁lug	-1006
▁äta	-1007
illar	-1008
▁släktet	-1009
ås	-1010
▁veckan	-1011
▁lycka	-1012
▁hennes	-1013
▁Där	-1014
▁större	-1015
▁börja	-1016
▁åka	-1017
▁ung	-1018
▁lj	-1019
▁läm	-1020
▁helst	-1021
▁Ch	-1022
van	-1023
▁värld	-1024
▁sista	-1025
▁fix	-1026
▁inlägg	-1027
ven	-1028
▁svårt	-1029
▁Bl	-1030
ärna	-1031
▁samt	-1032
▁istället	-1033
▁sö	-1034
▁ens	-1035
▁gått	-1036
▁polit	-1037
▁Då	-1038
▁vatten	-1039
▁nytt	-1040
▁klar	-1041
▁bild	-1042
▁egentligen	-1043
kväll	-1044
holm	-1045
▁öpp	-1046
ubb	-1047
erad	-1048
enter	-1049
nal	-1050
▁vak	-1051
ös	-1052
▁red	-1053
▁18	-1054
ri	-1055
ET	-1056
hus	-1057
▁samhäll	-1058
öte	-1059
AN	-1060
▁kra	-1061
▁står	-1062
erat	-1063
▁Sverige	-1064
dom	-1065
fatt	-1066
ilom	-1067
revs	-1068
else	-1069
▁alls	-1070
▁Al	-1071
derna	-1072
veck	-1073
▁kort	-1074
sak	-1075
ått	-1076
▁ma	-1077
farande	-1078
sammans	-1079
drar	-1080
iva	-1081
▁tänker	-1082
andes	-1083
▁po	-1084
tidigt	-1085
eci	-1086
▁inför	-1087
▁tal	-1088
ister	-1089
▁Ö	-1090
ds	-1091
orn	-1092
bo	-1093
▁he	-1094
▁mindre	-1095
▁film	-1096
▁em	-1097
▁enkel	-1098
▁direkt	-1099
▁far	-1100
▁våra	-1101
▁Här	-1102
▁klart	-1103
▁dat	-1104
rar	-1105
iet	-1106
pte	-1107
▁ibland	-1108
ting	-1109
andet	-1110
ten	-1111
▁förl	-1112
rott	-1113
▁Kan	-1114
inner	-1115
ings	-1116
▁invån	-1117
arnas	-1118
▁sova	-1119
▁fina	-1120
▁deras	-1121
ilometer	-1122
TT	-1123
▁beskrevs	-1124
▁rum	-1125
▁alltså	-1126
▁ihop	-1127
▁pra	-1128
lla	-1129
▁Un	-1130
▁fortfarande	-1131
orr	-1132
▁gäller	-1133
gon	-1134
ivt	-1135
▁6	-1136
▁tillsammans	-1137
jär	-1138
▁lägga	-1139
ipp	-1140
kan	-1141
▁framför	-1142
▁id	-1143
▁bru	-1144
▁försöka	-1145
ob	-1146
▁nästa	-1147
▁kommun	-1148
▁varför	-1149
▁bus	-1150
yl	-1151
▁fem	-1152
▁komp	-1153
▁ger	-1154
amp	-1155
klart	-1156
▁pun	-1157
▁tje	-1158
▁tills	-1159
▁livet	-1160
uro	-1161
▁gången	-1162
▁bestäm	-1163
▁Inte	-1164
▁Kom	-1165
berg	-1166
▁Min	-1167
▁tänkte	-1168
▁20	-1169
mor	-1170
▁akt	-1171
dags	-1172
led	-1173
he	-1174
åd	-1175
▁kn	-1176
LL	-1177
▁vänner	-1178
lut	-1179
uter	-1180
▁fler	-1181
▁speci	-1182
tan	-1183
▁invånare	-1184
▁svar	-1185
▁jätte	-1186
▁därför	-1187
ockholm	-1188
▁namn	-1189
▁svenska	-1190
satt	-1191
▁stund	-1192
▁sagt	-1193
▁ste	-1194
if	-1195
▁mys	-1196
▁him	-1197
▁håller	-1198
▁jobbet	-1199
▁Hur	-1200
talet	-1201
▁hålla	-1202
▁trots	-1203
▁exem	-1204
sb	-1205
▁älskar	-1206
▁Vad	-1207
ernas	-1208
▁rör	-1209
ioner	-1210
▁föret	-1211
ite	-1212
nars	-1213
▁förm	-1214
▁gånger	-1215
▁sön	-1216
▁hund	-1217
▁behöv	-1218
▁kommit	-1219
▁låg	-1220
omen	-1221
▁inter	-1222
dat	-1223
klar	-1224
▁lilla	-1225
▁tänka	-1226
▁enkelt	-1227
▁Ett	-1228
etta	-1229
▁stad	-1230
▁prat	-1231
▁part	-1232
▁kna	-1233
▁sett	-1234
▁hjär	-1235
▁pla	-1236
▁mid	-1237
rog	-1238
lden	-1239
▁utveck	-1240
▁gre	-1241
▁gärna	-1242
▁åkte	-1243
▁kvad	-1244
▁kvällen	-1245
▁ovan	-1246
▁7	-1247
▁roligt	-1248
▁procent	-1249
▁mär	-1250
unn	-1251
▁timmar	-1252
rade	-1253
ering	-1254
▁form	-1255
ind	-1256
bart	-1257
uta	-1258
▁fortsätt	-1259
▁flytt	-1260
▁ned	-1261
hopp	-1262
▁match	-1263
▁kvadrat	-1264
▁nöj	-1265
skil	-1266
ligare	-1267
dde	-1268
▁Du	-1269
▁iväg	-1270
rum	-1271
▁din	-1272
pen	-1273
▁grund	-1274
▁län	-1275
▁köpa	-1276
▁and	-1277
arl	-1278
ädd	-1279
▁natur	-1280
▁lev	-1281
åk	-1282
▁långt	-1283
bef	-1284
▁heller	-1285
▁pengar	-1286
▁pappa	-1287
▁senaste	-1288
inna	-1289
▁pres	-1290
▁bok	-1291
hör	-1292
▁läsa	-1293
iker	-1294
▁sådan	-1295
sm	-1296
▁for	-1297
▁jäm	-1298
▁enligt	-1299
▁Tr	-1300
▁exempel	-1301
▁vidare	-1302
ner	-1303
▁liksom	-1304
▁kvinn	-1305
idan	-1306
▁dit	-1307
jur	-1308
▁la	-1309
naden	-1310
▁ögon	-1311
▁Detta	-1312
▁lov	-1313
form	-1314
▁samtidigt	-1315
▁dags	-1316
▁nära	-1317
bets	-1318
▁mor	-1319
▁huvudsak	-1320
alla	-1321
ationen	-1322
ras	-1323
vä	-1324
lek	-1325
▁stort	-1326
anden	-1327
osit	-1328
ha	-1329
▁gra	-1330
▁otro	-1331
▁plug	-1332
▁Stockholm	-1333
slag	-1334
▁sex	-1335
▁Hel	-1336
▁närheten	-1337
▁trev	-1338
▁hitta	-1339
▁själva	-1340
▁näm	-1341
▁ring	-1342
▁varandra	-1343
▁Med	-1344
▁ont	-1345
▁brukar	-1346
▁jäv	-1347
▁händer	-1348
▁högsta	-1349
stad	-1350
tag	-1351
las	-1352
▁skit	-1353
▁Till	-1354
isen	-1355
▁kolla	-1356
▁båda	-1357
▁bad	-1358
▁låt	-1359
unda	-1360
AG	-1361
rätt	-1362
▁kron	-1363
▁borde	-1364
▁tyd	-1365
▁fredag	-1366
han	-1367
▁häl	-1368
oner	-1369
▁öv	-1370
▁vart	-1371
▁känna	-1372
▁sjukt	-1373
yt	-1374
istor	-1375
▁lo	-1376
änk	-1377
▁jobba	-1378
▁svens	-1379
▁fyra	-1380
tast	-1381
▁skriver	-1382
befol	-1383
▁tagit	-1384
isst	-1385
▁fint	-1386
tta	-1387
0-	-1388
▁året	-1389
ften	-1390
sin	-1391
▁syn	-1392
▁handlar	-1393
▁gillar	-1394
▁miss	-1395
▁föräl	-1396
▁äg	-1397
▁Mar	-1398
▁helgen	-1399
▁förra	-1400
alen	-1401
enhet	-1402
▁soci	-1403
pe	-1404
▁häm	-1405
▁rel	-1406
▁häst	-1407
▁ikväll	-1408
▁Ar	-1409
hand	-1410
▁go	-1411
ian	-1412
nader	-1413
öteborg	-1414
ille	-1415
▁tack	-1416
▁dessutom	-1417
konom	-1418
slut	-1419
▁skr	-1420
▁8	-1421
▁ytt	-1422
▁vissa	-1423
sv	-1424
lingen	-1425
bär	-1426
▁inga	-1427
▁död	-1428
arbet	-1429
▁gamla	-1430
▁mör	-1431
das	-1432
ong	-1433
▁vanligt	-1434
lag	-1435
med	-1436
▁kvadratk	-1437
▁sängen	-1438
▁mån	-1439
ivet	-1440
lade	-1441
ppar	-1442
▁hjälp	-1443
gel	-1444
▁berg	-1445
▁snabbt	-1446
errängen	-1447
▁vack	-1448
▁El	-1449
▁kläder	-1450
▁häng	-1451
▁by	-1452
▁disk	-1453
▁världen	-1454
▁ifrån	-1455
▁sätta	-1456
lev	-1457
▁bloggen	-1458
äkt	-1459
öv	-1460
▁vilken	-1461
terna	-1462
▁tänkt	-1463
▁tyckte	-1464
ående	-1465
sn	-1466
▁punkten	-1467
▁Br	-1468
▁ljus	-1469
värr	-1470
drag	-1471
▁lyss	-1472
▁mass	-1473
unch	-1474
▁ins	-1475
ukost	-1476
bild	-1477
▁knapp	-1478
ultat	-1479
▁gym	-1480
▁fanns	-1481
ac	-1482
▁lör	-1483
▁arbets	-1484
sh	-1485
▁extra	-1486
▁män	-1487
ÖR	-1488
▁känsl	-1489
▁tjej	-1490
stes	-1491
▁funder	-1492
▁igenom	-1493
▁början	-1494
stem	-1495
▁verkar	-1496
yss	-1497
▁träning	-1498
uss	-1499
▁stra	-1500
▁mar	-1501
▁kände	-1502
▁Sj	-1503
deles	-1504
fäll	-1505
▁Sedan	-1506
▁klass	-1507
ore	-1508
▁otroligt	-1509
▁Sv	-1510
▁varm	-1511
▁te	-1512
▁himla	-1513
IN	-1514
CH	-1515
▁grupp	-1516
▁ekonom	-1517
ard	-1518
▁fatt	-1519
▁personer	-1520
▁vägen	-1521
▁ban	-1522
▁sär	-1523
itter	-1524
▁frukost	-1525
▁sitta	-1526
▁w	-1527
ånd	-1528
▁bety	-1529
▁musik	-1530
▁såd	-1531
eta	-1532
sol	-1533
öp	-1534
▁kronor	-1535
olog	-1536
ral	-1537
▁ab	-1538
▁star	-1539
▁Någ	-1540
▁barnen	-1541
ab	-1542
▁egna	-1543
▁helg	-1544
▁glöm	-1545
allafall	-1546
▁beslut	-1547
fekt	-1548
▁fantast	-1549
▁ön	-1550
▁styr	-1551
▁förut	-1552
▁9	-1553
iner	-1554
▁vem	-1555
▁ben	-1556
▁Allt	-1557
▁nord	-1558
▁funger	-1559
dukt	-1560
▁12	-1561
▁emot	-1562
dv	-1563
▁kompis	-1564
▁omgiv	-1565
ocka	-1566
oppen	-1567
gör	-1568
IG	-1569
mär	-1570
▁skra	-1571
▁soff	-1572
▁veta	-1573
▁natt	-1574
▁igång	-1575
▁bygg	-1576
eln	-1577
ena	-1578
▁visa	-1579
amm	-1580
▁lu	-1581
▁stat	-1582
ationer	-1583
▁visar	-1584
usch	-1585
ST	-1586
▁utt	-1587
sla	-1588
▁reger	-1589
▁lunch	-1590
▁täv	-1591
▁sån	-1592
▁alldeles	-1593
▁stå	-1594
ygga	-1595
SA	-1596
ari	-1597
sy	-1598
äster	-1599
▁pu	-1600
▁Göteborg	-1601
of	-1602
▁veckor	-1603
▁bäst	-1604
ask	-1605
▁kroppen	-1606
tur	-1607
boll	-1608
▁sju	-1609
▁ham	-1610
öts	-1611
▁försöker	-1612
ester	-1613
▁räk	-1614
▁nån	-1615
mark	-1616
väx	-1617
▁mark	-1618
▁framtid	-1619
▁våg	-1620
ifrån	-1621
▁före	-1622
▁OCH	-1623
▁fråga	-1624
▁lever	-1625
raf	-1626
▁histor	-1627
ips	-1628
kring	-1629
OM	-1630
kla	-1631
▁vilja	-1632
verk	-1633
jäl	-1634
▁tom	-1635
▁annars	-1636
▁posit	-1637
▁Igår	-1638
ins	-1639
▁mag	-1640
▁199	-1641
▁tråk	-1642
▁äntligen	-1643
▁samman	-1644
▁följ	-1645
▁Runt	-1646
▁läs	-1647
dar	-1648
▁säkert	-1649
▁iallafall	-1650
▁spring	-1651
▁int	-1652
▁dåligt	-1653
red	-1654
▁medan	-1655
▁promen	-1656
▁Hopp	-1657
▁förv	-1658
maste	-1659
its	-1660
▁ind	-1661
▁jord	-1662
▁vårt	-1663
els	-1664
▁Under	-1665
▁Kanske	-1666
▁dröm	-1667
▁on	-1668
sikt	-1669
▁ytter	-1670
jekt	-1671
bara	-1672
orit	-1673
▁färg	-1674
▁Eller	-1675
▁prov	-1676
ockan	-1677
ren	-1678
▁ob	-1679
▁Vil	-1680
▁fö	-1681
▁möjligt	-1682
onen	-1683
▁stud	-1684
▁sma	-1685
▁Alla	-1686
kta	-1687
eri	-1688
▁off	-1689
▁fixa	-1690
▁minst	-1691
▁Y	-1692
▁rö	-1693
▁ensam	-1694
▁nöjd	-1695
▁Även	-1696
▁tex	-1697
kad	-1698
▁vilka	-1699
▁Ni	-1700
▁största	-1701
orter	-1702
▁ku	-1703
vid	-1704
emot	-1705
▁bit	-1706
▁områ	-1707
▁Sam	-1708
yll	-1709
unden	-1710
itu	-1711
edel	-1712
▁ev	-1713
eh	-1714
▁företag	-1715
▁start	-1716
▁dusch	-1717
▁tillfäll	-1718
▁börjat	-1719
befolkat	-1720
▁kost	-1721
▁innebär	-1722
▁säll	-1723
▁Ty	-1724
kän	-1725
▁slag	-1726
▁Mo	-1727
ux	-1728
▁särskil	-1729
▁stod	-1730
lat	-1731
▁träffa	-1732
▁jävla	-1733
dig	-1734
pan	-1735
▁cy	-1736
▁Fin	-1737
▁tjän	-1738
öck	-1739
▁nej	-1740
by	-1741
▁middag	-1742
▁beg	-1743
▁tidigt	-1744
ran	-1745
▁resultat	-1746
▁mö	-1747
tade	-1748
▁kärlek	-1749
▁träna	-1750
▁15	-1751
▁ener	-1752
ider	-1753
▁landet	-1754
▁försv	-1755
▁prata	-1756
▁Hade	-1757
▁pris	-1758
lem	-1759
ata	-1760
get	-1761
000	-1762
ära	-1763
▁ant	-1764
▁bilden	-1765
fin	-1766
elsen	-1767
▁dans	-1768
▁ät	-1769
▁dör	-1770
▁dö	-1771
▁delen	-1772
ornas	-1773
ada	-1774
▁bakom	-1775
män	-1776
fär	-1777
unnit	-1778
▁viktigt	-1779
one	-1780
▁10	-1781
▁Hoppas	-1782
pro	-1783
▁speciellt	-1784
▁Just	-1785
▁samhälle	-1786
ög	-1787
▁köpte	-1788
mid	-1789
▁föd	-1790
▁kor	-1791
▁et	-1792
▁Ber	-1793
▁sem	-1794
▁Euro	-1795
▁flesta	-1796
gan	-1797
▁rå	-1798
skol	-1799
▁världens	-1800
DE	-1801
kor	-1802
under	-1803
▁förstå	-1804
▁väntar	-1805
▁super	-1806
▁sånt	-1807
pekt	-1808
▁my	-1809
ote	-1810
▁främ	-1811
alet	-1812
▁Z	-1813
alm	-1814
efär	-1815
ons	-1816
▁förstår	-1817
ow	-1818
▁solen	-1819
▁blogga	-1820
▁trodde	-1821
full	-1822
▁använda	-1823
▁1,	-1824
▁soffan	-1825
▁kändes	-1826
▁17	-1827
▁möjlighet	-1828
▁Ma	-1829
ond	-1830
plats	-1831
▁201	-1832
▁risk	-1833
▁rik	-1834
▁perfekt	-1835
▁papp	-1836
▁am	-1837
▁blå	-1838
stånd	-1839
▁Ha	-1840
▁prog	-1841
ffekt	-1842
▁cent	-1843
råk	-1844
▁art	-1845
▁hit	-1846
▁växer	-1847
spel	-1848
ffär	-1849
▁gav	-1850
▁bef	-1851
över	-1852
▁chans	-1853
igaste	-1854
OR	-1855
▁frågor	-1856
▁tel	-1857
▁kam	-1858
▁rädd	-1859
▁uppdat	-1860
uc	-1861
▁tio	-1862
kej	-1863
▁spela	-1864
ora	-1865
▁mobil	-1866
▁poj	-1867
▁åker	-1868
tera	-1869
▁drog	-1870
▁tvätt	-1871
kas	-1872
uff	-1873
▁Terrängen	-1874
▁orkar	-1875
▁utanför	-1876
nande	-1877
▁sverige	-1878
▁skrev	-1879
res	-1880
▁tyvärr	-1881
▁dagarna	-1882
▁Tro	-1883
ban	-1884
ift	-1885
▁oro	-1886
▁ovanligt	-1887
▁Le	-1888
igheter	-1889
▁Re	-1890
samhet	-1891
▁'	-1892
▁ansvar	-1893
issa	-1894
▁huvudet	-1895
iz	-1896
▁Em	-1897
jud	-1898
▁13	-1899
▁skog	-1900
▁Vill	-1901
▁bilen	-1902
▁menar	-1903
▁y	-1904
▁absol	-1905
▁IN	-1906
▁uppe	-1907
ret	-1908
▁minuter	-1909
ograf	-1910
▁klara	-1911
▁älska	-1912
▁stöd	-1913
▁produkt	-1914
fråg	-1915
▁ATT	-1916
▁EU	-1917
▁mår	-1918
enn	-1919
▁klockan	-1920
▁lugnt	-1921
▁svensk	-1922
ater	-1923
ycka	-1924
▁säng	-1925
▁frågan	-1926
dem	-1927
▁övr	-1928
▁stol	-1929
▁Kr	-1930
ares	-1931
▁sidan	-1932
ine	-1933
▁ann	-1934
▁sade	-1935
tor	-1936
▁gar	-1937
▁kvinnor	-1938
▁Kl	-1939
▁DET	-1940
▁Nej	-1941
lägg	-1942
▁köra	-1943
▁anled	-1944
▁borta	-1945
▁leva	-1946
ou	-1947
▁berätta	-1948
dret	-1949
ah	-1950
▁ungefär	-1951
▁frukt	-1952
▁platt	-1953
▁JAG	-1954
andel	-1955
▁någonting	-1956
▁spänn	-1957
ender	-1958
▁höll	-1959
▁sommaren	-1960
▁snygg	-1961
▁natten	-1962
▁timme	-1963
▁roll	-1964
▁lära	-1965
▁titta	-1966
▁rad	-1967
▁upplev	-1968
▁Tra	-1969
▁lyck	-1970
▁kraft	-1971
▁knappt	-1972
én	-1973
▁goda	-1974
▁fortsätta	-1975
▁bi	-1976
▁bred	-1977
NA	-1978
▁dom	-1979
▁uppgi	-1980
▁förr	-1981
▁kopp	-1982
▁jobbar	-1983
▁at	-1984
▁kyr	-1985
▁mil	-1986
▁låta	-1987
▁16	-1988
äcker	-1989
▁hum	-1990
rag	-1991
▁skratt	-1992
▁månader	-1993
egat	-1994
dra	-1995
▁krit	-1996
▁vinter	-1997
▁fullt	-1998
ligheten	-1999
▁fest	-2000
▁USA	-2001
▁kaff	-2002
okus	-2003
▁miljoner	-2004
ler	-2005
ph	-2006
▁gamm	-2007
▁fyll	-2008
älla	-2009
▁särskilt	-2010
▁sida	-2011
▁skull	-2012
▁blom	-2013
▁situ	-2014
▁månad	-2015
▁låter	-2016
▁äter	-2017
▁Gr	-2018
▁tors	-2019
▁met	-2020
▁besök	-2021
ich	-2022
▁djur	-2023
▁omkring	-2024
jän	-2025
▁lägger	-2026
stans	-2027
▁böck	-2028
ert	-2029
▁ko	-2030
▁program	-2031
▁ir	-2032
▁flyg	-2033
▁sluta	-2034
▁nämligen	-2035
▁lugn	-2036
jut	-2037
▁morgonen	-2038
rad	-2039
äns	-2040
▁tot	-2041
▁mj	-2042
▁Av	-2043
▁hänt	-2044
sart	-2045
▁im	-2046
▁hjälpa	-2047
▁fri	-2048
▁boken	-2049
▁visst	-2050
▁Bar	-2051
▁11	-2052
TE	-2053
▁spelar	-2054
▁absolut	-2055
int	-2056
▁pe	-2057
▁skill	-2058
▁sist	-2059
igg	-2060
örj	-2061
band	-2062
▁Lite	-2063
KA	-2064
jör	-2065
▁nåt	-2066
▁social	-2067
merik	-2068
▁ång	-2069
▁trakten	-2070
▁kunnat	-2071
otter	-2072
▁fe	-2073
▁träd	-2074
▁FÖR	-2075
▁tanke	-2076
▁väder	-2077
▁steg	-2078
▁norr	-2079
aket	-2080
▁Dess	-2081
▁höra	-2082
ösa	-2083
▁insp	-2084
edje	-2085
▁fjär	-2086
▁litet	-2087
▁Sn	-2088
▁komment	-2089
▁publ	-2090
▁delar	-2091
▁tem	-2092
▁allmän	-2093
▁kräv	-2094
ström	-2095
▁fotboll	-2096
ÄR	-2097
▁misst	-2098
allt	-2099
▁konta	-2100
▁svår	-2101
ligtvis	-2102
okrat	-2103
ism	-2104
▁ör	-2105
ember	-2106
pet	-2107
ärt	-2108
▁Kommer	-2109
▁allvar	-2110
▁dagens	-2111
▁hittade	-2112
▁kur	-2113
▁effekt	-2114
▁arbete	-2115
▁lördag	-2116
▁hy	-2117
▁söndag	-2118
ions	-2119
▁snö	-2120
▁eftermid	-2121
älj	-2122
▁tips	-2123
▁såklart	-2124
ötsligt	-2125
▁påver	-2126
ivers	-2127
olv	-2128
ks	-2129
▁inform	-2130
ument	-2131
ps	-2132
▁slutet	-2133
▁kring	-2134
▁Upp	-2135
▁“	-2136
▁affär	-2137
▁Bara	-2138
▁bal	-2139
tes	-2140
eb	-2141
uari	-2142
jen	-2143
öna	-2144
äss	-2145
▁jobbigt	-2146
lan	-2147
ko	-2148
▁lämna	-2149
▁vaknade	-2150
▁Fast	-2151
▁ätit	-2152
ix	-2153
mat	-2154
▁Fick	-2155
▁stark	-2156
står	-2157
▁jämför	-2158
▁skatt	-2159
▁huset	-2160
▁höst	-2161
▁läser	-2162
▁tåg	-2163
uld	-2164
▁välja	-2165
▁bed	-2166
kra	-2167
▁medlem	-2168
utt	-2169
▁massor	-2170
▁följa	-2171
▁människa	-2172
▁fokus	-2173
▁stäm	-2174
▁Denna	-2175
ula	-2176
▁filmen	-2177
▁maj	-2178
▁ditt	-2179
▁stället	-2180
▁uppt	-2181
▁energi	-2182
▁Bo	-2183
▁satte	-2184
▁stäng	-2185
▁städ	-2186
ekn	-2187
▁bel	-2188
▁Per	-2189
▁skicka	-2190
▁os	-2191
skan	-2192
▁tankar	-2193
ycker	-2194
▁Ne	-2195
▁föräldrar	-2196
▁dålig	-2197
sts	-2198
ippa	-2199
▁ena	-2200
▁14	-2201
▁skola	-2202
▁telef	-2203
▁lekt	-2204
▁stopp	-2205
▁promenad	-2206
▁ons	-2207
▁do	-2208
▁amerik	-2209
▁gem	-2210
▁bid	-2211
▁Hej	-2212
▁lös	-2213
▁Imorgon	-2214
▁rev	-2215
▁ca	-2216
▁dy	-2217
lad	-2218
▁matt	-2219
▁måndag	-2220
▁000	-2221
▁Joh	-2222
▁Dan	-2223
▁Ro	-2224
▁mysigt	-2225
▁nju	-2226
▁lin	-2227
▁fly	-2228
▁vux	-2229
▁förvän	-2230
▁släpp	-2231
olit	-2232
▁förklar	-2233
varande	-2234
▁Får	-2235
räck	-2236
▁Ny	-2237
▁nät	-2238
här	-2239
▁grym	-2240
▁okej	-2241
ckade	-2242
▁magen	-2243
▁prakt	-2244
▁anser	-2245
▁topp	-2246
▁tor	-2247
▁tredje	-2248
▁deb	-2249
skog	-2250
▁Varför	-2251
▁stress	-2252
elser	-2253
ynd	-2254
▁Vet	-2255
▁Sitter	-2256
-1	-2257
ake	-2258
▁ingenting	-2259
▁stu	-2260
▁fav	-2261
▁skap	-2262
▁vänta	-2263
▁ren	-2264
dern	-2265
▁hittar	-2266
sch	-2267
köp	-2268
ON	-2269
▁käm	-2270
▁organ	-2271
▁tis	-2272
▁Själv	-2273
▁kuper	-2274
▁Ol	-2275
ont	-2276
▁intressant	-2277
▁sch	-2278
▁fört	-2279
▁Dag	-2280
▁säson	-2281
▁heter	-2282
▁resa	-2283
dels	-2284
RA	-2285
olen	-2286
▁fika	-2287
▁resten	-2288
ias	-2289
▁ytterligare	-2290
for	-2291
▁PÅ	-2292
▁avslut	-2293
ED	-2294
▁loka	-2295
etter	-2296
▁ligga	-2297
ansk	-2298
ica	-2299
▁visste	-2300
ternat	-2301
▁utbild	-2302
ält	-2303
▁fön	-2304
lingar	-2305
▁Pa	-2306
kter	-2307
bruk	-2308
▁någonsin	-2309
▁Sp	-2310
▁roliga	-2311
ium	-2312
▁bär	-2313
▁EN	-2314
▁beskriv	-2315
mera	-2316
▁0	-2317
▁198	-2318
▁säm	-2319
▁Dessutom	-2320
▁sväng	-2321
▁vanliga	-2322
▁bud	-2323
▁betyder	-2324
▁dju	-2325
▁Tän	-2326
entligt	-2327
tel	-2328
▁fisk	-2329
iges	-2330
▁sc	-2331
▁drar	-2332
▁Th	-2333
iden	-2334
▁råd	-2335
▁is	-2336
▁gles	-2337
▁Fl	-2338
▁släng	-2339
ders	-2340
▁Trakten	-2341
ition	-2342
▁passar	-2343
▁grå	-2344
▁vatt	-2345
▁rapp	-2346
▁endast	-2347
ads	-2348
▁kontro	-2349
▁behöva	-2350
▁utom	-2351
ningsvis	-2352
▁Ingen	-2353
▁Lin	-2354
▁Or	-2355
▁Johan	-2356
▁plugga	-2357
bol	-2358
▁lad	-2359
▁ÄR	-2360
agn	-2361
▁förbi	-2362
▁äm	-2363
▁spännande	-2364
▁Gud	-2365
▁ac	-2366
▁åren	-2367
▁skrivit	-2368
▁visade	-2369
▁Må	-2370
▁söder	-2371
▁Gu	-2372
▁sla	-2373
len	-2374
▁hårt	-2375
▁ungdom	-2376
ändr	-2377
▁polis	-2378
▁kuperad	-2379
▁projekt	-2380
▁fortsatt	-2381
qu	-2382
▁svart	-2383
▁eget	-2384
▁plötsligt	-2385
CK	-2386
part	-2387
kur	-2388
givna	-2389
▁kommentar	-2390
orl	-2391
▁sådant	-2392
gat	-2393
▁kaffe	-2394
▁bussen	-2395
sett	-2396
▁tekn	-2397
ever	-2398
▁springa	-2399
▁består	-2400
huset	-2401
aga	-2402
▁san	-2403
ey	-2404
▁datorn	-2405
▁gener	-2406
▁tving	-2407
▁dukt	-2408
▁tår	-2409
▁La	-2410
▁behand	-2411
▁des	-2412
▁våld	-2413
ita	-2414
▁oftast	-2415
▁kä	-2416
▁vattendrag	-2417
▁idé	-2418
▁långa	-2419
ice	-2420
▁sjö	-2421
▁nå	-2422
▁glas	-2423
cept	-2424
▁Hen	-2425
sför	-2426
▁to	-2427
▁gammal	-2428
▁lat	-2429
llen	-2430
▁dina	-2431
ration	-2432
ungen	-2433
▁arg	-2434
▁bol	-2435
▁häls	-2436
▁illa	-2437
▁läst	-2438
▁hat	-2439
▁cir	-2440
spr	-2441
▁shopp	-2442
▁Fran	-2443
▁röst	-2444
ordet	-2445
▁spender	-2446
▁syster	-2447
▁Er	-2448
▁närm	-2449
reg	-2450
port	-2451
▁saknar	-2452
▁vore	-2453
ola	-2454
▁böcker	-2455
▁förstås	-2456
karna	-2457
▁äldre	-2458
▁euro	-2459
▁psy	-2460
▁brott	-2461
▁självklart	-2462
▁Än	-2463
▁kar	-2464
▁tät	-2465
▁håret	-2466
äcka	-2467
▁but	-2468
▁bloggar	-2469
▁varmt	-2470
▁norm	-2471
▁engel	-2472
▁krig	-2473
▁hej	-2474
▁tråkigt	-2475
▁favorit	-2476
▁VI	-2477
▁stall	-2478
▁Ibland	-2479
▁Många	-2480
▁plocka	-2481
▁höj	-2482
▁priv	-2483
▁hunnit	-2484
önt	-2485
märk	-2486
oj	-2487
enskap	-2488
äda	-2489
▁tänk	-2490
▁gläd	-2491
▁um	-2492
▁krä	-2493
▁förk	-2494
▁197	-2495
▁sjun	-2496
▁hinner	-2497
▁driv	-2498
▁strax	-2499
▁hems	-2500
age	-2501
marna	-2502
▁sent	-2503
onal	-2504
▁önskar	-2505
kommen	-2506
▁kal	-2507
bel	-2508
▁antal	-2509
▁rolig	-2510
▁va	-2511
▁kval	-2512
oc	-2513
▁däremot	-2514
▁Tv	-2515
▁klipp	-2516
▁Eftersom	-2517
▁konstigt	-2518
▁system	-2519
▁beställ	-2520
lov	-2521
▁seg	-2522
ÄN	-2523
▁sådana	-2524
ivå	-2525
ament	-2526
▁ål	-2527
▁Vid	-2528
▁Ta	-2529
skatt	-2530
▁Ste	-2531
▁omgivningarna	-2532
▁erb	-2533
▁väster	-2534
▁samhället	-2535
▁trevligt	-2536
▁länder	-2537
▁använder	-2538
▁Sa	-2539
▁betyd	-2540
▁hav	-2541
▁växt	-2542
samt	-2543
▁underbara	-2544
ierna	-2545
▁The	-2546
▁information	-2547
▁sover	-2548
▁fart	-2549
▁Närmaste	-2550
▁känsla	-2551
usen	-2552
▁slå	-2553
sst	-2554
▁test	-2555
▁sten	-2556
▁behov	-2557
▁aktiv	-2558
▁mera	-2559
▁tt	-2560
▁namngivna	-2561
als	-2562
änns	-2563
iel	-2564
▁rull	-2565
▁syd	-2566
▁vila	-2567
otell	-2568
▁förhåll	-2569
▁glesbefolkat	-2570
ult	-2571
sök	-2572
▁kultur	-2573
▁fungerar	-2574
▁Blir	-2575
▁uttr	-2576
iens	-2577
▁Enligt	-2578
▁förhopp	-2579
bra	-2580
▁umg	-2581
▁klubb	-2582
▁skär	-2583
ustr	-2584
▁sock	-2585
▁gräs	-2586
▁bek	-2587
▁huvudsakligen	-2588
▁skad	-2589
▁TI	-2590
▁organis	-2591
▁vit	-2592
▁Bil	-2593
▁mode	-2594
växt	-2595
bin	-2596
sr	-2597
▁Pro	-2598
▁und	-2599
▁kollade	-2600
▁öppna	-2601
▁spar	-2602
▁ledig	-2603
klag	-2604
delse	-2605
åra	-2606
▁Dock	-2607
▁räd	-2608
▁söm	-2609
▁semester	-2610
▁ordning	-2611
▁fred	-2612
▁ske	-2613
▁Hans	-2614
▁skyd	-2615
▁körde	-2616
▁försökte	-2617
▁lyckas	-2618
▁mesta	-2619
▁utveckling	-2620
oende	-2621
▁Ser	-2622
▁öster	-2623
orlunda	-2624
▁drag	-2625
▁bestämt	-2626
gre	-2627
▁respekt	-2628
▁vel	-2629
inci	-2630
▁of	-2631
▁dum	-2632
ba	-2633
▁Skulle	-2634
▁ej	-2635
öja	-2636
▁skapa	-2637
efter	-2638
▁kilometer	-2639
eder	-2640
▁Måste	-2641
▁pratade	-2642
förande	-2643
ills	-2644
fton	-2645
▁chef	-2646
▁sid	-2647
▁tillräck	-2648
öll	-2649
▁nyss	-2650
▁drabb	-2651
▁gal	-2652
samma	-2653
fil	-2654
▁spelade	-2655
▁presenter	-2656
▁via	-2657
▁underbar	-2658
▁undrar	-2659
▁besö	-2660
ila	-2661
▁års	-2662
▁rid	-2663
▁ihåg	-2664
vin	-2665
▁lägenhet	-2666
▁Ut	-2667
minister	-2668
up	-2669
larna	-2670
veriges	-2671
äpp	-2672
▁press	-2673
heter	-2674
▁berättar	-2675
agg	-2676
▁viss	-2677
dera	-2678
▁SOM	-2679
▁hämta	-2680
▁blod	-2681
cer	-2682
▁underbart	-2683
isten	-2684
▁dator	-2685
▁Europa	-2686
▁Känns	-2687
ring	-2688
▁Blev	-2689
▁dotter	-2690
▁förutom	-2691
▁tydligen	-2692
▁hot	-2693
▁ställa	-2694
▁slutade	-2695
▁vädret	-2696
▁politik	-2697
cess	-2698
▁gymmet	-2699
▁morm	-2700
▁Kanada	-2701
▁teck	-2702
▁So	-2703
lin	-2704
plan	-2705
▁lyssna	-2706
▁Am	-2707
ay	-2708
▁the	-2709
,5	-2710
▁språk	-2711
▁trevlig	-2712
▁nöd	-2713
okl	-2714
▁väljer	-2715
▁bry	-2716
▁vackra	-2717
▁gran	-2718
iteten	-2719
▁pan	-2720
trem	-2721
▁spår	-2722
▁anställ	-2723
isa	-2724
▁ton	-2725
omm	-2726
▁fortsätter	-2727
okra	-2728
igen	-2729
otten	-2730
rummet	-2731
▁sur	-2732
▁lyckades	-2733
▁förlor	-2734
▁tycka	-2735
▁hann	-2736
▁lagt	-2737
▁kille	-2738
skr	-2739
▁flytta	-2740
▁kol	-2741
▁dec	-2742
▁kontakt	-2743
▁vann	-2744
▁förslag	-2745
▁Äl	-2746
▁stanna	-2747
ändigt	-2748
▁allra	-2749
▁Ant	-2750
▁regn	-2751
▁framåt	-2752
▁behövs	-2753
bygg	-2754
▁lättare	-2755
▁tittar	-2756
▁grej	-2757
▁polisen	-2758
▁fj	-2759
▁mannen	-2760
▁forsk	-2761
▁lust	-2762
▁nor	-2763
erro	-2764
▁utman	-2765
▁Sch	-2766
▁slog	-2767
ec	-2768
▁psyk	-2769
▁pratar	-2770
▁finans	-2771
▁förändr	-2772
äker	-2773
▁betal	-2774
öter	-2775
▁packa	-2776
▁miljö	-2777
▁reda	-2778
lands	-2779
▁köpt	-2780
▁byta	-2781
▁Toppen	-2782
▁Gör	-2783
▁föränd	-2784
▁motiv	-2785
iod	-2786
▁Tänk	-2787
▁ordentligt	-2788
▁sådär	-2789
▁ry	-2790
▁elever	-2791
▁kvart	-2792
▁utav	-2793
▁vitt	-2794
gär	-2795
▁Sh	-2796
▁Väl	-2797
▁196	-2798
morse	-2799
▁högre	-2800
▁politiska	-2801
▁gol	-2802
▁staden	-2803
▁Ind	-2804
▁bju	-2805
ton	-2806
erande	-2807
▁bas	-2808
▁Först	-2809
▁Därför	-2810
▁alternat	-2811
sö	-2812
örd	-2813
▁riktig	-2814
▁framtiden	-2815
▁kons	-2816
iat	-2817
▁Tack	-2818
ING	-2819
▁säl	-2820
ry	-2821
▁fas	-2822
minst	-2823
▁bilderna	-2824
▁älsk	-2825
za	-2826
▁behövde	-2827
book	-2828
ident	-2829
▁tvungen	-2830
▁Tur	-2831
lats	-2832
▁25	-2833
▁finnas	-2834
▁sek	-2835
uella	-2836
ugg	-2837
▁anledning	-2838
▁åtta	-2839
▁högt	-2840
▁nere	-2841
inge	-2842
▁lek	-2843
▁skaff	-2844
▁gemens	-2845
▁viktiga	-2846
komm	-2847
fer	-2848
▁mäng	-2849
värt	-2850
▁Visst	-2851
▁godis	-2852
▁rom	-2853
pat	-2854
ike	-2855
▁kompl	-2856
▁hoppa	-2857
rakt	-2858
snitt	-2859
EL	-2860
ūh	-2861
▁hotell	-2862
▁pat	-2863
▁ses	-2864
▁snar	-2865
fik	-2866
▁regeringen	-2867
▁härligt	-2868
tas	-2869
▁lägg	-2870
ional	-2871
▁vård	-2872
änder	-2873
ölj	-2874
rit	-2875
avsett	-2876
▁bost	-2877
oss	-2878
▁Q	-2879
▁tyst	-2880
ansen	-2881
▁Par	-2882
▁vanlig	-2883
▁sh	-2884
vår	-2885
▁känslor	-2886
ny	-2887
anda	-2888
▁kvinna	-2889
▁flick	-2890
▁vide	-2891
▁tjejer	-2892
▁beror	-2893
▁värt	-2894
▁undan	-2895
▁kill	-2896
▁försök	-2897
val	-2898
▁passa	-2899
▁uppmärk	-2900
▁princi	-2901
▁30	-2902
▁samtal	-2903
▁sky	-2904
cebook	-2905
väl	-2906
▁sim	-2907
▁filmer	-2908
▁medel	-2909
▁maten	-2910
ump	-2911
▁såhär	-2912
ista	-2913
▁stallet	-2914
▁vänster	-2915
▁liknande	-2916
▁katt	-2917
ppen	-2918
▁kött	-2919
cep	-2920
▁diskuter	-2921
ona	-2922
▁dricka	-2923
▁torsdag	-2924
▁gud	-2925
▁triv	-2926
äckte	-2927
KT	-2928
ge	-2929
ink	-2930
▁planer	-2931
anta	-2932
▁hände	-2933
▁ram	-2934
unkt	-2935
▁skillnad	-2936
▁pigg	-2937
saker	-2938
▁tung	-2939
odligen	-2940
väll	-2941
▁Karl	-2942
▁co	-2943
▁exakt	-2944
▁kollar	-2945
▁sjön	-2946
▁extrem	-2947
▁klarar	-2948
▁Mitt	-2949
▁åsikt	-2950
▁bygga	-2951
minstone	-2952
▁frisk	-2953
▁författ	-2954
▁dryg	-2955
ib	-2956
▁pop	-2957
▁skor	-2958
▁därmed	-2959
▁njuta	-2960
▁somna	-2961
öder	-2962
▁bill	-2963
▁oc	-2964
▁brev	-2965
▁Sveriges	-2966
▁kast	-2967
▁handla	-2968
kare	-2969
▁hjärta	-2970
▁minska	-2971
stå	-2972
▁ba	-2973
blad	-2974
▁dela	-2975
▁rejäl	-2976
uni	-2977
▁TV	-2978
▁erfar	-2979
▁aning	-2980
demokra	-2981
▁köp	-2982
oklad	-2983
▁mött	-2984
istr	-2985
▁Fred	-2986
iot	-2987
lös	-2988
▁Malm	-2989
▁tittade	-2990
grupp	-2991
gården	-2992
▁möt	-2993
▁ansikt	-2994
▁Se	-2995
▁Pr	-2996
▁längtar	-2997
▁ok	-2998
▁hösten	-2999
▁matchen	-3000
▁nov	-3001
▁kallt	-3002
ive	-3003
skott	-3004
▁konkur	-3005
▁Vär	-3006
emi	-3007
▁rygg	-3008
▁as	-3009
▁totalt	-3010
iktigt	-3011
nation	-3012
▁sätter	-3013
ikat	-3014
▁Jul	-3015
▁allting	-3016
▁träningen	-3017
▁kap	-3018
▁älskade	-3019
▁mormor	-3020
▁unga	-3021
ämt	-3022
omb	-3023
garna	-3024
▁känslan	-3025
▁tillräckligt	-3026
▁telefon	-3027
▁mun	-3028
▁son	-3029
▁Annars	-3030
▁uppfatt	-3031
▁artik	-3032
diga	-3033
▁lägen	-3034
▁snäll	-3035
▁vare	-3036
▁Trots	-3037
▁Ka	-3038
▁ringde	-3039
▁betala	-3040
förs	-3041
▁medvet	-3042
▁baka	-3043
alis	-3044
▁rent	-3045
jan	-3046
▁let	-3047
▁konstat	-3048
▁ledsen	-3049
AT	-3050
orden	-3051
▁hittat	-3052
▁fantastiskt	-3053
icker	-3054
▁känt	-3055
▁säkerhet	-3056
vs	-3057
▁hörs	-3058
▁Cerro	-3059
▁hun	-3060
▁jan	-3061
▁gn	-3062
iver	-3063
▁fotograf	-3064
▁hända	-3065
yggen	-3066
tem	-3067
skon	-3068
åga	-3069
▁samarbet	-3070
▁Tror	-3071
▁historia	-3072
▁scen	-3073
▁nag	-3074
▁annorlunda	-3075
▁ill	-3076
▁Lac	-3077
▁sydv	-3078
▁tuff	-3079
▁vattnet	-3080
▁minns	-3081
▁poäng	-3082
▁förber	-3083
▁Känner	-3084
ycken	-3085
▁nått	-3086
▁avsl	-3087
▁svara	-3088
▁frågade	-3089
▁inneh	-3090
▁sän	-3091
läg	-3092
▁demokrat	-3093
▁personal	-3094
▁öns	-3095
▁Lake	-3096
isar	-3097
▁född	-3098
▁utr	-3099
orge	-3100
ugust	-3101
▁inse	-3102
äft	-3103
▁hinna	-3104
▁kamp	-3105
▁värsta	-3106
PP	-3107
▁period	-3108
▁Kūh	-3109
▁lön	-3110
▁försvar	-3111
▁valde	-3112
▁sydväst	-3113
▁SÅ	-3114
inen	-3115
▁ru	-3116
▁antalet	-3117
▁log	-3118
▁riks	-3119
▁Chr	-3120
bur	-3121
▁väst	-3122
▁krav	-3123
▁humör	-3124
▁VAR	-3125
▁kont	-3126
▁härlig	-3127
slaget	-3128
fri	-3129
pass	-3130
▁rummet	-3131
▁rut	-3132
idae	-3133
▁viktig	-3134
▁hört	-3135
▁grejer	-3136
▁skogen	-3137
▁Mat	-3138
▁bestämde	-3139
▁kompisar	-3140
▁ST	-3141
på	-3142
▁gro	-3143
▁stil	-3144
rådet	-3145
▁sällan	-3146
▁båt	-3147
▁Kon	-3148
▁klän	-3149
juk	-3150
▁laget	-3151
▁trad	-3152
▁Tänkte	-3153
▁arm	-3154
▁julkla	-3155
▁begr	-3156
▁fött	-3157
▁ända	-3158
▁choklad	-3159
▁indiv	-3160
fte	-3161
▁främst	-3162
▁tapp	-3163
una	-3164
▁fing	-3165
▁inst	-3166
väst	-3167
skolan	-3168
▁toppen	-3169
staur	-3170
emang	-3171
▁sats	-3172
▁plugg	-3173
▁Bå	-3174
▁sym	-3175
▁New	-3176
länd	-3177
strukt	-3178
▁nerv	-3179
då	-3180
▁ögonen	-3181
▁öppet	-3182
ären	-3183
IS	-3184
gående	-3185
▁Någon	-3186
▁fören	-3187
klara	-3188
▁slutar	-3189
▁kus	-3190
▁söt	-3191
▁Sm	-3192
▁makt	-3193
▁röd	-3194
▁åtminstone	-3195
ius	-3196
▁kalla	-3197
xor	-3198
▁engelska	-3199
ota	-3200
▁oper	-3201
▁mon	-3202
fs	-3203
▁avgör	-3204
▁höger	-3205
▁tävling	-3206
▁onsdag	-3207
▁skå	-3208
▁varken	-3209
▁Två	-3210
end	-3211
▁pot	-3212
uren	-3213
▁medic	-3214
▁detal	-3215
▁givet	-3216
lament	-3217
▁Str	-3218
uellt	-3219
▁ras	-3220
istan	-3221
vik	-3222
▁Samtidigt	-3223
ca	-3224
▁Finns	-3225
▁mjöl	-3226
▁grän	-3227
▁möte	-3228
▁personen	-3229
▁höga	-3230
▁univers	-3231
▁back	-3232
▁framgång	-3233
▁trygg	-3234
mäl	-3235
▁vinna	-3236
▁dörren	-3237
▁defin	-3238
▁het	-3239
istiska	-3240
▁kära	-3241
▁läsare	-3242
gj	-3243
▁ande	-3244
▁Tycker	-3245
itut	-3246
▁dubb	-3247
▁yr	-3248
▁nivå	-3249
▁kram	-3250
▁kry	-3251
ander	-3252
▁lärare	-3253
▁testa	-3254
▁rida	-3255
▁värre	-3256
▁negat	-3257
▁övrigt	-3258
▁tillhör	-3259
▁sta	-3260
▁följer	-3261
▁jordbruk	-3262
ator	-3263
chen	-3264
▁Sl	-3265
ana	-3266
▁internation	-3267
▁sömn	-3268
▁Mycket	-3269
▁mars	-3270
▁oer	-3271
▁ne	-3272
▁yn	-3273
kort	-3274
peiska	-3275
ätta	-3276
sats	-3277
▁inled	-3278
▁grön	-3279
▁internet	-3280
▁hjälper	-3281
▁interv	-3282
▁märk	-3283
▁städa	-3284
vist	-3285
▁buss	-3286
▁hård	-3287
▁MED	-3288
▁sjukdom	-3289
▁tala	-3290
co	-3291
▁vardag	-3292
mål	-3293
▁förhoppningsvis	-3294
,2	-3295
▁någonstans	-3296
▁long	-3297
ände	-3298
▁Carl	-3299
ställning	-3300
▁..	-3301
▁cirka	-3302
▁ting	-3303
▁na	-3304
▁naturligtvis	-3305
▁förmodligen	-3306
ension	-3307
▁sutt	-3308
▁utred	-3309
▁tätbefolkat	-3310
ansson	-3311
gl	-3312
▁köket	-3313
▁imorse	-3314
▁lyckats	-3315
▁195	-3316
▁stolt	-3317
bund	-3318
▁jobbat	-3319
eran	-3320
▁terrängen	-3321
▁ad	-3322
tter	-3323
▁fira	-3324
▁INTE	-3325
▁runda	-3326
▁fys	-3327
▁parti	-3328
ira	-3329
▁funkar	-3330
gå	-3331
▁sovit	-3332
▁använd	-3333
▁dåliga	-3334
▁gäng	-3335
▁träffade	-3336
▁antag	-3337
▁Börj	-3338
▁jäk	-3339
▁Ju	-3340
▁accep	-3341
▁nödvän	-3342
▁spelare	-3343
po	-3344
,1	-3345
natt	-3346
arm	-3347
▁talar	-3348
▁Anna	-3349
▁lopp	-3350
▁snygga	-3351
▁ter	-3352
▁sällskap	-3353
▁nam	-3354
▁årets	-3355
▁smär	-3356
▁födels	-3357
▁TILL	-3358
▁dam	-3359
▁inlägget	-3360
▁restaur	-3361
▁mysig	-3362
▁nordost	-3363
▁beb	-3364
▁anal	-3365
▁erfarenhet	-3366
▁föres	-3367
▁recept	-3368
AS	-3369
▁oerhör	-3370
▁22	-3371
▁uppskatt	-3372
▁paket	-3373
▁nation	-3374
stra	-3375
▁marknad	-3376
▁ordförande	-3377
▁eng	-3378
▁nio	-3379
ören	-3380
aken	-3381
▁sönder	-3382
▁omöj	-3383
▁uppgifter	-3384
▁bredvid	-3385
▁21	-3386
▁tanken	-3387
▁halvt	-3388
▁Fa	-3389
pres	-3390
▁arbetar	-3391
oph	-3392
uck	-3393
▁kunskap	-3394
▁uppf	-3395
ih	-3396
▁vakna	-3397
▁boll	-3398
▁tisdag	-3399
▁fjäril	-3400
▁våren	-3401
▁amb	-3402
karen	-3403
urnal	-3404
▁genomför	-3405
teg	-3406
▁sämre	-3407
sel	-3408
iam	-3409
▁ide	-3410
▁förbätt	-3411
▁sugen	-3412
▁sprang	-3413
▁regering	-3414
▁lagom	-3415
▁fyller	-3416
▁vita	-3417
enden	-3418
▁Snart	-3419
,3	-3420
▁;	-3421
▁post	-3422
bror	-3423
▁starka	-3424
▁åtgär	-3425
lor	-3426
▁somnade	-3427
sättning	-3428
▁Helt	-3429
▁Bra	-3430
ork	-3431
▁räcker	-3432
▁ångest	-3433
▁beroende	-3434
▁Erik	-3435
▁mänsk	-3436
itar	-3437
▁plus	-3438
san	-3439
ea	-3440
▁innehåll	-3441
▁Ex	-3442
▁Fil	-3443
ones	-3444
▁ot	-3445
▁arbeta	-3446
▁OM	-3447
ptem	-3448
▁sker	-3449
brott	-3450
arder	-3451
▁enbart	-3452
▁morse	-3453
▁relig	-3454
anter	-3455
▁övert	-3456
▁verksamhet	-3457
▁velat	-3458
illade	-3459
ies	-3460
▁princip	-3461
▁juni	-3462
▁grat	-3463
▁omfatt	-3464
▁tryck	-3465
▁sydost	-3466
▁kyl	-3467
▁band	-3468
▁området	-3469
ure	-3470
▁oavsett	-3471
▁duktig	-3472
▁San	-3473
00-	-3474
▁ställe	-3475
▁hittills	-3476
▁smör	-3477
bord	-3478
eställ	-3479
▁Mal	-3480
▁berättade	-3481
▁text	-3482
▁betydligt	-3483
▁SK	-3484
▁193	-3485
▁diskuss	-3486
,4	-3487
▁överra	-3488
▁Malmö	-3489
▁vr	-3490
▁hin	-3491
▁giv	-3492
ckar	-3493
▁synd	-3494
▁ax	-3495
endet	-3496
köping	-3497
▁förmid	-3498
▁Car	-3499
▁umgås	-3500
▁rakt	-3501
▁public	-3502
▁ox	-3503
▁194	-3504
ity	-3505
ullar	-3506
▁ändra	-3507
▁ställer	-3508
▁Hem	-3509
eringen	-3510
igh	-3511
▁present	-3512
▁funn	-3513
▁ljud	-3514
▁fruktans	-3515
stid	-3516
▁nätet	-3517
ämn	-3518
▁funderar	-3519
▁närmare	-3520
ober	-3521
▁mitten	-3522
▁kommenter	-3523
UN	-3524
▁göras	-3525
▁leder	-3526
▁kommande	-3527
▁Dessa	-3528
äckt	-3529
▁ryggen	-3530
,7	-3531
▁kommiss	-3532
▁Lund	-3533
,6	-3534
aten	-3535
▁efteråt	-3536
▁Mina	-3537
▁fördel	-3538
▁uppen	-3539
▁januari	-3540
▁pojk	-3541
▁försökt	-3542
▁Ikväll	-3543
hl	-3544
▁nordväst	-3545
▁tydligt	-3546
skriv	-3547
▁Tyvärr	-3548
▁infl	-3549
be	-3550
▁inatt	-3551
▁lät	-3552
▁guld	-3553
ptember	-3554
▁amerikanska	-3555
▁puss	-3556
▁överallt	-3557
▁ass	-3558
innan	-3559
▁värde	-3560
▁lycklig	-3561
▁Gen	-3562
▁bror	-3563
▁utn	-3564
▁taget	-3565
▁gett	-3566
▁kin	-3567
imin	-3568
bert	-3569
▁osv	-3570
örer	-3571
▁Ge	-3572
mande	-3573
▁läste	-3574
▁matte	-3575
▁irrit	-3576
▁konkurr	-3577
▁Jan	-3578
▁dyr	-3579
▁Ver	-3580
pril	-3581
staden	-3582
fiken	-3583
uten	-3584
▁ägg	-3585
aden	-3586
▁vars	-3587
LIG	-3588
odde	-3589
▁tum	-3590
▁slår	-3591
▁rekommen	-3592
▁president	-3593
rogram	-3594
▁ringa	-3595
▁drygt	-3596
▁Något	-3597
▁svåra	-3598
▁luft	-3599
▁Vilket	-3600
▁sat	-3601
▁mis	-3602
▁Alltså	-3603
yra	-3604
▁pga	-3605
▁Pl	-3606
▁politiker	-3607
▁nyår	-3608
▁värd	-3609
▁trans	-3610
orten	-3611
gren	-3612
▁glass	-3613
▁smak	-3614
▁lägenheten	-3615
ron	-3616
jö	-3617
▁lärt	-3618
bud	-3619
▁materi	-3620
▁Bland	-3621
▁Gl	-3622
▁event	-3623
▁prote	-3624
▁ekonomiska	-3625
kland	-3626
▁gjor	-3627
▁bevis	-3628
,8	-3629
▁slags	-3630
▁samband	-3631
▁HAR	-3632
▁191	-3633
▁utför	-3634
▁terr	-3635
▁riktiga	-3636
▁intresse	-3637
▁192	-3638
▁glada	-3639
,0	-3640
duc	-3641
▁23	-3642
▁suttit	-3643
erades	-3644
▁hatar	-3645
▁snarare	-3646
▁hänga	-3647
▁sociala	-3648
ondon	-3649
mel	-3650
▁hälsa	-3651
ES	-3652
▁syr	-3653
imer	-3654
▁starkt	-3655
▁miljarder	-3656
▁bro	-3657
▁sann	-3658
▁Från	-3659
▁kat	-3660
hel	-3661
▁relat	-3662
naderna	-3663
▁fantastisk	-3664
▁sorg	-3665
▁lämnade	-3666
▁no	-3667
▁krävs	-3668
▁dels	-3669
▁tand	-3670
rarna	-3671
▁ätt	-3672
pade	-3673
▁Gick	-3674
omas	-3675
ustral	-3676
slös	-3677
jöd	-3678
▁Mer	-3679
▁dyg	-3680
▁lyssnar	-3681
▁födelsedag	-3682
▁december	-3683
▁febr	-3684
stan	-3685
orts	-3686
,9	-3687
▁livs	-3688
skland	-3689
▁imp	-3690
▁fol	-3691
oder	-3692
▁vågar	-3693
▁handen	-3694
edd	-3695
▁nätt	-3696
▁Ben	-3697
▁24	-3698
▁Björ	-3699
▁bytt	-3700
▁passade	-3701
gången	-3702
▁åkt	-3703
▁kräver	-3704
▁lösa	-3705
▁mening	-3706
▁öka	-3707
▁grymt	-3708
▁debatt	-3709
fa	-3710
▁hjärtat	-3711
▁numera	-3712
▁oerhört	-3713
▁Några	-3714
▁onöd	-3715
-2	-3716
verket	-3717
▁ers	-3718
▁saken	-3719
▁engag	-3720
▁valt	-3721
▁dagis	-3722
▁utbildning	-3723
kohol	-3724
▁närmaste	-3725
öta	-3726
▁laga	-3727
enten	-3728
▁syss	-3729
▁förstör	-3730
nam	-3731
atis	-3732
▁övriga	-3733
let	-3734
▁papper	-3735
värk	-3736
▁mamm	-3737
▁slapp	-3738
▁Går	-3739
▁ager	-3740
▁enorm	-3741
▁Stor	-3742
▁mask	-3743
gård	-3744
▁Tid	-3745
▁hundra	-3746
▁z	-3747
itel	-3748
▁Mart	-3749
▁september	-3750
▁Her	-3751
▁Alex	-3752
pers	-3753
▁fåg	-3754
▁inspir	-3755
▁Nord	-3756
▁idrott	-3757
lt	-3758
▁slipp	-3759
tiden	-3760
add	-3761
ickar	-3762
▁straff	-3763
▁eftermiddagen	-3764
kn	-3765
▁Fredrik	-3766
▁golvet	-3767
▁Första	-3768
▁Vem	-3769
▁röra	-3770
ham	-3771
▁överens	-3772
iella	-3773
▁Ph	-3774
▁funkt	-3775
▁viktigaste	-3776
▁milit	-3777
oka	-3778
▁Peter	-3779
▁lock	-3780
▁År	-3781
▁glädje	-3782
bes	-3783
vete	-3784
åning	-3785
▁hell	-3786
▁Pol	-3787
▁stack	-3788
▁slit	-3789
▁desig	-3790
▁påsk	-3791
▁alternativ	-3792
▁Vak	-3793
ugusti	-3794
▁her	-3795
▁stats	-3796
▁släppa	-3797
▁benen	-3798
orer	-3799
▁hål	-3800
▁undv	-3801
▁kla	-3802
rör	-3803
▁cykel	-3804
ide	-3805
▁bur	-3806
ae	-3807
mas	-3808
stret	-3809
▁num	-3810
▁Anders	-3811
▁mått	-3812
▁Pre	-3813
▁därefter	-3814
▁vacker	-3815
▁häv	-3816
▁AV	-3817
▁svag	-3818
▁skjut	-3819
▁eftermiddag	-3820
▁syns	-3821
IT	-3822
säkt	-3823
▁april	-3824
▁tun	-3825
ÅN	-3826
rak	-3827
jo	-3828
▁popul	-3829
▁Kö	-3830
ktober	-3831
ben	-3832
▁100	-3833
▁rund	-3834
▁tåget	-3835
ständ	-3836
▁känd	-3837
▁säsongen	-3838
▁50	-3839
▁dan	-3840
▁svarta	-3841
▁givetvis	-3842
ern	-3843
▁Vår	-3844
▁Kar	-3845
▁fundera	-3846
uell	-3847
▁månaden	-3848
fel	-3849
▁Mamma	-3850
cke	-3851
ionerna	-3852
▁bröst	-3853
▁kara	-3854
▁Kina	-3855
▁Svens	-3856
▁legat	-3857
off	-3858
▁Omgiv	-3859
▁herr	-3860
▁prof	-3861
ÅR	-3862
▁Dagen	-3863
▁hänger	-3864
▁konser	-3865
▁förhand	-3866
▁skäl	-3867
▁glömt	-3868
mus	-3869
▁alkohol	-3870
ubl	-3871
▁resultatet	-3872
▁jordbruks	-3873
▁Gre	-3874
amt	-3875
▁seri	-3876
▁lill	-3877
krike	-3878
▁jäkla	-3879
▁me	-3880
▁fett	-3881
▁uttryck	-3882
▁banan	-3883
fred	-3884
▁ak	-3885
▁ålder	-3886
ingarna	-3887
ärn	-3888
järn	-3889
▁snyggt	-3890
▁Krist	-3891
▁...	-3892
▁God	-3893
▁perio	-3894
äx	-3895
▁själ	-3896
press	-3897
hang	-3898
▁moder	-3899
▁nedan	-3900
ly	-3901
▁härliga	-3902
▁Låt	-3903
▁tolv	-3904
▁lille	-3905
▁lukt	-3906
rael	-3907
▁hyr	-3908
▁gat	-3909
▁rapporter	-3910
▁hörde	-3911
▁täck	-3912
▁halva	-3913
stav	-3914
cken	-3915
▁exempelvis	-3916
▁problemet	-3917
rande	-3918
▁meddel	-3919
▁fry	-3920
▁färger	-3921
▁vintern	-3922
chef	-3923
itta	-3924
▁frågar	-3925
▁möta	-3926
▁inf	-3927
sidan	-3928
▁oxå	-3929
▁november	-3930
▁inb	-3931
▁kyrkan	-3932
▁Tan	-3933
▁Ca	-3934
ärer	-3935
▁fantastiska	-3936
▁offent	-3937
ilda	-3938
klam	-3939
▁Mel	-3940
▁mynd	-3941
▁hämtade	-3942
▁bröd	-3943
▁köper	-3944
▁slipper	-3945
▁Jes	-3946
▁tradition	-3947
▁vackert	-3948
we	-3949
▁situation	-3950
▁tränings	-3951
▁journal	-3952
fan	-3953
▁jg	-3954
▁förklara	-3955
▁Vilken	-3956
▁Åh	-3957
ensen	-3958
bum	-3959
▁killar	-3960
▁redo	-3961
▁söta	-3962
▁arbetet	-3963
▁Is	-3964
▁positivt	-3965
▁byg	-3966
▁Ham	-3967
serligen	-3968
▁Ann	-3969
▁augusti	-3970
▁Omgivningarna	-3971
ids	-3972
etten	-3973
▁Älskar	-3974
▁gymnas	-3975
sland	-3976
ADE	-3977
▁London	-3978
ura	-3979
djur	-3980
▁Folk	-3981
ros	-3982
demokraterna	-3983
▁repres	-3984
▁oktober	-3985
▁misstän	-3986
skor	-3987
▁områden	-3988
gin	-3989
träd	-3990
▁Co	-3991
ise	-3992
▁plac	-3993
sekv	-3994
ännen	-3995
▁fyr	-3996
▁medborg	-3997
styr	-3998
▁lämnar	-3999
▁Lind	-4000
▁sättet	-4001
▁Po	-4002
▁insats	-4003
▁vända	-4004
bok	-4005
▁resan	-4006
huvud	-4007
aler	-4008
▁kommentarer	-4009
▁tusen	-4010
▁Svenska	-4011
▁kallas	-4012
▁antagligen	-4013
▁intervju	-4014
▁ork	-4015
▁prova	-4016
▁skiv	-4017
polit	-4018
ya	-4019
▁ort	-4020
▁bidrag	-4021
▁regel	-4022
▁tillfället	-4023
▁mam	-4024
▁piz	-4025
▁skal	-4026
▁Hela	-4027
dor	-4028
▁möjligheter	-4029
imat	-4030
AL	-4031
▁port	-4032
▁röda	-4033
▁dest	-4034
▁leka	-4035
▁rosa	-4036
▁halsen	-4037
▁brist	-4038
▁platser	-4039
▁avsnitt	-4040
▁tas	-4041
▁inspi	-4042
▁vägg	-4043
▁innehåller	-4044
▁era	-4045
▁Tre	-4046
▁hästar	-4047
▁kallar	-4048
dt	-4049
▁mobilen	-4050
▁bakgr	-4051
län	-4052
▁valet	-4053
ödra	-4054
▁enkla	-4055
pris	-4056
▁fäng	-4057
▁träffat	-4058
▁väll	-4059
▁cykl	-4060
▁smått	-4061
▁uppgift	-4062
▁extremt	-4063
anten	-4064
dagens	-4065
▁Vis	-4066
ningens	-4067
ue	-4068
▁John	-4069
▁mod	-4070
▁bryr	-4071
jus	-4072
iff	-4073
▁siff	-4074
▁Ra	-4075
▁privat	-4076
▁--	-4077
▁värme	-4078
▁utmär	-4079
▁planerat	-4080
▁gravid	-4081
lades	-4082
▁kallade	-4083
▁Sy	-4084
gifter	-4085
ital	-4086
▁erkän	-4087
▁rens	-4088
▁inser	-4089
▁Emma	-4090
▁MEN	-4091
lande	-4092
▁vardags	-4093
▁förek	-4094
▁vuxna	-4095
▁od	-4096
▁söka	-4097
▁Däremot	-4098
▁slippa	-4099
▁sjuka	-4100
▁40	-4101
▁tycks	-4102
▁mots	-4103
▁betydelse	-4104
▁punkt	-4105
▁senast	-4106
imm	-4107
▁fräs	-4108
▁ökar	-4109
▁Res	-4110
▁Tog	-4111
▁mång	-4112
▁skoj	-4113
▁server	-4114
▁används	-4115
▁jorden	-4116
▁tränar	-4117
▁våran	-4118
kret	-4119
▁handlade	-4120
▁ursäkt	-4121
platsen	-4122
▁erbju	-4123
▁löp	-4124
▁fallet	-4125
▁Ander	-4126
▁nämn	-4127
▁juli	-4128
▁sälja	-4129
▁pengarna	-4130
uden	-4131
▁icke	-4132
pten	-4133
lever	-4134
▁fir	-4135
▁DEN	-4136
▁190	-4137
▁schem	-4138
▁farmor	-4139
▁mage	-4140
troende	-4141
▁förutsätt	-4142
etr	-4143
▁fredags	-4144
▁fris	-4145
IK	-4146
vakt	-4147
▁Gun	-4148
stol	-4149
▁pojkvän	-4150
▁tunn	-4151
▁anmäl	-4152
▁sport	-4153
▁jättebra	-4154
▁äck	-4155
bro	-4156
▁uppdrag	-4157
▁parlament	-4158
allen	-4159
▁pri	-4160
▁käll	-4161
▁insåg	-4162
▁Precis	-4163
▁Tyskland	-4164
ollar	-4165
▁verkligheten	-4166
rala	-4167
enda	-4168
sf	-4169
▁situationen	-4170
▁ALL	-4171
▁bio	-4172
▁mm	-4173
▁tjock	-4174
▁februari	-4175
AM	-4176
▁tider	-4177
▁vaknar	-4178
▁cit	-4179
▁fortsatte	-4180
▁hoppade	-4181
EM	-4182
ågan	-4183
▁kulle	-4184
▁Ed	-4185
▁framöver	-4186
▁&	-4187
igger	-4188
▁nat	-4189
▁mön	-4190
▁leta	-4191
▁Vissa	-4192
▁Finland	-4193
▁fixat	-4194
▁chansen	-4195
▁ros	-4196
▁trä	-4197
▁förre	-4198
▁färdig	-4199
▁roligare	-4200
▁27	-4201
sc	-4202
▁bilar	-4203
▁kombin	-4204
▁rätta	-4205
▁Ga	-4206
ugan	-4207
▁tvåv	-4208
▁sal	-4209
yssland	-4210
▁händel	-4211
▁skapar	-4212
▁hungr	-4213
▁orsa	-4214
ye	-4215
▁Fram	-4216
▁dok	-4217
ori	-4218
lå	-4219
▁döm	-4220
aterna	-4221
▁kil	-4222
▁He	-4223
▁handel	-4224
▁produkter	-4225
organ	-4226
ash	-4227
▁utnytt	-4228
▁blommor	-4229
▁vari	-4230
▁Frankrike	-4231
▁socker	-4232
▁öl	-4233
▁Eng	-4234
▁bolag	-4235
▁Inget	-4236
▁we	-4237
IV	-4238
▁botten	-4239
uts	-4240
▁säsong	-4241
▁därifrån	-4242
▁karakt	-4243
▁förrän	-4244
hem	-4245
▁barnet	-4246
▁föred	-4247
▁rus	-4248
befolkad	-4249
▁vir	-4250
▁Lars	-4251
ank	-4252
▁faktum	-4253
cial	-4254
▁intens	-4255
medel	-4256
▁Matt	-4257
▁Hög	-4258
▁paus	-4259
▁skäm	-4260
▁sjukhus	-4261
▁fjärilsart	-4262
▁hellre	-4263
▁väntade	-4264
▁definit	-4265
▁stig	-4266
▁reser	-4267
▁jobbade	-4268
▁Austral	-4269
▁antingen	-4270
▁Utan	-4271
öjd	-4272
▁älskling	-4273
entet	-4274
ve	-4275
▁BL	-4276
▁trivs	-4277
▁bestämma	-4278
▁tillgång	-4279
▁begräns	-4280
▁rädda	-4281
▁konsekv	-4282
▁kollat	-4283
▁Norr	-4284
▁tidningen	-4285
tress	-4286
▁förvå	-4287
oster	-4288
▁Christ	-4289
▁ansiktet	-4290
▁kameran	-4291
▁skilj	-4292
▁snön	-4293
▁ständigt	-4294
▁exper	-4295
▁26	-4296
▁dog	-4297
hets	-4298
▁söker	-4299
ske	-4300
gad	-4301
▁gratis	-4302
au	-4303
juka	-4304
▁budget	-4305
▁feber	-4306
▁Mot	-4307
▁fattar	-4308
AD	-4309
▁lade	-4310
oma	-4311
▁visat	-4312
▁process	-4313
TER	-4314
▁tacka	-4315
▁välj	-4316
▁uttal	-4317
rats	-4318
▁luften	-4319
▁kommunen	-4320
▁oför	-4321
▁enskil	-4322
▁namnet	-4323
▁minsta	-4324
▁Will	-4325
▁stannade	-4326
▁Ad	-4327
emiär	-4328
▁övertyg	-4329
▁hamnar	-4330
▁deltag	-4331
▁utsatt	-4332
dade	-4333
▁positiv	-4334
ordning	-4335
▁alltför	-4336
▁marknaden	-4337
pas	-4338
▁Nil	-4339
öllop	-4340
▁olyck	-4341
▁undersök	-4342
ng	-4343
▁Andre	-4344
▁hundar	-4345
▁kak	-4346
▁ungdomar	-4347
▁Daniel	-4348
▁tol	-4349
ror	-4350
▁bete	-4351
▁stranden	-4352
▁utifrån	-4353
skväll	-4354
▁lämnat	-4355
▁grann	-4356
▁överlev	-4357
▁läsk	-4358
▁Maria	-4359
▁sköna	-4360
OL	-4361
▁leda	-4362
▁gu	-4363
sprung	-4364
▁frit	-4365
▁föll	-4366
▁ställen	-4367
▁kännas	-4368
▁hunden	-4369
▁jämfört	-4370
▁ret	-4371
sar	-4372
▁funnits	-4373
sd	-4374
▁följde	-4375
ugo	-4376
▁Söder	-4377
▁28	-4378
▁Bor	-4379
derar	-4380
▁nack	-4381
▁Vän	-4382
▁Läng	-4383
▁universitet	-4384
▁mel	-4385
▁Sim	-4386
kes	-4387
▁seger	-4388
▁matcher	-4389
▁gruppen	-4390
▁rym	-4391
▁Kal	-4392
▁VM	-4393
▁Innan	-4394
ama	-4395
yld	-4396
▁motstånd	-4397
▁klä	-4398
▁ersätt	-4399
oni	-4400
▁vag	-4401
▁skrik	-4402
kul	-4403
▁Varje	-4404
ionens	-4405
nu	-4406
▁glömma	-4407
▁förel	-4408
▁försälj	-4409
▁reag	-4410
flikt	-4411
▁Sara	-4412
▁klassen	-4413
▁springer	-4414
▁förvänt	-4415
▁andras	-4416
▁flyttade	-4417
▁skaffa	-4418
samheten	-4419
▁Vaknade	-4420
▁kontroll	-4421
▁löv	-4422
▁medicin	-4423
▁tvåvinge	-4424
▁positiva	-4425
▁fixade	-4426
▁obefolkad	-4427
▁rejält	-4428
▁faller	-4429
▁finaste	-4430
gäng	-4431
▁göm	-4432
▁ho	-4433
▁åsikter	-4434
▁trafik	-4435
ktor	-4436
▁bekr	-4437
IL	-4438
▁sammanhang	-4439
▁speg	-4440
▁reklam	-4441
▁krist	-4442
idor	-4443
▁takt	-4444
▁Hitt	-4445
▁kika	-4446
ställd	-4447
▁rep	-4448
▁knä	-4449
ekul	-4450
▁fång	-4451
▁överv	-4452
▁låtar	-4453
leken	-4454
▁veckorna	-4455
▁sant	-4456
▁damm	-4457
▁verkade	-4458
igheterna	-4459
▁ledare	-4460
▁Lag	-4461
th	-4462
▁tvåvingeart	-4463
▁dubbel	-4464
▁ell	-4465
▁garder	-4466
▁dikt	-4467
▁marken	-4468
eda	-4469
▁bev	-4470
▁ifall	-4471
▁längst	-4472
▁lokal	-4473
▁gällande	-4474
▁pin	-4475
blick	-4476
▁desto	-4477
▁betyg	-4478
▁Jos	-4479
▁nä	-4480
partiet	-4481
▁räkna	-4482
▁ordet	-4483
▁sidor	-4484
▁SV	-4485
DER	-4486
▁spelat	-4487
▁galet	-4488
▁ek	-4489
tryck	-4490
▁Nat	-4491
vägen	-4492
▁sticka	-4493
terade	-4494
▁fru	-4495
▁fruktansvärt	-4496
▁läkare	-4497
▁slänga	-4498
äller	-4499
▁besked	-4500
▁AN	-4501
▁mötte	-4502
▁mail	-4503
▁fjärde	-4504
▁kontra	-4505
▁tecken	-4506
seende	-4507
skapet	-4508
▁Span	-4509
varo	-4510
▁Nästa	-4511
▁rubr	-4512
▁behåll	-4513
andr	-4514
▁fräsch	-4515
▁missl	-4516
▁starta	-4517
▁omöjligt	-4518
▁korta	-4519
iote	-4520
▁fylla	-4521
▁kritik	-4522
▁profess	-4523
och	-4524
-0	-4525
▁djup	-4526
▁område	-4527
▁Mon	-4528
▁skräm	-4529
▁antar	-4530
▁svarade	-4531
▁framförallt	-4532
▁bygger	-4533
▁lovar	-4534
▁kalas	-4535
▁Dav	-4536
▁resur	-4537
▁hall	-4538
▁fungera	-4539
▁Go	-4540
iteter	-4541
▁ga	-4542
▁närma	-4543
▁rött	-4544
▁hjälpte	-4545
▁nummer	-4546
▁läget	-4547
▁svett	-4548
▁je	-4549
▁platsen	-4550
▁Martin	-4551
▁britt	-4552
▁Johansson	-4553
▁skott	-4554
▁bedöm	-4555
▁speciell	-4556
▁lån	-4557
▁höjd	-4558
urt	-4559
sing	-4560
▁tidig	-4561
rikt	-4562
▁allmänt	-4563
▁andas	-4564
▁kvinnan	-4565
▁Andra	-4566
▁orkade	-4567
▁revs	-4568
▁befinner	-4569
▁morfar	-4570
▁minnen	-4571
repp	-4572
▁intresserad	-4573
▁ug	-4574
▁kre	-4575
▁gäst	-4576
▁värmen	-4577
▁gjord	-4578
▁bjöd	-4579
▁avl	-4580
spro	-4581
▁svarar	-4582
▁dal	-4583
▁butik	-4584
▁pyss	-4585
▁varma	-4586
enser	-4587
▁välkom	-4588
gt	-4589
▁central	-4590
▁osäker	-4591
ligheter	-4592
▁vinst	-4593
▁Col	-4594
▁jäg	-4595
viken	-4596
▁Be	-4597
▁bröllop	-4598
▁bord	-4599
pektiv	-4600
jor	-4601
▁bank	-4602
ockey	-4603
▁Li	-4604
fé	-4605
tion	-4606
▁orka	-4607
▁stycken	-4608
▁förtjän	-4609
▁ursprung	-4610
stående	-4611
nd	-4612
fullt	-4613
▁tacksam	-4614
▁stannar	-4615
ligaste	-4616
▁kass	-4617
..	-4618
▁Mus	-4619
terar	-4620
▁X	-4621
▁företaget	-4622
växter	-4623
▁jordbruksmark	-4624
iten	-4625
▁lördags	-4626
handel	-4627
bliote	-4628
ologi	-4629
▁Väst	-4630
▁Nä	-4631
▁huvudstaden	-4632
▁dt	-4633
▁förhållande	-4634
▁folket	-4635
▁såväl	-4636
ald	-4637
▁mysa	-4638
▁kontroller	-4639
▁Komm	-4640
30	-4641
▁individ	-4642
olut	-4643
▁ident	-4644
▁stabil	-4645
▁fönster	-4646
▁lagen	-4647
▁kusin	-4648
▁Berg	-4649
▁hälften	-4650
▁öppen	-4651
▁kämpa	-4652
▁nervös	-4653
▁människan	-4654
▁kön	-4655
RO	-4656
▁sikt	-4657
▁Facebook	-4658
▁emellan	-4659
▁lyx	-4660
▁målet	-4661
▁inspiration	-4662
föret	-4663
ova	-4664
▁Norge	-4665
isterna	-4666
entyr	-4667
▁mjuk	-4668
ativ	-4669
▁regler	-4670
▁jeg	-4671
▁fant	-4672
sled	-4673
▁serien	-4674
▁förban	-4675
RE	-4676
esk	-4677
▁Andersson	-4678
▁tål	-4679
unds	-4680
▁tus	-4681
▁tjejerna	-4682
▁hyll	-4683
rav	-4684
latt	-4685
▁förstod	-4686
▁tvek	-4687
▁föreställ	-4688
▁relativt	-4689
skl	-4690
▁Över	-4691
▁Ligger	-4692
▁trott	-4693
▁gråta	-4694
löst	-4695
▁pär	-4696
▁tillslut	-4697
▁Sc	-4698
kraft	-4699
astes	-4700
irekt	-4701
▁användas	-4702
▁tillfälle	-4703
rin	-4704
▁partiet	-4705
emål	-4706
▁bebis	-4707
kast	-4708
exik	-4709
alle	-4710
wa	-4711
▁pratat	-4712
bring	-4713
rater	-4714
▁påverka	-4715
▁duschen	-4716
ländska	-4717
▁vapen	-4718
rof	-4719
▁skar	-4720
▁sakta	-4721
▁mjölk	-4722
▁kollekt	-4723
sters	-4724
▁ställde	-4725
▁redov	-4726
former	-4727
▁stött	-4728
▁låten	-4729
istisk	-4730
▁snacka	-4731
drarna	-4732
▁rän	-4733
▁sil	-4734
▁Australien	-4735
▁bära	-4736
▁uppdatering	-4737
NING	-4738
▁Sol	-4739
▁Kul	-4740
▁app	-4741
▁balans	-4742
▁pal	-4743
▁inre	-4744
stån	-4745
▁längs	-4746
▁kors	-4747
mo	-4748
▁vaken	-4749
▁panik	-4750
▁hjärt	-4751
▁Mich	-4752
▁shopping	-4753
▁dro	-4754
▁idéer	-4755
▁uppdatera	-4756
gav	-4757
▁döda	-4758
▁befolk	-4759
▁väntat	-4760
växtart	-4761
▁pension	-4762
▁svär	-4763
▁måla	-4764
▁fack	-4765
despel	-4766
▁normalt	-4767
▁DE	-4768
asy	-4769
▁bilj	-4770
eringar	-4771
sommar	-4772
▁nyligen	-4773
▁mol	-4774
▁29	-4775
▁Dr	-4776
låt	-4777
▁ag	-4778
▁ekonomi	-4779
asa	-4780
eten	-4781
▁knappast	-4782
▁centrum	-4783
▁kunder	-4784
▁tok	-4785
anc	-4786
▁Pers	-4787
▁loss	-4788
gress	-4789
▁York	-4790
▁jula	-4791
▁bordet	-4792
▁Emil	-4793
▁konstn	-4794
▁serv	-4795
▁priorit	-4796
▁klätt	-4797
usten	-4798
▁oj	-4799
▁kök	-4800
sala	-4801
▁tall	-4802
▁nyck	-4803
▁lista	-4804
till	-4805
anen	-4806
▁vett	-4807
ush	-4808
▁Jobb	-4809
▁svårare	-4810
▁konflikt	-4811
▁sms	-4812
▁Magn	-4813
ish	-4814
kommer	-4815
slam	-4816
▁garderob	-4817
▁dricker	-4818
ub	-4819
▁minut	-4820
demokrat	-4821
▁nuvarande	-4822
▁fota	-4823
qvist	-4824
▁växa	-4825
▁varenda	-4826
▁189	-4827
▁trapp	-4828
ino	-4829
▁Dagens	-4830
▁gubb	-4831
▁salt	-4832
▁stockholm	-4833
umm	-4834
komst	-4835
▁berör	-4836
▁åtgärder	-4837
▁ost	-4838
ÄL	-4839
ÅG	-4840
ums	-4841
▁tyska	-4842
▁kostar	-4843
▁material	-4844
rätten	-4845
äls	-4846
▁ladda	-4847
▁mådde	-4848
▁Danmark	-4849
▁vers	-4850
▁bodde	-4851
▁förkyl	-4852
▁Stockholms	-4853
▁serie	-4854
äde	-4855
▁framme	-4856
▁anställda	-4857
talien	-4858
▁it	-4859
året	-4860
▁kända	-4861
▁kolleg	-4862
▁Del	-4863
▁vinner	-4864
▁Kän	-4865
▁farande	-4866
rikes	-4867
sträng	-4868
▁mätt	-4869
▁klag	-4870
▁Tor	-4871
▁rim	-4872
ugor	-4873
▁tvärt	-4874
äcken	-4875
▁grill	-4876
▁utvecklas	-4877
▁max	-4878
▁nöjda	-4879
▁försvinner	-4880
▁utgör	-4881
▁peppar	-4882
▁äpp	-4883
▁still	-4884
▁näs	-4885
▁Social	-4886
GEN	-4887
▁Sof	-4888
edda	-4889
SK	-4890
▁stär	-4891
▁relation	-4892
▁möter	-4893
▁orolig	-4894
▁träffar	-4895
▁medans	-4896
▁skratta	-4897
▁ent	-4898
▁Kung	-4899
stift	-4900
▁kurs	-4901
teck	-4902
▁lägre	-4903
▁SM	-4904
over	-4905
gick	-4906
▁programmet	-4907
kam	-4908
årig	-4909
äkr	-4910
mask	-4911
▁kärn	-4912
▁balkon	-4913
▁märker	-4914
syn	-4915
▁kung	-4916
▁barns	-4917
▁omgivande	-4918
▁äventyr	-4919
▁jobbig	-4920
OT	-4921
▁ifråg	-4922
råd	-4923
▁Genom	-4924
▁hästen	-4925
▁koncent	-4926
▁tränat	-4927
▁kart	-4928
▁definitivt	-4929
▁förekom	-4930
▁restaurang	-4931
ologiska	-4932
▁texten	-4933
ii	-4934
▁webb	-4935
▁bergig	-4936
▁da	-4937
▁Sak	-4938
▁drack	-4939
cher	-4940
▁bada	-4941
ensis	-4942
▁önsk	-4943
▁Mil	-4944
▁förändring	-4945
▁Sta	-4946
▁vol	-4947
▁parker	-4948
▁undvika	-4949
▁centrala	-4950
▁Lar	-4951
▁nyhet	-4952
▁Pat	-4953
▁Ba	-4954
▁produc	-4955
▁Herr	-4956
▁dis	-4957
▁munnen	-4958
▁kläd	-4959
▁duscha	-4960
▁OS	-4961
osen	-4962
▁FR	-4963
▁högst	-4964
▁återvän	-4965
▁brän	-4966
▁rättigheter	-4967
bundet	-4968
▁spelet	-4969
her	-4970
▁Koll	-4971
▁facebook	-4972
umenter	-4973
50	-4974
▁jur	-4975
▁snälla	-4976
▁sannol	-4977
barn	-4978
▁landets	-4979
▁försam	-4980
▁slutat	-4981
fören	-4982
▁Jonas	-4983
▁tet	-4984
▁spän	-4985
▁visserligen	-4986
pun	-4987
slan	-4988
cus	-4989
▁Öster	-4990
▁varier	-4991
▁städer	-4992
nades	-4993
▁påpe	-4994
▁utvecklingen	-4995
▁smink	-4996
▁premiär	-4997
▁Wil	-4998
AND	-4999
▁skul	-5000
▁försvann	-5001
▁bem	-5002
▁vd	-5003
▁sål	-5004
▁Jenn	-5005
ftar	-5006
rek	-5007
pin	-5008
▁adv	-5009
▁våga	-5010
fest	-5011
ången	-5012
äste	-5013
▁Stefan	-5014
▁noll	-5015
▁franska	-5016
ässigt	-5017
▁Fan	-5018
▁priset	-5019
▁järn	-5020
▁Ryssland	-5021
▁såna	-5022
▁återigen	-5023
▁klänning	-5024
▁internationella	-5025
▁grupper	-5026
▁Skol	-5027
elg	-5028
▁ringer	-5029
åring	-5030
fulla	-5031
punkt	-5032
▁spara	-5033
▁Spanien	-5034
▁avtal	-5035
▁miljon	-5036
▁ökat	-5037
▁Beh	-5038
▁förh	-5039
kades	-5040
▁sorter	-5041
▁enkl	-5042
▁tjänst	-5043
▁mörkt	-5044
▁exist	-5045
bon	-5046
▁hantera	-5047
▁klimat	-5048
▁bjuda	-5049
▁dollar	-5050
kande	-5051
▁video	-5052
ij	-5053
nads	-5054
▁vind	-5055
▁utrym	-5056
▁elva	-5057
▁eta	-5058
▁Syd	-5059
▁kyrk	-5060
▁litter	-5061
▁gull	-5062
▁hemsida	-5063
▁karri	-5064
▁teknik	-5065
ntligen	-5066
▁ström	-5067
▁gröna	-5068
ismen	-5069
taget	-5070
▁bjuder	-5071
▁södra	-5072
▁europeiska	-5073
▁Hanna	-5074
▁sång	-5075
▁julen	-5076
▁hud	-5077
▁Kun	-5078
igheten	-5079
ikte	-5080
▁strål	-5081
ämp	-5082
frika	-5083
TA	-5084
▁tungt	-5085
brit	-5086
▁stads	-5087
▁julklapp	-5088
▁Ul	-5089
▁erbjud	-5090
▁sekund	-5091
▁Lu	-5092
▁Fort	-5093
▁underhåll	-5094
▁yngre	-5095
▁lektion	-5096
ith	-5097
▁Magnus	-5098
▁major	-5099
erska	-5100
▁hungrig	-5101
kning	-5102
▁Sov	-5103
cin	-5104
▁smart	-5105
vård	-5106
▁käns	-5107
▁Både	-5108
▁gräns	-5109
▁affären	-5110
▁påmin	-5111
▁Slut	-5112
▁riv	-5113
burg	-5114
▁sälj	-5115
onesien	-5116
▁Förutom	-5117
▁til	-5118
▁mörk	-5119
gent	-5120
▁Dem	-5121
▁Hall	-5122
▁prins	-5123
▁skri	-5124
vat	-5125
följ	-5126
▁kört	-5127
▁snur	-5128
▁last	-5129
▁kris	-5130
▁sall	-5131
visa	-5132
▁tvätta	-5133
▁Väster	-5134
▁pizza	-5135
▁kontor	-5136
▁detaljer	-5137
▁förd	-5138
▁tillfällen	-5139
▁flykt	-5140
▁media	-5141
▁Su	-5142
▁tomt	-5143
▁Rik	-5144
▁hamnade	-5145
ydd	-5146
▁inkl	-5147
▁skil	-5148
ancer	-5149
▁Skönt	-5150
ustri	-5151
▁skådespel	-5152
▁2006	-5153
▁förmiddagen	-5154
ceae	-5155
▁dar	-5156
uel	-5157
klass	-5158
unta	-5159
▁vuxen	-5160
ystem	-5161
▁sand	-5162
▁fal	-5163
▁uppleva	-5164
▁strukt	-5165
▁reakt	-5166
▁torr	-5167
elle	-5168
▁motor	-5169
▁Bro	-5170
▁jävligt	-5171
▁ökade	-5172
sken	-5173
yp	-5174
▁David	-5175
▁Istället	-5176
▁snabbare	-5177
aks	-5178
▁lediga	-5179
▁funktion	-5180
▁satsa	-5181
världen	-5182
värd	-5183
▁KOM	-5184
▁attack	-5185
▁Äntligen	-5186
▁sav	-5187
erats	-5188
▁1,0	-5189
▁nödvändigt	-5190
▁sovmorgon	-5191
britann	-5192
▁tillå	-5193
▁avsk	-5194
▁leende	-5195
▁Hol	-5196
zz	-5197
▁perspektiv	-5198
▁stoppa	-5199
▁staten	-5200
arens	-5201
▁startade	-5202
▁överrask	-5203
▁mad	-5204
▁Nor	-5205
▁Förra	-5206
▁räknar	-5207
▁klicka	-5208
ial	-5209
▁uppmärksamhet	-5210
▁musl	-5211
▁möjliga	-5212
▁prest	-5213
▁växtlighet	-5214
▁kyck	-5215
▁dokument	-5216
yta	-5217
▁uppn	-5218
läng	-5219
onn	-5220
▁julafton	-5221
▁fara	-5222
▁vänder	-5223
▁sök	-5224
▁sub	-5225
▁äger	-5226
▁levande	-5227
gångar	-5228
olf	-5229
indra	-5230
▁tävlingen	-5231
frågan	-5232
▁ed	-5233
▁kines	-5234
▁drömmar	-5235
slagen	-5236
▁styrka	-5237
▁hemskt	-5238
▁uppman	-5239
▁musiken	-5240
▁Thomas	-5241
▁undant	-5242
▁smin	-5243
▁pul	-5244
▁sum	-5245
ännisk	-5246
▁klippa	-5247
gra	-5248
▁killen	-5249
▁muskl	-5250
▁medlemmar	-5251
▁stämmer	-5252
▁fredagen	-5253
▁Val	-5254
ÄTT	-5255
ramat	-5256
bor	-5257
åne	-5258
▁njut	-5259
▁mott	-5260
▁fönstret	-5261
▁2008	-5262
bba	-5263
▁Elin	-5264
▁2010	-5265
▁Aja	-5266
ho	-5267
▁stått	-5268
ikal	-5269
▁album	-5270
▁Riktigt	-5271
ops	-5272
jung	-5273
äta	-5274
▁Tim	-5275
▁SKA	-5276
▁lördagen	-5277
▁vänt	-5278
▁öm	-5279
oms	-5280
▁frihet	-5281
▁forskning	-5282
▁händerna	-5283
▁häft	-5284
▁hästarna	-5285
▁31	-5286
▁UT	-5287
▁grad	-5288
▁dist	-5289
ogg	-5290
▁civ	-5291
▁läge	-5292
▁klarade	-5293
äger	-5294
▁Egen	-5295
▁blandskog	-5296
▁KAN	-5297
▁förresten	-5298
▁verklighet	-5299
▁Gra	-5300
▁skju	-5301
▁Nå	-5302
▁tak	-5303
▁offic	-5304
partem	-5305
▁sug	-5306
▁skada	-5307
▁samtliga	-5308
▁sägs	-5309
delning	-5310
matt	-5311
▁stilla	-5312
▁Charl	-5313
bergs	-5314
▁Cre	-5315
▁samarbete	-5316
▁kommentera	-5317
▁Reg	-5318
▁Göteborgs	-5319
▁enormt	-5320
▁förmåga	-5321
▁tröja	-5322
▁storlek	-5323
▁fritt	-5324
isera	-5325
▁refl	-5326
iter	-5327
ager	-5328
vr	-5329
▁utmärkt	-5330
▁besviken	-5331
spekt	-5332
▁Vin	-5333
▁erkänna	-5334
▁tå	-5335
▁hållet	-5336
▁Island	-5337
▁Jesus	-5338
▁ETT	-5339
▁Försö	-5340
▁mas	-5341
äva	-5342
▁Hennes	-5343
▁uppenbar	-5344
▁korr	-5345
▁Iran	-5346
▁kamera	-5347
▁njuter	-5348
räd	-5349
▁noga	-5350
▁rast	-5351
arbete	-5352
▁föra	-5353
▁dvs	-5354
ct	-5355
▁opp	-5356
▁60	-5357
▁Uppsala	-5358
▁tvingas	-5359
▁Självklart	-5360
lle	-5361
exiko	-5362
▁bloggat	-5363
iget	-5364
atar	-5365
▁teater	-5366
▁bostad	-5367
▁utgång	-5368
▁tyg	-5369
▁tillbring	-5370
ahl	-5371
▁ärligt	-5372
amer	-5373
▁talat	-5374
▁naturlig	-5375
ktorn	-5376
lösa	-5377
▁flyttar	-5378
lopp	-5379
▁inträff	-5380
minist	-5381
▁norra	-5382
▁starkare	-5383
▁ändr	-5384
▁fet	-5385
▁ark	-5386
▁bekv	-5387
▁gjordes	-5388
▁Ag	-5389
▁gemensamma	-5390
▁intressanta	-5391
▁ledde	-5392
▁mängder	-5393
▁bjud	-5394
▁påverkar	-5395
▁skydd	-5396
▁Na	-5397
▁möjligheten	-5398
▁lager	-5399
▁karaktär	-5400
ftet	-5401
▁national	-5402
▁ställning	-5403
▁For	-5404
▁ansträng	-5405
▁ligg	-5406
▁Cl	-5407
▁2007	-5408
▁MAN	-5409
▁mammas	-5410
▁sommarlov	-5411
▁hårda	-5412
fors	-5413
▁gillade	-5414
▁Fel	-5415
ood	-5416
bi	-5417
▁troligen	-5418
▁kvalitet	-5419
ständigt	-5420
▁handling	-5421
▁Te	-5422
▁init	-5423
▁villkor	-5424
ID	-5425
▁Inga	-5426
▁gränsen	-5427
kligen	-5428
▁nationella	-5429
▁TT	-5430
▁FN	-5431
▁politisk	-5432
▁djupt	-5433
skola	-5434
▁föreläs	-5435
istik	-5436
▁varv	-5437
▁demon	-5438
▁väggen	-5439
▁bestämmer	-5440
▁dyker	-5441
▁göteborg	-5442
▁midsommar	-5443
▁188	-5444
inar	-5445
▁Ko	-5446
åriga	-5447
du	-5448
▁kaos	-5449
▁världs	-5450
▁tråkig	-5451
▁träng	-5452
▁artikel	-5453
▁brun	-5454
steg	-5455
▁bon	-5456
▁terror	-5457
sområ	-5458
▁lösning	-5459
▁inner	-5460
ega	-5461
ienter	-5462
tog	-5463
▁svamp	-5464
▁perioden	-5465
skam	-5466
▁överhuvud	-5467
▁uppre	-5468
åringen	-5469
▁stjärn	-5470
ägen	-5471
▁använt	-5472
▁lita	-5473
▁planera	-5474
▁finna	-5475
▁sked	-5476
▁hängde	-5477
▁William	-5478
▁Ob	-5479
▁beröm	-5480
▁mänskliga	-5481
amot	-5482
▁språ	-5483
▁Paris	-5484
program	-5485
gift	-5486
▁ov	-5487
draget	-5488
▁fatta	-5489
▁Eric	-5490
▁bibliote	-5491
▁2009	-5492
▁historien	-5493
▁glob	-5494
▁lokala	-5495
▁smid	-5496
▁Redan	-5497
vent	-5498
▁resul	-5499
▁diskutera	-5500
▁dött	-5501
▁författare	-5502
▁bott	-5503
▁Nya	-5504
▁effektiv	-5505
otta	-5506
▁savann	-5507
▁halvtim	-5508
▁sjukhuset	-5509
▁mät	-5510
▁mörka	-5511
▁skrattade	-5512
▁tankarna	-5513
anger	-5514
▁Indonesien	-5515
börj	-5516
▁misslycka	-5517
lund	-5518
▁nytta	-5519
ris	-5520
skra	-5521
▁trevliga	-5522
▁förbund	-5523
▁Persson	-5524
▁brand	-5525
▁bolaget	-5526
▁Tar	-5527
yga	-5528
UR	-5529
▁julklappar	-5530
▁sed	-5531
▁möbl	-5532
splan	-5533
åningom	-5534
▁fria	-5535
▁leg	-5536
▁käka	-5537
▁farfar	-5538
▁Rob	-5539
spolit	-5540
▁hundarna	-5541
▁modern	-5542
▁ämnen	-5543
▁Julia	-5544
▁Lov	-5545
▁gi	-5546
▁säkra	-5547
ugga	-5548
▁Fal	-5549
britannien	-5550
▁händelser	-5551
▁cool	-5552
bolag	-5553
atu	-5554
▁former	-5555
ader	-5556
▁helvete	-5557
öken	-5558
iera	-5559
sna	-5560
▁färgen	-5561
▁ifrågas	-5562
▁brut	-5563
äp	-5564
▁brå	-5565
▁ten	-5566
▁inred	-5567
▁Tel	-5568
▁regnet	-5569
vänd	-5570
ivalen	-5571
▁35	-5572
▁detalj	-5573
▁gården	-5574
fg	-5575
dex	-5576
mannen	-5577
▁Qu	-5578
▁mängd	-5579
▁fötterna	-5580
▁risken	-5581
▁Helsing	-5582
▁utveckla	-5583
alog	-5584
ox	-5585
▁pågår	-5586
▁fjol	-5587
▁misstag	-5588
▁arbetslös	-5589
▁trötta	-5590
hamn	-5591
olly	-5592
▁tjejen	-5593
▁tydlig	-5594
▁vetenskap	-5595
▁jeans	-5596
▁Sund	-5597
▁tunga	-5598
▁tax	-5599
▁tillver	-5600
vers	-5601
▁taggad	-5602
▁ihjäl	-5603
dant	-5604
iven	-5605
▁riktning	-5606
ene	-5607
▁klubben	-5608
▁betrakt	-5609
▁småningom	-5610
▁lyfta	-5611
▁skatte	-5612
organis	-5613
itets	-5614
do	-5615
▁neder	-5616
▁gift	-5617
▁regionen	-5618
▁listan	-5619
▁tav	-5620
▁th	-5621
pi	-5622
▁total	-5623
▁sing	-5624
▁krypa	-5625
igur	-5626
▁träffas	-5627
▁vägar	-5628
ule	-5629
▁rek	-5630
anna	-5631
▁bryta	-5632
▁naturen	-5633
▁behålla	-5634
▁skalb	-5635
▁respektive	-5636
kläder	-5637
▁Egentligen	-5638
jar	-5639
▁städat	-5640
▁beräk	-5641
▁institut	-5642
ctor	-5643
▁öppnade	-5644
▁härom	-5645
▁pann	-5646
▁påm	-5647
▁söndagen	-5648
▁mönster	-5649
ua	-5650
▁tids	-5651
marker	-5652
▁hyfs	-5653
iske	-5654
▁NU	-5655
aska	-5656
▁Paul	-5657
▁Ofta	-5658
ockar	-5659
▁Okej	-5660
oppa	-5661
▁tidiga	-5662
▁mins	-5663
▁Israel	-5664
use	-5665
▁orden	-5666
▁förstått	-5667
▁kommissionen	-5668
▁Lou	-5669
röst	-5670
▁gilla	-5671
▁läpp	-5672
▁lugna	-5673
▁tillstånd	-5674
▁2005	-5675
▁glömde	-5676
ikar	-5677
▁utomlands	-5678
▁låna	-5679
▁öppnar	-5680
▁föresl	-5681
▁fokusera	-5682
rän	-5683
▁telefonen	-5684
▁himmel	-5685
still	-5686
▁Trän	-5687
▁mötet	-5688
▁Gj	-5689
▁svenskar	-5690
▁äld	-5691
▁trist	-5692
▁nyfiken	-5693
▁märkt	-5694
▁butiken	-5695
rich	-5696
oden	-5697
▁genast	-5698
▁allvarligt	-5699
▁2004	-5700
ställningen	-5701
andid	-5702
delen	-5703
▁privata	-5704
▁Åt	-5705
▁varan	-5706
pol	-5707
äkring	-5708
▁Kro	-5709
bör	-5710
skär	-5711
fly	-5712
ient	-5713
▁fantas	-5714
▁England	-5715
▁godkän	-5716
▁brans	-5717
▁glömmer	-5718
▁tvärtom	-5719
nens	-5720
▁invest	-5721
skade	-5722
▁sej	-5723
▁Ur	-5724
▁LI	-5725
▁upph	-5726
▁gött	-5727
▁grov	-5728
▁exp	-5729
åren	-5730
marknaden	-5731
visning	-5732
ān	-5733
▁mäst	-5734
▁Började	-5735
▁kateg	-5736
oth	-5737
▁förändringar	-5738
▁Italien	-5739
▁tränare	-5740
▁behandling	-5741
▁potatis	-5742
bladet	-5743
▁förändra	-5744
▁Mexiko	-5745
▁tröj	-5746
▁galopp	-5747
▁expl	-5748
▁syssel	-5749
▁eleverna	-5750
▁muse	-5751
ight	-5752
gas	-5753
▁Spel	-5754
▁Inter	-5755
▁bubb	-5756
▁Mark	-5757
▁politiskt	-5758
llerna	-5759
▁cykla	-5760
▁katast	-5761
▁kilo	-5762
ach	-5763
▁tårar	-5764
peratur	-5765
▁kud	-5766
▁familjer	-5767
▁beskriva	-5768
▁regl	-5769
▁önska	-5770
▁Andreas	-5771
▁modell	-5772
ations	-5773
▁meningen	-5774
▁medier	-5775
▁vände	-5776
ilt	-5777
ältet	-5778
▁förlust	-5779
▁påstå	-5780
▁MIN	-5781
hail	-5782
▁ovän	-5783
ikael	-5784
▁Creek	-5785
▁obeh	-5786
▁Senare	-5787
▁praktiken	-5788
pis	-5789
▁Pet	-5790
öda	-5791
▁besvär	-5792
hal	-5793
▁når	-5794
nor	-5795
ile	-5796
▁islam	-5797
▁avslöj	-5798
▁använde	-5799
our	-5800
▁intill	-5801
▁Frågan	-5802
▁fötter	-5803
▁krafter	-5804
trän	-5805
▁uppför	-5806
▁sval	-5807
innare	-5808
icks	-5809
▁märkte	-5810
skad	-5811
osof	-5812
▁björ	-5813
opa	-5814
▁skolor	-5815
▁förvir	-5816
▁avgörande	-5817
▁anses	-5818
▁affärer	-5819
▁Göran	-5820
▁gill	-5821
ytande	-5822
▁bekant	-5823
made	-5824
har	-5825
▁elekt	-5826
▁yog	-5827
istiskt	-5828
skå	-5829
▁45	-5830
▁500	-5831
gg	-5832
▁veckans	-5833
▁sjunga	-5834
ini	-5835
por	-5836
▁gård	-5837
▁Båda	-5838
▁hotellet	-5839
▁Rom	-5840
▁anklag	-5841
jön	-5842
▁hjärnan	-5843
▁huvudvärk	-5844
▁Henrik	-5845
▁2000	-5846
nämn	-5847
cens	-5848
▁Ab	-5849
▁design	-5850
▁systemet	-5851
▁söndags	-5852
▁ky	-5853
stag	-5854
▁skick	-5855
▁Sten	-5856
▁Hus	-5857
▁färdigt	-5858
ädda	-5859
▁fulla	-5860
▁signal	-5861
▁rösta	-5862
▁hast	-5863
▁Skriv	-5864
▁undantag	-5865
▁acceptera	-5866
▁mord	-5867
▁undr	-5868
▁Kväll	-5869
▁beslutet	-5870
ötter	-5871
▁släkte	-5872
▁avs	-5873
▁blick	-5874
▁ljuset	-5875
▁stunder	-5876
▁sonen	-5877
ony	-5878
▁Nik	-5879
▁uppmärksam	-5880
▁människorna	-5881
▁enklare	-5882
▁vänn	-5883
▁ler	-5884
▁vardagen	-5885
handling	-5886
▁stänga	-5887
▁kämpar	-5888
▁oft	-5889
▁överdr	-5890
▁allih	-5891
▁Flera	-5892
▁raka	-5893
▁Hill	-5894
esa	-5895
uppen	-5896
▁farligt	-5897
▁flyttat	-5898
dagar	-5899
▁rätten	-5900
istrikt	-5901
▁sambo	-5902
▁liga	-5903
back	-5904
▁Pe	-5905
▁strand	-5906
ned	-5907
▁tillgäng	-5908
stjän	-5909
derade	-5910
▁bön	-5911
▁trädgården	-5912
▁mental	-5913
gatan	-5914
▁Land	-5915
unal	-5916
▁görs	-5917
▁uts	-5918
▁186	-5919
▁insekt	-5920
stolen	-5921
▁Mån	-5922
▁lova	-5923
▁följd	-5924
▁närhet	-5925
ongen	-5926
▁Ändå	-5927
ingsl	-5928
▁fyllde	-5929
lagt	-5930
▁opt	-5931
▁boende	-5932
▁ärlig	-5933
jet	-5934
gubb	-5935
▁missat	-5936
delar	-5937
amen	-5938
▁finner	-5939
▁resurser	-5940
ÄLL	-5941
▁lagar	-5942
▁lämp	-5943
kall	-5944
▁utrikes	-5945
▁Ida	-5946
▁skrattar	-5947
▁autom	-5948
▁Djur	-5949
▁måndags	-5950
▁­	-5951
▁tränade	-5952
▁taket	-5953
▁Börjar	-5954
▁jobbiga	-5955
▁utsikt	-5956
gy	-5957
åkan	-5958
▁mej	-5959
elie	-5960
▁timma	-5961
ocken	-5962
▁hoppar	-5963
▁seriöst	-5964
cel	-5965
▁svaret	-5966
▁förklarar	-5967
▁fixar	-5968
▁vaknat	-5969
asyster	-5970
VER	-5971
stat	-5972
▁lut	-5973
▁krimin	-5974
färg	-5975
▁187	-5976
▁Park	-5977
lare	-5978
stas	-5979
YCK	-5980
▁box	-5981
▁räknas	-5982
▁Johanna	-5983
ilien	-5984
▁kasta	-5985
▁kvällarna	-5986
▁eventuellt	-5987
▁duktiga	-5988
▁analys	-5989
▁ansikte	-5990
utbild	-5991
▁Mor	-5992
lä	-5993
indel	-5994
▁Väldigt	-5995
▁Oj	-5996
▁ris	-5997
▁grav	-5998
▁tram	-5999
▁borger	-6000
spass	-6001
banan	-6002
▁von	-6003
ferens	-6004
▁spendera	-6005
▁Värld	-6006
▁normal	-6007
▁gul	-6008
▁stry	-6009
intress	-6010
.1	-6011
▁ansåg	-6012
▁termin	-6013
▁Läs	-6014
▁begrepp	-6015
▁naturligt	-6016
icia	-6017
▁utomhus	-6018
▁skyld	-6019
▁lekte	-6020
▁Storbritannien	-6021
▁självför	-6022
▁vakt	-6023
▁arbetsgiv	-6024
▁skador	-6025
▁grunden	-6026
▁Björn	-6027
▁soldat	-6028
▁Je	-6029
▁minsann	-6030
▁Samma	-6031
▁trycka	-6032
▁krång	-6033
hav	-6034
▁snabba	-6035
▁konstig	-6036
GA	-6037
▁debatten	-6038
pla	-6039
▁il	-6040
issar	-6041
jas	-6042
▁planen	-6043
släpp	-6044
▁etabl	-6045
ställda	-6046
esten	-6047
▁syskon	-6048
feldt	-6049
▁Ir	-6050
uva	-6051
▁tappat	-6052
fart	-6053
▁kriget	-6054
ARE	-6055
US	-6056
▁struktur	-6057
▁smal	-6058
ögon	-6059
▁rätts	-6060
▁argument	-6061
▁Barnen	-6062
▁elev	-6063
iti	-6064
▁inbland	-6065
▁2011	-6066
▁besöka	-6067
▁studen	-6068
▁negativa	-6069
▁sorts	-6070
▁bekym	-6071
▁organisation	-6072
▁grabb	-6073
▁student	-6074
▁Pass	-6075
▁pall	-6076
▁gymnasiet	-6077
blå	-6078
▁Ass	-6079
▁Kn	-6080
▁litteratur	-6081
▁galen	-6082
▁sken	-6083
▁båten	-6084
cy	-6085
komma	-6086
▁bruk	-6087
▁fre	-6088
▁beskriver	-6089
▁32	-6090
▁tviv	-6091
▁läx	-6092
▁kraftigt	-6093
▁texter	-6094
▁smärta	-6095
▁roman	-6096
terat	-6097
▁Me	-6098
ifest	-6099
amin	-6100
ssan	-6101
ttis	-6102
ero	-6103
▁hom	-6104
▁sekunder	-6105
▁Bol	-6106
▁Robert	-6107
▁Fär	-6108
▁mak	-6109
▁underl	-6110
▁Pal	-6111
▁möten	-6112
▁Sal	-6113
▁Malin	-6114
▁återstår	-6115
▁förlorade	-6116
▁No	-6117
dela	-6118
▁minne	-6119
▁förtroende	-6120
▁jakt	-6121
▁dramat	-6122
▁Max	-6123
▁Rätt	-6124
▁lärde	-6125
▁Vilka	-6126
▁bekräft	-6127
ael	-6128
▁hemm	-6129
fyll	-6130
▁Con	-6131
▁energ	-6132
fghan	-6133
▁skalbagg	-6134
nos	-6135
▁sanningen	-6136
▁Mad	-6137
▁Id	-6138
▁förvånad	-6139
▁studier	-6140
▁NÄR	-6141
▁stressad	-6142
▁nyheter	-6143
▁klaga	-6144
▁EM	-6145
ningarnas	-6146
▁hamna	-6147
so	-6148
▁personliga	-6149
▁tråkiga	-6150
▁Bras	-6151
▁Mc	-6152
▁maken	-6153
ians	-6154
batt	-6155
flugor	-6156
▁minnas	-6157
▁Europeiska	-6158
▁himlen	-6159
▁kläderna	-6160
▁span	-6161
▁rapport	-6162
▁publik	-6163
-3	-6164
▁Ön	-6165
▁Ru	-6166
jande	-6167
orier	-6168
skaff	-6169
ival	-6170
▁konkurrens	-6171
▁ställt	-6172
▁bakgrund	-6173
▁gräd	-6174
endes	-6175
▁politiken	-6176
▁perfekta	-6177
▁anledningen	-6178
▁redovis	-6179
▁värst	-6180
▁medveten	-6181
▁iordning	-6182
▁oh	-6183
▁dök	-6184
▁middagen	-6185
DAG	-6186
▁lyssnade	-6187
▁Amanda	-6188
▁rop	-6189
▁offentliga	-6190
▁flicka	-6191
▁titel	-6192
uga	-6193
▁Nilsson	-6194
ls	-6195
cc	-6196
▁förläng	-6197
▁GP	-6198
▁hals	-6199
▁skyl	-6200
ement	-6201
▁sallad	-6202
▁gjorts	-6203
ställa	-6204
▁dörr	-6205
▁Mig	-6206
▁femin	-6207
grepp	-6208
satta	-6209
alitet	-6210
▁undersö	-6211
▁sakna	-6212
▁bom	-6213
▁marker	-6214
▁Larsson	-6215
▁bytte	-6216
▁obehag	-6217
pper	-6218
▁saknas	-6219
▁HAN	-6220
▁Öre	-6221
▁frågorna	-6222
ifier	-6223
▁gatan	-6224
▁karriär	-6225
▁uppfattning	-6226
stäm	-6227
▁hemmet	-6228
ukar	-6229
▁blad	-6230
▁rena	-6231
▁Åter	-6232
▁funderat	-6233
▁grader	-6234
▁Anton	-6235
▁bitar	-6236
vag	-6237
ledningen	-6238
▁agen	-6239
änkande	-6240
edagog	-6241
▁naglar	-6242
▁publiken	-6243
▁Linn	-6244
▁skid	-6245
▁jämt	-6246
ENS	-6247
▁toal	-6248
▁tillväxt	-6249
▁närvarande	-6250
entals	-6251
ligas	-6252
ternas	-6253
▁förbättra	-6254
gruppen	-6255
sättningen	-6256
äget	-6257
maren	-6258
▁styra	-6259
▁plast	-6260
atiskt	-6261
▁sträck	-6262
▁militär	-6263
▁buskland	-6264
▁släkten	-6265
▁framtida	-6266
▁ges	-6267
▁släppte	-6268
▁människors	-6269
ivis	-6270
▁70	-6271
▁Mannen	-6272
kopp	-6273
kore	-6274
▁kommunikat	-6275
▁kyckling	-6276
skottet	-6277
▁rit	-6278
▁ekonomisk	-6279
▁omedel	-6280
▁Jon	-6281
▁tyckt	-6282
stod	-6283
▁låts	-6284
▁förfl	-6285
▁Fot	-6286
▁samla	-6287
kakor	-6288
▁förutsättningar	-6289
ycke	-6290
▁måst	-6291
▁Funder	-6292
▁fängelse	-6293
▁Hal	-6294
▁x	-6295
▁upplever	-6296
mes	-6297
▁Rein	-6298
▁humor	-6299
▁verksamheten	-6300
vara	-6301
▁näsan	-6302
jobb	-6303
▁dragit	-6304
▁lektionen	-6305
▁gråt	-6306
▁Cent	-6307
▁kanon	-6308
▁anpass	-6309
▁undra	-6310
▁ekonomin	-6311
▁skalbaggsart	-6312
▁lillebror	-6313
▁följt	-6314
stitut	-6315
iets	-6316
▁ryska	-6317
▁Pappa	-6318
frukt	-6319
▁måndagen	-6320
▁UPP	-6321
▁stre	-6322
▁förlåt	-6323
▁läkaren	-6324
▁väska	-6325
splats	-6326
▁somnar	-6327
▁reflekt	-6328
▁närmast	-6329
▁Mikael	-6330
▁symbol	-6331
▁torg	-6332
▁‘	-6333
▁Van	-6334
staf	-6335
▁pack	-6336
ikan	-6337
▁HEL	-6338
▁falla	-6339
▁shoppa	-6340
▁Bur	-6341
▁beställa	-6342
▁tip	-6343
▁Sna	-6344
▁inta	-6345
central	-6346
▁långsamt	-6347
▁lektioner	-6348
▁2003	-6349
skri	-6350
▁formul	-6351
gs	-6352
iger	-6353
▁vunnit	-6354
▁tårta	-6355
▁Turk	-6356
▁vagnen	-6357
▁skräck	-6358
▁divers	-6359
▁delta	-6360
▁onödigt	-6361
llertid	-6362
dens	-6363
angen	-6364
▁busklandskap	-6365
▁syfte	-6366
ymp	-6367
dell	-6368
landet	-6369
.00	-6370
klubb	-6371
▁brud	-6372
▁Sand	-6373
estin	-6374
▁delvis	-6375
▁betalar	-6376
▁ögonblick	-6377
partementet	-6378
▁upprätt	-6379
▁hinder	-6380
▁Grekland	-6381
▁MIG	-6382
▁Gar	-6383
▁ämne	-6384
▁Plan	-6385
▁upplevelse	-6386
▁erfarenheter	-6387
▁blanda	-6388
▁läxor	-6389
▁märks	-6390
iro	-6391
▁fen	-6392
▁foto	-6393
▁intresserade	-6394
▁planet	-6395
▁fågel	-6396
ägare	-6397
▁uppr	-6398
▁represent	-6399
DA	-6400
▁dygn	-6401
▁administ	-6402
▁pens	-6403
▁Tänker	-6404
▁Förs	-6405
▁riskerar	-6406
▁religi	-6407
▁Näst	-6408
▁sakerna	-6409
▁likt	-6410
▁överl	-6411
▁klock	-6412
jt	-6413
pack	-6414
▁Livet	-6415
▁Gam	-6416
▁dansa	-6417
▁föräldrarna	-6418
▁nåd	-6419
▁Da	-6420
▁säljer	-6421
ydde	-6422
iktig	-6423
sma	-6424
▁rök	-6425
▁Kv	-6426
inerna	-6427
▁lamp	-6428
▁äkta	-6429
▁Mats	-6430
▁hushåll	-6431
▁konstnär	-6432
örde	-6433
▁tatu	-6434
▁oftare	-6435
▁socialdemokrat	-6436
js	-6437
▁ital	-6438
▁Far	-6439
ullen	-6440
▁sjunger	-6441
▁väntan	-6442
▁irriterad	-6443
▁sår	-6444
▁34	-6445
rang	-6446
▁Jaja	-6447
yo	-6448
▁koncentr	-6449
iller	-6450
bit	-6451
▁mn	-6452
liv	-6453
▁spanska	-6454
nare	-6455
▁lovet	-6456
▁Ännu	-6457
▁katastrof	-6458
tals	-6459
mellertid	-6460
▁ämnet	-6461
éer	-6462
▁väck	-6463
▁hjälpt	-6464
▁uppåt	-6465
▁tidning	-6466
▁omfattande	-6467
▁inrikt	-6468
▁80	-6469
▁besvik	-6470
▁smäl	-6471
▁förlora	-6472
▁väntas	-6473
▁släpper	-6474
▁jättef	-6475
ley	-6476
▁hr	-6477
▁AB	-6478
▁Speci	-6479
omin	-6480
▁växter	-6481
▁initiat	-6482
▁olja	-6483
▁byxor	-6484
▁angående	-6485
▁NÅG	-6486
▁My	-6487
▁åh	-6488
▁Volv	-6489
▁ful	-6490
▁ökad	-6491
utveck	-6492
▁korrekt	-6493
ledes	-6494
▁amerikansk	-6495
▁erbjuda	-6496
▁slagit	-6497
▁Irak	-6498
▁2012	-6499
▁SJ	-6500
▁dim	-6501
▁värder	-6502
▁Problem	-6503
▁jack	-6504
▁0-	-6505
▁insektsart	-6506
▁klarat	-6507
▁partier	-6508
atet	-6509
▁Därefter	-6510
▁barnens	-6511
ikanska	-6512
▁åtal	-6513
esh	-6514
bell	-6515
▁Solen	-6516
▁2002	-6517
▁förkyld	-6518
bal	-6519
▁Tje	-6520
▁männen	-6521
▁upptäckte	-6522
▁passet	-6523
▁Lägg	-6524
god	-6525
▁café	-6526
▁pluggat	-6527
sav	-6528
▁nätterna	-6529
▁killarna	-6530
▁Vart	-6531
▁överhuvudtaget	-6532
ionella	-6533
▁Satt	-6534
▁republ	-6535
urs	-6536
▁välfär	-6537
▁lju	-6538
ningars	-6539
▁uppm	-6540
▁döds	-6541
▁sköter	-6542
▁skuld	-6543
▁hov	-6544
▁förstär	-6545
▁py	-6546
weiz	-6547
slösa	-6548
idande	-6549
häng	-6550
▁tappade	-6551
▁36	-6552
▁grät	-6553
öva	-6554
▁planerar	-6555
▁Svar	-6556
star	-6557
rigt	-6558
▁praktik	-6559
▁kok	-6560
sätta	-6561
▁snack	-6562
▁kortare	-6563
▁Ek	-6564
▁Såg	-6565
▁Örebro	-6566
▁konstaterar	-6567
iellt	-6568
ANDE	-6569
▁lövskog	-6570
▁final	-6571
▁impon	-6572
▁cancer	-6573
▁skydda	-6574
ultatet	-6575
▁Tidigare	-6576
▁tjänster	-6577
bordet	-6578
▁söderut	-6579
▁lätta	-6580
▁motion	-6581
▁hemifrån	-6582
▁undrade	-6583
▁invester	-6584
▁bandet	-6585
elserna	-6586
stor	-6587
▁huv	-6588
▁utrymme	-6589
▁fullständigt	-6590
▁filosof	-6591
sträck	-6592
▁klas	-6593
agd	-6594
▁Ins	-6595
ppade	-6596
▁förändras	-6597
▁Angel	-6598
▁förbl	-6599
▁Hand	-6600
▁sammanfatt	-6601
▁avstånd	-6602
▁driva	-6603
▁synner	-6604
kaka	-6605
▁diskussion	-6606
▁resor	-6607
▁tillbaks	-6608
▁norrut	-6609
▁stunden	-6610
insen	-6611
▁församling	-6612
▁skickade	-6613
fallet	-6614
▁enskilda	-6615
ustrin	-6616
▁timmars	-6617
system	-6618
▁gär	-6619
nats	-6620
▁TR	-6621
▁häll	-6622
▁fakta	-6623
▁armar	-6624
▁SL	-6625
UT	-6626
▁hyres	-6627
▁opposit	-6628
▁utmaning	-6629
▁bomb	-6630
▁Liv	-6631
▁Red	-6632
▁representer	-6633
▁tjäna	-6634
▁intryck	-6635
▁diverse	-6636
▁Gjorde	-6637
▁medborgare	-6638
företag	-6639
▁sprung	-6640
▁Ell	-6641
▁linje	-6642
ange	-6643
MA	-6644
▁osk	-6645
▁kallad	-6646
ktyg	-6647
▁lagstift	-6648
▁projektet	-6649
▁konstatera	-6650
meå	-6651
bolaget	-6652
lö	-6653
▁Spr	-6654
▁makten	-6655
▁Skåne	-6656
▁togs	-6657
yrån	-6658
▁gällde	-6659
beh	-6660
▁Håkan	-6661
▁ägare	-6662
▁Hittade	-6663
▁Lika	-6664
▁eld	-6665
ckat	-6666
▁Bir	-6667
årige	-6668
▁Syr	-6669
▁tjugo	-6670
skt	-6671
but	-6672
ima	-6673
▁begrav	-6674
▁rullar	-6675
▁invandr	-6676
ipa	-6677
IGT	-6678
film	-6679
▁gemensamt	-6680
▁renover	-6681
▁sena	-6682
pot	-6683
▁driver	-6684
▁typen	-6685
▁skapat	-6686
fghanistan	-6687
ministern	-6688
▁Mål	-6689
▁kläm	-6690
▁formen	-6691
▁missade	-6692
ides	-6693
örerna	-6694
▁Victor	-6695
▁mog	-6696
▁intell	-6697
▁skriker	-6698
▁karl	-6699
▁situationer	-6700
▁md	-6701
▁yrkes	-6702
▁BAR	-6703
kadem	-6704
▁Bak	-6705
ār	-6706
▁tävla	-6707
▁Kh	-6708
▁inn	-6709
ITT	-6710
line	-6711
ätte	-6712
▁Gustav	-6713
äver	-6714
▁äd	-6715
▁scenen	-6716
skaper	-6717
▁talman	-6718
▁foten	-6719
lav	-6720
▁kommuner	-6721
▁studie	-6722
▁verket	-6723
▁föreg	-6724
prov	-6725
▁schemat	-6726
▁letar	-6727
▁aktiviteter	-6728
ire	-6729
▁block	-6730
▁halvtimme	-6731
boken	-6732
▁Robin	-6733
▁hette	-6734
produkt	-6735
▁Vikt	-6736
▁der	-6737
jol	-6738
ARNA	-6739
▁priser	-6740
▁fus	-6741
▁allas	-6742
nast	-6743
▁hallen	-6744
▁andre	-6745
▁missa	-6746
▁2001	-6747
▁mell	-6748
känn	-6749
▁drabbas	-6750
mare	-6751
▁myst	-6752
▁förtjänar	-6753
▁lovat	-6754
rid	-6755
▁byn	-6756
▁host	-6757
▁medver	-6758
▁Tom	-6759
▁handlat	-6760
▁varav	-6761
▁förvand	-6762
▁sprid	-6763
▁bidra	-6764
▁firade	-6765
unk	-6766
▁trag	-6767
▁talade	-6768
▁gos	-6769
▁trygghet	-6770
▁Natur	-6771
▁Gillar	-6772
vel	-6773
▁personalen	-6774
▁Bengt	-6775
▁aktie	-6776
▁gäster	-6777
▁Olof	-6778
▁park	-6779
▁leker	-6780
▁lyser	-6781
▁bollen	-6782
▁SP	-6783
▁slott	-6784
jöt	-6785
▁gräsmarker	-6786
▁storm	-6787
▁tätt	-6788
▁Alltid	-6789
▁tittat	-6790
platser	-6791
▁dottern	-6792
▁menade	-6793
▁Åkte	-6794
ges	-6795
▁Lisa	-6796
to	-6797
▁emellertid	-6798
▁förekommer	-6799
▁Ung	-6800
▁sort	-6801
▁märkligt	-6802
▁Barn	-6803
▁dumt	-6804
▁demokrati	-6805
▁gjorda	-6806
▁socken	-6807
▁kvitt	-6808
kör	-6809
▁gångs	-6810
▁sköt	-6811
sse	-6812
arbetare	-6813
▁Människ	-6814
▁pröv	-6815
▁bostads	-6816
cos	-6817
▁strid	-6818
grön	-6819
▁löst	-6820
▁kollegor	-6821
▁övertygad	-6822
▁Lör	-6823
▁Isa	-6824
▁kristna	-6825
▁industri	-6826
▁gitar	-6827
▁dyrt	-6828
▁minus	-6829
dare	-6830
▁Lär	-6831
▁Ville	-6832
▁tappar	-6833
▁tempo	-6834
tton	-6835
▁kompet	-6836
▁ordent	-6837
fot	-6838
▁reson	-6839
smat	-6840
▁mobb	-6841
▁objekt	-6842
▁kop	-6843
änt	-6844
ståndet	-6845
▁Sw	-6846
▁växte	-6847
▁föddes	-6848
▁Do	-6849
uth	-6850
▁Cy	-6851
▁följande	-6852
▁Simon	-6853
OG	-6854
▁skrek	-6855
▁problemen	-6856
omy	-6857
▁tunnel	-6858
▁suger	-6859
hailand	-6860
STA	-6861
▁brittiska	-6862
▁begär	-6863
▁kapital	-6864
▁hyfsat	-6865
åningen	-6866
▁färre	-6867
▁påbörj	-6868
▁öronen	-6869
▁Sön	-6870
▁Lång	-6871
▁koka	-6872
▁Karlsson	-6873
▁Stora	-6874
iled	-6875
delningen	-6876
▁garanter	-6877
les	-6878
▁Sven	-6879
sig	-6880
▁set	-6881
andring	-6882
▁IF	-6883
▁mand	-6884
▁kärleken	-6885
▁ytan	-6886
▁At	-6887
▁mamman	-6888
▁gyn	-6889
▁vågade	-6890
▁böckerna	-6891
▁hänsyn	-6892
▁efterhand	-6893
20	-6894
▁Point	-6895
▁kontrakt	-6896
▁övningar	-6897
ney	-6898
▁jordgubb	-6899
▁femte	-6900
mot	-6901
▁fasta	-6902
▁präg	-6903
▁viktigare	-6904
ätter	-6905
▁smäll	-6906
▁asså	-6907
▁ytterst	-6908
träff	-6909
▁Sofia	-6910
▁etn	-6911
▁inomhus	-6912
▁torsdags	-6913
▁kant	-6914
▁kond	-6915
esen	-6916
egr	-6917
▁33	-6918
▁försiktigt	-6919
▁Sista	-6920
▁låga	-6921
▁utrust	-6922
▁38	-6923
▁hjärna	-6924
▁grönsaker	-6925
inga	-6926
▁Michael	-6927
▁skillnaden	-6928
ere	-6929
tering	-6930
▁barndom	-6931
▁Indien	-6932
▁utseende	-6933
▁avsluta	-6934
▁UN	-6935
▁Ock	-6936
▁dygnet	-6937
▁intressen	-6938
▁og	-6939
områ	-6940
▁tvung	-6941
▁tänder	-6942
udd	-6943
▁råder	-6944
▁Bet	-6945
artiet	-6946
▁utspel	-6947
itz	-6948
▁90	-6949
▁tummarna	-6950
satsen	-6951
▁gränser	-6952
▁försvinna	-6953
▁hemåt	-6954
ordon	-6955
▁Förlåt	-6956
års	-6957
▁Polisen	-6958
▁rädsla	-6959
▁anl	-6960
▁mal	-6961
▁samtid	-6962
icke	-6963
▁skål	-6964
▁allmänhet	-6965
urar	-6966
▁fyllt	-6967
▁roligaste	-6968
kea	-6969
▁förväntningar	-6970
▁Nog	-6971
set	-6972
▁Lö	-6973
▁stand	-6974
▁stugan	-6975
arv	-6976
omenad	-6977
inlägg	-6978
▁skiner	-6979
▁huden	-6980
regud	-6981
▁förklarade	-6982
inal	-6983
ivån	-6984
▁kräft	-6985
ningss	-6986
▁bråk	-6987
▁insikt	-6988
amod	-6989
▁special	-6990
▁Linda	-6991
▁Kär	-6992
ilja	-6993
▁luktar	-6994
▁förskolan	-6995
▁rekord	-6996
▁has	-6997
▁vägrar	-6998
orin	-6999
▁mosa	-7000
▁grip	-7001
▁batt	-7002
▁skett	-7003
▁mottag	-7004
bilder	-7005
ård	-7006
▁adr	-7007
rediens	-7008
▁bett	-7009
▁tolk	-7010
▁kniv	-7011
▁inslag	-7012
yser	-7013
▁frans	-7014
▁rörelse	-7015
▁Typ	-7016
▁förlorat	-7017
▁förmed	-7018
▁Fredag	-7019
▁skiljer	-7020
▁past	-7021
▁Små	-7022
▁förslaget	-7023
▁somras	-7024
▁utbr	-7025
▁Bes	-7026
▁fattig	-7027
ativa	-7028
▁startar	-7029
▁ap	-7030
▁dras	-7031
elr	-7032
▁Bill	-7033
betal	-7034
▁Nästan	-7035
▁spets	-7036
öcker	-7037
nea	-7038
▁fann	-7039
▁lågt	-7040
yckte	-7041
anser	-7042
▁faktiska	-7043
▁förloss	-7044
▁Behöver	-7045
▁speciella	-7046
▁out	-7047
▁As	-7048
kem	-7049
▁tydliga	-7050
▁nar	-7051
▁miljön	-7052
ampa	-7053
▁vana	-7054
▁druck	-7055
▁hor	-7056
▁glatt	-7057
▁oms	-7058
vens	-7059
asse	-7060
▁domin	-7061
okat	-7062
che	-7063
▁ekonomiskt	-7064
börd	-7065
▁HA	-7066
▁tufft	-7067
▁Brasilien	-7068
▁Ax	-7069
beroende	-7070
▁uppehåll	-7071
▁såsom	-7072
▁golv	-7073
ÄG	-7074
▁store	-7075
▁agera	-7076
▁rock	-7077
ölja	-7078
innande	-7079
▁Dam	-7080
örs	-7081
▁torsdagen	-7082
ikerna	-7083
▁förklaring	-7084
▁väskan	-7085
▁Jön	-7086
▁Jack	-7087
▁mörkret	-7088
▁påstår	-7089
▁balkongen	-7090
▁samling	-7091
▁troligtvis	-7092
milj	-7093
▁sjöng	-7094
▁kund	-7095
ORT	-7096
▁sola	-7097
▁ingrediens	-7098
▁socialt	-7099
▁Harry	-7100
▁backen	-7101
▁gammalt	-7102
hjär	-7103
▁sträv	-7104
▁jacka	-7105
▁medlemsst	-7106
▁trädgård	-7107
▁bag	-7108
▁muskler	-7109
▁Klockan	-7110
▁smitt	-7111
▁hållit	-7112
ötet	-7113
▁tidningar	-7114
▁Frida	-7115
▁JU	-7116
▁redig	-7117
▁återupp	-7118
agt	-7119
▁Alexander	-7120
orma	-7121
▁provet	-7122
▁moral	-7123
▁möjlig	-7124
▁godnatt	-7125
öld	-7126
▁LO	-7127
▁verka	-7128
eden	-7129
▁kunn	-7130
tliga	-7131
▁förvalt	-7132
▁kandid	-7133
▁plockade	-7134
▁rot	-7135
▁Mu	-7136
▁butiker	-7137
▁friska	-7138
▁silver	-7139
▁kollega	-7140
▁denne	-7141
▁Köpte	-7142
dröm	-7143
▁rest	-7144
▁typer	-7145
▁läck	-7146
äsk	-7147
▁gas	-7148
▁dyra	-7149
▁gissa	-7150
▁ALLT	-7151
▁Bla	-7152
▁Dal	-7153
▁orkat	-7154
▁parlamentet	-7155
▁Nic	-7156
▁varor	-7157
▁norska	-7158
osn	-7159
rig	-7160
▁bege	-7161
▁Önskar	-7162
▁fn	-7163
llt	-7164
▁kvällar	-7165
dda	-7166
elt	-7167
▁budskap	-7168
▁Met	-7169
▁kommunal	-7170
▁trav	-7171
▁fula	-7172
▁väldig	-7173
▁skjuts	-7174
▁Speciellt	-7175
▁hockey	-7176
▁stav	-7177
telse	-7178
▁skän	-7179
▁radio	-7180
fir	-7181
▁mix	-7182
▁korv	-7183
▁landst	-7184
▁Lo	-7185
▁uppenbarligen	-7186
▁EF	-7187
jälp	-7188
▁Längtar	-7189
▁kullar	-7190
▁rådet	-7191
▁mysiga	-7192
cia	-7193
▁gårdagens	-7194
▁svenskt	-7195
▁registr	-7196
▁vinden	-7197
▁real	-7198
▁verktyg	-7199
▁HÄR	-7200
▁Kände	-7201
gått	-7202
cha	-7203
kro	-7204
eng	-7205
▁förkylning	-7206
▁Olsson	-7207
▁grönt	-7208
▁kinesiska	-7209
▁lett	-7210
▁posten	-7211
▁siffror	-7212
▁Hemma	-7213
▁uppmunt	-7214
skvällen	-7215
▁Svensson	-7216
▁Afghanistan	-7217
▁Ho	-7218
▁Mellan	-7219
▁sop	-7220
▁löser	-7221
▁185	-7222
ior	-7223
▁elit	-7224
baka	-7225
osa	-7226
▁administrat	-7227
▁jättem	-7228
▁yt	-7229
yndig	-7230
ón	-7231
▁jätteg	-7232
▁Cla	-7233
▁nätter	-7234
▁aller	-7235
▁lyft	-7236
ute	-7237
▁idiot	-7238
▁visas	-7239
▁Tanken	-7240
▁levde	-7241
▁kult	-7242
tjän	-7243
rades	-7244
▁öron	-7245
▁semestern	-7246
▁Wal	-7247
▁spra	-7248
▁värm	-7249
▁Också	-7250
▁tappa	-7251
▁melod	-7252
▁moln	-7253
ep	-7254
▁behövt	-7255
▁Gustaf	-7256
▁orätt	-7257
▁kampan	-7258
mon	-7259
domar	-7260
▁Stra	-7261
▁nånting	-7262
▁berättat	-7263
▁ledningen	-7264
▁Led	-7265
▁döden	-7266
▁Fakt	-7267
▁uppger	-7268
▁länderna	-7269
erier	-7270
▁förbereda	-7271
▁goog	-7272
▁Varit	-7273
▁Jac	-7274
▁käkade	-7275
▁pappas	-7276
▁Japan	-7277
▁’	-7278
▁distrikt	-7279
▁knäpp	-7280
▁ÄN	-7281
itioner	-7282
ane	-7283
▁saknat	-7284
▁tålamod	-7285
▁klev	-7286
▁tillåt	-7287
ocke	-7288
▁foton	-7289
▁grepp	-7290
▁arab	-7291
▁anfall	-7292
▁Eva	-7293
▁Osc	-7294
▁stekel	-7295
start	-7296
ylla	-7297
▁Kunde	-7298
▁friv	-7299
▁måsten	-7300
serien	-7301
etar	-7302
▁tings	-7303
▁åklag	-7304
▁riksdagen	-7305
▁sticker	-7306
▁skjuta	-7307
▁Kat	-7308
säg	-7309
▁dop	-7310
▁boka	-7311
strument	-7312
▁pojke	-7313
▁Port	-7314
▁personlig	-7315
li	-7316
▁uppskattar	-7317
sspel	-7318
▁ledning	-7319
iell	-7320
vården	-7321
▁händelse	-7322
▁Håller	-7323
▁tänderna	-7324
▁rensa	-7325
▁arbetade	-7326
▁engagemang	-7327
▁eu	-7328
▁Ger	-7329
▁Veck	-7330
▁beredd	-7331
▁ensamma	-7332
mord	-7333
▁regnar	-7334
▁omständ	-7335
▁stir	-7336
▁rubriken	-7337
hund	-7338
▁potent	-7339
▁grek	-7340
▁spelas	-7341
imeter	-7342
▁ledigt	-7343
▁ite	-7344
▁moderna	-7345
▁ögat	-7346
▁Umeå	-7347
▁Konst	-7348
STE	-7349
▁körkort	-7350
▁närmar	-7351
arbetet	-7352
▁Turkiet	-7353
▁mi	-7354
▁pedagog	-7355
▁civil	-7356
▁vät	-7357
▁ägna	-7358
▁torra	-7359
▁gemensam	-7360
örja	-7361
▁Mount	-7362
▁ack	-7363
▁firar	-7364
▁fäll	-7365
▁komplic	-7366
NS	-7367
▁innebära	-7368
▁kreativ	-7369
▁påminner	-7370
mäkt	-7371
▁partner	-7372
▁Cam	-7373
▁Rad	-7374
go	-7375
▁syrran	-7376
▁SE	-7377
▁service	-7378
smål	-7379
▁eltt	-7380
▁Usch	-7381
▁Enda	-7382
▁skam	-7383
▁bero	-7384
▁turk	-7385
lik	-7386
▁pekar	-7387
▁tända	-7388
ledare	-7389
▁strunt	-7390
▁300	-7391
▁återh	-7392
▁insta	-7393
▁samvete	-7394
LLER	-7395
▁tysk	-7396
▁gråter	-7397
▁plagg	-7398
▁tisdagen	-7399
besök	-7400
▁behövdes	-7401
▁KOMM	-7402
▁fikade	-7403
▁Dags	-7404
▁rak	-7405
▁kyrka	-7406
onny	-7407
▁varas	-7408
▁snara	-7409
onym	-7410
▁lott	-7411
▁Karin	-7412
▁48	-7413
▁vandra	-7414
fisk	-7415
▁känts	-7416
▁37	-7417
▁flickor	-7418
▁sökte	-7419
▁liber	-7420
▁röster	-7421
▁Glöm	-7422
igas	-7423
▁Marcus	-7424
ION	-7425
▁lyckad	-7426
vi	-7427
ationerna	-7428
▁onsdagen	-7429
vetet	-7430
▁gnäll	-7431
▁Jam	-7432
asts	-7433
▁testat	-7434
usive	-7435
▁israel	-7436
▁vant	-7437
▁myr	-7438
▁hamnat	-7439
▁stel	-7440
jun	-7441
▁armen	-7442
▁favoriter	-7443
▁räcka	-7444
jöl	-7445
▁jä	-7446
itionen	-7447
▁genomföra	-7448
witter	-7449
▁serier	-7450
▁främsta	-7451
sområdet	-7452
▁skiten	-7453
▁negativt	-7454
kap	-7455
▁Luc	-7456
▁lunchen	-7457
▁damms	-7458
▁avbr	-7459
▁SVT	-7460
▁hejdå	-7461
▁skum	-7462
onom	-7463
▁dät	-7464
▁kliva	-7465
ific	-7466
▁kvällens	-7467
plar	-7468
▁lider	-7469
▁locka	-7470
▁Los	-7471
läggande	-7472
▁aren	-7473
▁separ	-7474
▁saknade	-7475
▁stekelart	-7476
▁långsikt	-7477
▁fysiskt	-7478
▁loppet	-7479
▁are	-7480
▁spräng	-7481
▁gren	-7482
▁minskar	-7483
▁Förhopp	-7484
tten	-7485
andena	-7486
▁orsak	-7487
alj	-7488
▁minister	-7489
▁beteende	-7490
▁billigare	-7491
▁skyn	-7492
▁förståelse	-7493
▁dun	-7494
▁dagligen	-7495
lige	-7496
▁kollektiv	-7497
skriget	-7498
▁gitarr	-7499
▁okän	-7500
▁ärenden	-7501
▁Lilla	-7502
▁varsin	-7503
▁höja	-7504
frågor	-7505
▁Reinfeldt	-7506
▁brors	-7507
▁språket	-7508
mos	-7509
▁andel	-7510
▁populär	-7511
▁rika	-7512
▁tipsa	-7513
▁Sig	-7514
▁relationer	-7515
▁Ros	-7516
▁vardagsrummet	-7517
▁tyng	-7518
▁utöver	-7519
▁dröj	-7520
▁delade	-7521
svall	-7522
▁Lill	-7523
▁lax	-7524
▁fastighet	-7525
▁lösningar	-7526
▁blix	-7527
▁frivill	-7528
▁byggt	-7529
▁less	-7530
▁sty	-7531
▁1999	-7532
▁trett	-7533
▁blås	-7534
▁förf	-7535
▁fäst	-7536
▁sannolikt	-7537
▁undersökning	-7538
▁vikten	-7539
▁smaka	-7540
▁Blog	-7541
▁tema	-7542
iana	-7543
▁njöt	-7544
▁danska	-7545
▁onsdags	-7546
▁genomsnitt	-7547
▁likadan	-7548
▁tisdags	-7549
▁partiled	-7550
▁övning	-7551
▁ovanför	-7552
▁drömmer	-7553
ANS	-7554
just	-7555
▁insett	-7556
ands	-7557
▁förny	-7558
▁sökt	-7559
▁palestin	-7560
▁troll	-7561
▁deltog	-7562
▁%	-7563
▁byter	-7564
▁Tiden	-7565
▁42	-7566
skill	-7567
▁konstiga	-7568
▁offer	-7569
▁arbetat	-7570
iftet	-7571
▁besökare	-7572
ässan	-7573
tex	-7574
▁försäkr	-7575
parlament	-7576
....	-7577
▁märke	-7578
▁inställning	-7579
▁städse	-7580
pråk	-7581
gern	-7582
▁förvån	-7583
lingarna	-7584
▁fylld	-7585
▁Ac	-7586
värder	-7587
▁skött	-7588
▁Alice	-7589
▁Bal	-7590
▁dialog	-7591
▁Lik	-7592
▁Phil	-7593
.30	-7594
▁mats	-7595
föra	-7596
punkter	-7597
▁spindel	-7598
▁töm	-7599
▁lands	-7600
▁längtat	-7601
▁Josef	-7602
▁insatser	-7603
▁pig	-7604
▁39	-7605
▁upptäck	-7606
geringen	-7607
▁tackar	-7608
▁Trodde	-7609
▁las	-7610
▁ved	-7611
varon	-7612
▁kryd	-7613
▁ugnen	-7614
sjuk	-7615
ivia	-7616
uttar	-7617
▁hämtar	-7618
▁smar	-7619
ema	-7620
bru	-7621
▁värda	-7622
▁plån	-7623
fritt	-7624
▁charm	-7625
▁säkerhets	-7626
▁föremål	-7627
▁skapade	-7628
▁Ganska	-7629
narna	-7630
eka	-7631
▁Dar	-7632
▁romant	-7633
▁mosaik	-7634
▁smakar	-7635
▁cyklade	-7636
▁Thailand	-7637
penhamn	-7638
▁nyttigt	-7639
▁dekor	-7640
ampar	-7641
vit	-7642
▁således	-7643
▁vik	-7644
iansen	-7645
▁Ras	-7646
▁altan	-7647
LIGT	-7648
▁Guds	-7649
▁LITE	-7650
▁kursen	-7651
▁ansvaret	-7652
▁skade	-7653
▁bab	-7654
▁religion	-7655
▁doft	-7656
skåd	-7657
▁brister	-7658
▁DN	-7659
▁inkomst	-7660
▁villa	-7661
elsens	-7662
▁ständ	-7663
▁våldt	-7664
▁östra	-7665
familj	-7666
imul	-7667
ole	-7668
▁missar	-7669
▁Mest	-7670
▁tråd	-7671
▁kvinnorna	-7672
▁vänd	-7673
▁Volvo	-7674
▁Lå	-7675
▁torka	-7676
▁pil	-7677
▁Bay	-7678
ric	-7679
▁Sandra	-7680
▁turn	-7681
▁kampen	-7682
mäst	-7683
▁regeringens	-7684
▁finansier	-7685
uleå	-7686
ssam	-7687
▁mäkt	-7688
öka	-7689
▁Hell	-7690
▁opin	-7691
LA	-7692
▁had	-7693
▁stick	-7694
▁värk	-7695
▁halvår	-7696
▁vårat	-7697
▁DAG	-7698
▁Problemet	-7699
▁löj	-7700
▁enorma	-7701
▁öst	-7702
▁kritis	-7703
▁offentlig	-7704
▁onda	-7705
yter	-7706
▁andrag	-7707
▁Kolla	-7708
▁vänskap	-7709
▁väcka	-7710
▁1,1	-7711
▁Milj	-7712
▁försk	-7713
▁hed	-7714
föd	-7715
▁kem	-7716
▁tvär	-7717
ru	-7718
rop	-7719
▁bakåt	-7720
40	-7721
▁kapa	-7722
▁Aldrig	-7723
▁råkade	-7724
▁Vä	-7725
▁skorna	-7726
enta	-7727
▁myndigheter	-7728
▁stånd	-7729
▁besl	-7730
▁savannskog	-7731
änge	-7732
saken	-7733
ställt	-7734
▁uppenbart	-7735
▁margin	-7736
▁naglarna	-7737
▁färd	-7738
ART	-7739
▁överväg	-7740
▁blåser	-7741
sida	-7742
▁försäljning	-7743
▁pluggar	-7744
▁lög	-7745
▁hemsk	-7746
▁skickar	-7747
mässigt	-7748
▁Havet	-7749
▁Fem	-7750
▁låtsas	-7751
▁felakt	-7752
▁sko	-7753
korea	-7754
strid	-7755
▁arkite	-7756
▁skedde	-7757
▁personligen	-7758
▁ine	-7759
edt	-7760
▁moster	-7761
▁data	-7762
▁skinn	-7763
▁uppnå	-7764
▁växtart	-7765
▁Skolan	-7766
▁uppstår	-7767
rationen	-7768
sås	-7769
öns	-7770
▁Fröl	-7771
tad	-7772
djursart	-7773
▁optim	-7774
▁professor	-7775
old	-7776
ette	-7777
▁strateg	-7778
▁bidrar	-7779
.000	-7780
hyd	-7781
▁lung	-7782
▁kombination	-7783
▁tilläg	-7784
▁jättekul	-7785
ämpa	-7786
▁spekul	-7787
bas	-7788
▁integr	-7789
▁persiska	-7790
▁möjligen	-7791
rinning	-7792
känsla	-7793
▁inköp	-7794
sområde	-7795
öar	-7796
▁duschat	-7797
▁Dels	-7798
junkt	-7799
▁marknadsför	-7800
inne	-7801
▁slutligen	-7802
▁fånga	-7803
ili	-7804
▁tjänar	-7805
kal	-7806
▁grus	-7807
▁flyger	-7808
▁47	-7809
▁fungerade	-7810
▁studenten	-7811
▁äkt	-7812
▁Medan	-7813
▁Sjukt	-7814
ologisk	-7815
▁hundrat	-7816
området	-7817
onger	-7818
▁grädde	-7819
▁unge	-7820
▁ledar	-7821
▁DÄR	-7822
▁västra	-7823
▁erbjuder	-7824
▁Ing	-7825
▁Adam	-7826
▁produktion	-7827
ummer	-7828
▁Petter	-7829
▁BLI	-7830
▁utv	-7831
▁varannan	-7832
▁dn	-7833
▁befolkningen	-7834
▁bart	-7835
▁bist	-7836
▁Marie	-7837
▁Afton	-7838
▁datum	-7839
▁läskigt	-7840
▁Lena	-7841
▁Deras	-7842
▁omt	-7843
▁majoritet	-7844
▁fabr	-7845
äkra	-7846
▁avanc	-7847
▁Arbet	-7848
▁råkar	-7849
▁företagen	-7850
▁75	-7851
slapp	-7852
▁:-	-7853
▁präst	-7854
▁Borås	-7855
▁bens	-7856
järna	-7857
▁innebar	-7858
▁FA	-7859
▁2013	-7860
▁avklar	-7861
▁Ku	-7862
hålla	-7863
osten	-7864
▁likadant	-7865
▁brukade	-7866
▁hemska	-7867
▁Rich	-7868
▁myser	-7869
▁flit	-7870
ment	-7871
▁motsvar	-7872
▁österut	-7873
▁skym	-7874
▁grundläggande	-7875
▁städsegrön	-7876
▁användning	-7877
▁mjuka	-7878
▁kylan	-7879
▁Funderar	-7880
stern	-7881
sköter	-7882
▁blivande	-7883
sor	-7884
▁tävlingar	-7885
▁slänger	-7886
▁Haft	-7887
▁sprungit	-7888
ssons	-7889
▁snitt	-7890
▁periodiskt	-7891
agram	-7892
▁hälsade	-7893
olin	-7894
vig	-7895
▁koppla	-7896
▁Ly	-7897
▁Emelie	-7898
▁Undrar	-7899
▁månaderna	-7900
▁allmänna	-7901
person	-7902
isse	-7903
osex	-7904
▁förvar	-7905
▁hårdare	-7906
▁försen	-7907
▁djupa	-7908
olution	-7909
▁Kvällen	-7910
ULL	-7911
öden	-7912
oo	-7913
▁kne	-7914
▁möbler	-7915
▁Mattias	-7916
▁hörn	-7917
rot	-7918
vera	-7919
ängd	-7920
▁spenderat	-7921
▁källa	-7922
▁avslutade	-7923
▁utsträck	-7924
resa	-7925
▁stek	-7926
▁träningspass	-7927
▁återkommer	-7928
que	-7929
▁västerut	-7930
▁kakor	-7931
erin	-7932
▁hävdar	-7933
göra	-7934
▁unionen	-7935
porter	-7936
derat	-7937
▁sprida	-7938
▁George	-7939
▁ångrar	-7940
sätter	-7941
▁åstad	-7942
▁con	-7943
▁EFTER	-7944
evis	-7945
▁Egy	-7946
hn	-7947
▁strålande	-7948
▁idén	-7949
▁Maja	-7950
▁snor	-7951
iment	-7952
bandet	-7953
enskaper	-7954
▁Helsingborg	-7955
▁ljust	-7956
▁aktivitet	-7957
rest	-7958
▁tusan	-7959
▁rättighet	-7960
▁regerings	-7961
▁pry	-7962
ots	-7963
▁transport	-7964
sid	-7965
▁borgerliga	-7966
isering	-7967
▁oänd	-7968
▁artikeln	-7969
▁position	-7970
OS	-7971
▁fritid	-7972
▁diagn	-7973
▁kaka	-7974
▁gig	-7975
▁Högsta	-7976
▁goa	-7977
▁lans	-7978
▁individer	-7979
▁BE	-7980
▁Gå	-7981
ICK	-7982
fon	-7983
▁kostnader	-7984
▁lovade	-7985
steklar	-7986
▁figur	-7987
▁självförtroende	-7988
▁berättelse	-7989
▁Jaha	-7990
▁pepp	-7991
▁tekniska	-7992
▁rulla	-7993
▁konstant	-7994
▁hustr	-7995
▁domstol	-7996
etg	-7997
AK	-7998
▁veg	-7999
änkt	-8000
▁isen	-8001
▁tröst	-8002
▁helhet	-8003
ORG	-8004
▁rider	-8005
▁steget	-8006
▁förälder	-8007
▁chips	-8008
▁gifta	-8009
▁fukt	-8010
▁häromdagen	-8011
▁förmån	-8012
▁billigt	-8013
▁protest	-8014
rike	-8015
▁negativ	-8016
▁pojkar	-8017
tegi	-8018
styrelsen	-8019
laget	-8020
▁stackars	-8021
rapp	-8022
▁Kommun	-8023
▁City	-8024
marknad	-8025
▁utredning	-8026
▁Mär	-8027
▁initiativ	-8028
▁Pen	-8029
▁blivna	-8030
▁konsekvenser	-8031
▁överleva	-8032
▁Air	-8033
▁förhör	-8034
▁flyga	-8035
▁gula	-8036
▁brotts	-8037
▁bröt	-8038
▁udde	-8039
▁Kam	-8040
▁täcket	-8041
▁anhör	-8042
DR	-8043
▁atn	-8044
▁skiva	-8045
out	-8046
▁bakgrunden	-8047
▁ljuv	-8048
andrar	-8049
▁Borg	-8050
▁bul	-8051
FÖR	-8052
▁träffades	-8053
▁beställt	-8054
▁Ban	-8055
▁självklar	-8056
språk	-8057
nis	-8058
hög	-8059
▁lagade	-8060
▁skiter	-8061
▁dugg	-8062
▁armarna	-8063
▁tu	-8064
▁Jenny	-8065
▁fenomen	-8066
stopp	-8067
▁rutiner	-8068
▁DÅ	-8069
asin	-8070
▁mom	-8071
▁Få	-8072
▁protester	-8073
▁manus	-8074
▁öd	-8075
▁Bästa	-8076
▁mä	-8077
spol	-8078
▁upplevt	-8079
▁Filmen	-8080
▁Sil	-8081
▁utfly	-8082
▁smuts	-8083
▁spelarna	-8084
▁tabl	-8085
▁fam	-8086
ingens	-8087
▁funka	-8088
▁snackade	-8089
▁sammans	-8090
▁verkliga	-8091
yrkan	-8092
▁avst	-8093
igar	-8094
▁tjänstem	-8095
▁druckit	-8096
▁räknat	-8097
▁bokstav	-8098
▁avslapp	-8099
▁betalt	-8100
▁ordna	-8101
▁uttrycka	-8102
▁jämföra	-8103
▁muslim	-8104
▁Bu	-8105
▁flög	-8106
▁videon	-8107
▁läkem	-8108
▁vice	-8109
▁orkid	-8110
▁nr	-8111
▁KL	-8112
▁1998	-8113
▁effektivt	-8114
▁utnyttja	-8115
▁chock	-8116
ela	-8117
uti	-8118
▁ond	-8119
▁lockar	-8120
▁blivnas	-8121
▁slängde	-8122
eds	-8123
upen	-8124
ico	-8125
▁Ring	-8126
▁sprut	-8127
▁Jess	-8128
▁frustr	-8129
▁kunskaper	-8130
▁yng	-8131
ilia	-8132
▁43	-8133
▁letade	-8134
▁HON	-8135
▁ish	-8136
▁Väx	-8137
▁fartyg	-8138
▁kristen	-8139
rika	-8140
politik	-8141
▁Las	-8142
meh	-8143
atus	-8144
skning	-8145
vill	-8146
▁levt	-8147
▁smaken	-8148
▁ersättning	-8149
▁kontin	-8150
▁öar	-8151
▁schema	-8152
▁yta	-8153
▁rekommenderar	-8154
hor	-8155
▁bu	-8156
▁65	-8157
▁Fre	-8158
▁segt	-8159
▁frukosten	-8160
▁Kong	-8161
▁parad	-8162
▁patienter	-8163
-19	-8164
▁blomm	-8165
▁avgöra	-8166
▁inspel	-8167
▁Sjö	-8168
▁specif	-8169
domen	-8170
▁sanning	-8171
▁blogginlägg	-8172
▁partierna	-8173
ago	-8174
inas	-8175
bad	-8176
▁räckte	-8177
▁Dra	-8178
▁bast	-8179
▁fattiga	-8180
▁sämsta	-8181
mann	-8182
▁omgivning	-8183
-4	-8184
▁trycker	-8185
▁frid	-8186
unskap	-8187
SÅ	-8188
▁köns	-8189
▁To	-8190
▁Afrika	-8191
▁SIG	-8192
▁1,5	-8193
▁utmaningar	-8194
▁rinner	-8195
läggning	-8196
▁fien	-8197
▁kvalit	-8198
sål	-8199
▁status	-8200
▁motsvarande	-8201
▁katter	-8202
sban	-8203
▁Framför	-8204
▁kvinnliga	-8205
▁bestod	-8206
▁400	-8207
▁Träff	-8208
▁bryter	-8209
▁Kim	-8210
▁förbannad	-8211
▁kli	-8212
DEN	-8213
▁nyckel	-8214
▁skrika	-8215
▁punkter	-8216
ssystem	-8217
▁slö	-8218
▁skylla	-8219
▁Eriksson	-8220
▁tjat	-8221
▁tvekan	-8222
▁jämställd	-8223
▁44	-8224
▁studenter	-8225
ath	-8226
▁Oscar	-8227
▁skrift	-8228
▁konstrukt	-8229
▁skämt	-8230
▁delst	-8231
▁katten	-8232
▁Christian	-8233
▁vans	-8234
freds	-8235
elia	-8236
▁väs	-8237
▁förbjud	-8238
▁finalen	-8239
▁tårt	-8240
aria	-8241
▁skadade	-8242
▁företräd	-8243
▁besökte	-8244
▁Holm	-8245
kommande	-8246
▁kapitel	-8247
wood	-8248
åtts	-8249
grader	-8250
▁promenader	-8251
värda	-8252
▁inklusive	-8253
amas	-8254
temot	-8255
▁Super	-8256
▁beställde	-8257
▁byr	-8258
▁dst	-8259
orgen	-8260
▁jap	-8261
tio	-8262
ulen	-8263
ställningar	-8264
▁noggr	-8265
▁tend	-8266
▁praktiskt	-8267
opter	-8268
ennis	-8269
▁mums	-8270
▁bän	-8271
▁Förhoppningsvis	-8272
botten	-8273
▁show	-8274
▁We	-8275
▁kropps	-8276
edon	-8277
rorna	-8278
▁omedelbart	-8279
▁temperatur	-8280
▁författaren	-8281
ios	-8282
▁sköta	-8283
▁upptäcka	-8284
▁badade	-8285
▁gard	-8286
▁tvinga	-8287
▁äldsta	-8288
▁blandade	-8289
▁Bilden	-8290
▁orig	-8291
▁samlade	-8292
▁vården	-8293
▁ansök	-8294
▁fro	-8295
▁Stör	-8296
▁sel	-8297
tv	-8298
▁smärtan	-8299
▁Linköping	-8300
▁utländska	-8301
▁aktuella	-8302
napp	-8303
▁FIN	-8304
▁olik	-8305
▁gröt	-8306
▁efterläng	-8307
▁sänd	-8308
auf	-8309
▁aktivt	-8310
▁utsläpp	-8311
▁belö	-8312
histor	-8313
▁verklig	-8314
ano	-8315
dy	-8316
▁borg	-8317
▁Anledningen	-8318
▁Huvud	-8319
▁Köpenhamn	-8320
▁grått	-8321
▁jelg	-8322
bul	-8323
▁mack	-8324
▁funderade	-8325
▁Hö	-8326
▁arrang	-8327
▁Kalmar	-8328
otte	-8329
▁detsamma	-8330
▁Fri	-8331
▁lyfter	-8332
▁omsorg	-8333
▁soffa	-8334
▁vilar	-8335
▁Mid	-8336
ese	-8337
▁divis	-8338
växten	-8339
ifte	-8340
kapp	-8341
▁blicken	-8342
strå	-8343
▁öga	-8344
undersök	-8345
▁fynd	-8346
telef	-8347
▁Ram	-8348
atan	-8349
döm	-8350
▁hoppats	-8351
etiska	-8352
▁Lä	-8353
▁allihopa	-8354
▁minnes	-8355
▁flickan	-8356
▁statistik	-8357
▁djuren	-8358
jäv	-8359
▁rutin	-8360
ikern	-8361
▁Boken	-8362
▁finare	-8363
▁väd	-8364
▁förne	-8365
▁ettt	-8366
▁Häll	-8367
▁lastbil	-8368
HET	-8369
▁heta	-8370
▁skolans	-8371
eterare	-8372
▁intensiv	-8373
▁vall	-8374
▁Bild	-8375
▁förest	-8376
▁tomten	-8377
▁ambul	-8378
inter	-8379
▁41	-8380
▁fra	-8381
▁rem	-8382
namn	-8383
▁perioder	-8384
▁46	-8385
▁strump	-8386
▁färdiga	-8387
▁Goog	-8388
▁forskare	-8389
esson	-8390
▁sänka	-8391
övde	-8392
rs	-8393
▁olje	-8394
▁Sel	-8395
▁allts	-8396
▁testade	-8397
▁konsekvens	-8398
östa	-8399
▁välkomna	-8400
▁utbud	-8401
▁organisationer	-8402
▁internationell	-8403
▁fattade	-8404
▁gräv	-8405
▁kolhyd	-8406
▁drömma	-8407
▁rätteg	-8408
▁adress	-8409
nä	-8410
▁piggare	-8411
▁Tex	-8412
▁givna	-8413
▁störst	-8414
▁missn	-8415
▁planerade	-8416
▁Tors	-8417
▁SvD	-8418
änger	-8419
▁attrakt	-8420
disk	-8421
▁DU	-8422
▁Berlin	-8423
▁stimul	-8424
▁konsert	-8425
etn	-8426
empel	-8427
▁Lycka	-8428
▁diska	-8429
▁främmande	-8430
formen	-8431
▁advent	-8432
▁Moa	-8433
ocker	-8434
teras	-8435
frihet	-8436
▁lugnare	-8437
▁2014	-8438
▁stadens	-8439
▁Läg	-8440
▁öva	-8441
▁garderoben	-8442
▁usch	-8443
▁Resten	-8444
▁hant	-8445
▁bloggare	-8446
▁bekväm	-8447
▁Sär	-8448
▁Dom	-8449
▁innehållet	-8450
skraft	-8451
▁Våra	-8452
▁golf	-8453
grund	-8454
▁fullkom	-8455
▁isol	-8456
ava	-8457
▁banken	-8458
jsa	-8459
▁dubbelt	-8460
öra	-8461
▁processen	-8462
▁kanal	-8463
▁vagn	-8464
▁läkar	-8465
▁tär	-8466
▁ledande	-8467
▁packade	-8468
▁oklart	-8469
▁Oavsett	-8470
▁skand	-8471
vatt	-8472
▁kapit	-8473
▁stödja	-8474
landa	-8475
▁våras	-8476
▁lar	-8477
▁motivation	-8478
▁tör	-8479
▁misstänkt	-8480
yft	-8481
▁svin	-8482
▁varmare	-8483
yndigheten	-8484
▁hängt	-8485
▁metod	-8486
▁föräldra	-8487
keln	-8488
▁Saknar	-8489
acka	-8490
▁Patrik	-8491
▁naturliga	-8492
ekan	-8493
▁veckas	-8494
äckar	-8495
▁älsklingen	-8496
▁personlighet	-8497
▁diskussioner	-8498
▁bitter	-8499
täl	-8500
▁lila	-8501
lit	-8502
▁instrument	-8503
ranger	-8504
▁längtan	-8505
talets	-8506
▁packat	-8507
▁rekommendera	-8508
▁föredrag	-8509
chefen	-8510
▁allvarliga	-8511
▁vettigt	-8512
▁förlorar	-8513
mm	-8514
▁Stad	-8515
gjor	-8516
▁Ry	-8517
gade	-8518
▁nacken	-8519
fria	-8520
▁talas	-8521
▁baras	-8522
▁självständ	-8523
▁tvingades	-8524
▁Miss	-8525
gjorde	-8526
▁äckligt	-8527
▁förvis	-8528
▁aukt	-8529
strar	-8530
▁gest	-8531
▁kontrollera	-8532
▁skickat	-8533
▁Univers	-8534
▁Luleå	-8535
▁MÅ	-8536
▁inbjud	-8537
ogen	-8538
▁förvär	-8539
lök	-8540
båg	-8541
▁Fy	-8542
▁fingrarna	-8543
BB	-8544
▁styrelse	-8545
▁fjäll	-8546
▁Blanda	-8547
▁Got	-8548
▁Person	-8549
byggnad	-8550
skilt	-8551
▁lillasyster	-8552
▁anledningar	-8553
▁tusentals	-8554
▁chocka	-8555
vor	-8556
▁pappan	-8557
▁Brukar	-8558
ted	-8559
▁hyra	-8560
umma	-8561
▁förmiddag	-8562
▁cykeln	-8563
uer	-8564
▁envis	-8565
rist	-8566
issionen	-8567
▁delarna	-8568
▁invandrare	-8569
▁aja	-8570
▁snällt	-8571
▁version	-8572
▁dress	-8573
▁II	-8574
▁Saab	-8575
▁lack	-8576
▁psykolog	-8577
▁general	-8578
▁slappna	-8579
rass	-8580
▁Cal	-8581
▁grannar	-8582
yer	-8583
idar	-8584
böcker	-8585
▁maskin	-8586
▁klagar	-8587
▁studera	-8588
▁reste	-8589
▁Can	-8590
▁run	-8591
▁föredrar	-8592
▁hälsos	-8593
▁ära	-8594
anny	-8595
▁Part	-8596
▁intro	-8597
visar	-8598
▁jurid	-8599
▁trafiken	-8600
▁akut	-8601
▁rester	-8602
▁jull	-8603
▁Ulf	-8604
▁tagen	-8605
▁kastade	-8606
▁Niklas	-8607
inerande	-8608
▁utl	-8609
▁blandning	-8610
▁49	-8611
ht	-8612
▁1994	-8613
▁Borde	-8614
▁hittades	-8615
▁skin	-8616
▁tron	-8617
▁bonus	-8618
▁handlingar	-8619
ättar	-8620
▁bana	-8621
▁angel	-8622
▁aspekt	-8623
rations	-8624
▁ändras	-8625
▁bin	-8626
verkan	-8627
▁center	-8628
▁assist	-8629
▁utsträckning	-8630
serna	-8631
▁snackar	-8632
▁soldater	-8633
▁alltet	-8634
ÅNG	-8635
▁typiskt	-8636
▁dalar	-8637
valet	-8638
▁normala	-8639
▁Din	-8640
▁gårdagen	-8641
▁Världens	-8642
▁Internet	-8643
pren	-8644
▁Linnea	-8645
eshmeh	-8646
▁nämna	-8647
▁Försöker	-8648
evär	-8649
▁oav	-8650
▁behovet	-8651
passa	-8652
▁artiklar	-8653
ävle	-8654
brän	-8655
▁Center	-8656
▁bras	-8657
▁Pla	-8658
▁Kron	-8659
▁träningsvärk	-8660
agne	-8661
▁Ebba	-8662
▁ul	-8663
▁oväntat	-8664
▁hoppades	-8665
ämligen	-8666
▁poliser	-8667
▁live	-8668
▁näringsl	-8669
skydd	-8670
▁Wall	-8671
▁bedö	-8672
▁förstöra	-8673
▁Lenn	-8674
▁haver	-8675
gh	-8676
▁sud	-8677
▁bedriv	-8678
▁emellanåt	-8679
▁Håll	-8680
ington	-8681
▁bukt	-8682
skiftet	-8683
ogs	-8684
ward	-8685
▁Carol	-8686
▁aut	-8687
▁skidor	-8688
▁singel	-8689
▁utfor	-8690
▁sjukdomar	-8691
▁184	-8692
bid	-8693
skatta	-8694
▁lyssnat	-8695
▁oberoende	-8696
▁Trött	-8697
▁jordgubbar	-8698
▁ladd	-8699
öljer	-8700
▁Ikea	-8701
▁skrämmande	-8702
▁SAM	-8703
gjort	-8704
▁rån	-8705
▁fotbolls	-8706
▁skruv	-8707
▁somnat	-8708
▁festen	-8709
▁nark	-8710
▁önskade	-8711
satte	-8712
▁Klart	-8713
ison	-8714
▁filt	-8715
▁fysiska	-8716
▁bekrä	-8717
▁tjocka	-8718
atta	-8719
eva	-8720
grip	-8721
▁Hammar	-8722
etts	-8723
▁böj	-8724
▁släppt	-8725
▁färga	-8726
▁mös	-8727
▁jättes	-8728
pon	-8729
▁sött	-8730
▁avsikt	-8731
viv	-8732
▁Gunnar	-8733
▁sovrummet	-8734
bröd	-8735
▁löne	-8736
ffe	-8737
känd	-8738
ÄM	-8739
▁johan	-8740
aner	-8741
▁Lud	-8742
▁nice	-8743
▁yttre	-8744
▁krisen	-8745
▁standard	-8746
bana	-8747
▁bostäder	-8748
orth	-8749
estäm	-8750
▁synnerhet	-8751
SS	-8752
▁Schweiz	-8753
jerna	-8754
▁smärt	-8755
▁behag	-8756
▁GÖR	-8757
ligg	-8758
ienska	-8759
▁politikerna	-8760
▁jättemycket	-8761
▁tacos	-8762
▁tårarna	-8763
▁nätverk	-8764
▁kompetens	-8765
ensk	-8766
▁längden	-8767
▁användes	-8768
▁invän	-8769
iset	-8770
▁aktiva	-8771
iop	-8772
▁läpparna	-8773
▁utform	-8774
▁dumma	-8775
▁kylskå	-8776
▁välkommen	-8777
▁obser	-8778
▁funderingar	-8779
▁Kändes	-8780
▁jämn	-8781
▁livets	-8782
ickan	-8783
stör	-8784
bullar	-8785
äckande	-8786
ktes	-8787
▁blyg	-8788
▁väckte	-8789
▁satsar	-8790
▁möts	-8791
strand	-8792
▁kross	-8793
▁halvöar	-8794
ifer	-8795
värre	-8796
▁flertal	-8797
▁don	-8798
▁godaste	-8799
▁Asså	-8800
kommit	-8801
tälje	-8802
▁kosta	-8803
▁Helgen	-8804
▁intresset	-8805
▁länk	-8806
▁måltid	-8807
▁krets	-8808
▁operation	-8809
▁ordningen	-8810
▁Ken	-8811
▁1995	-8812
▁begav	-8813
▁Obama	-8814
▁Egypten	-8815
▁bullar	-8816
mö	-8817
▁smycken	-8818
▁värden	-8819
▁totala	-8820
▁målar	-8821
▁upphör	-8822
rona	-8823
▁pj	-8824
onia	-8825
▁muslimer	-8826
kant	-8827
▁Gunung	-8828
stiden	-8829
▁läkemedel	-8830
▁Rör	-8831
istiken	-8832
▁poolen	-8833
▁naz	-8834
▁grott	-8835
ografi	-8836
▁redakt	-8837
▁läggs	-8838
unna	-8839
▁ljusa	-8840
▁rollen	-8841
▁1997	-8842
▁skriven	-8843
▁plåt	-8844
▁minskat	-8845
▁klok	-8846
byte	-8847
▁inhand	-8848
▁eventuella	-8849
irt	-8850
spelet	-8851
▁taxi	-8852
▁metoder	-8853
▁bekan	-8854
▁helger	-8855
kär	-8856
▁Orkar	-8857
rel	-8858
▁kommuna	-8859
ringar	-8860
▁biten	-8861
▁anslut	-8862
östra	-8863
▁etc	-8864
struktur	-8865
▁inkom	-8866
▁Od	-8867
▁Tomas	-8868
FF	-8869
▁tvungna	-8870
▁musikal	-8871
meddel	-8872
▁kulture	-8873
▁inge	-8874
▁granska	-8875
▁beskrev	-8876
järnan	-8877
▁smidigt	-8878
▁reagerar	-8879
▁ikapp	-8880
▁skritt	-8881
▁tillverk	-8882
▁KÄN	-8883
iper	-8884
nät	-8885
▁gransk	-8886
promenad	-8887
gårds	-8888
schef	-8889
▁vinnare	-8890
utna	-8891
slo	-8892
ontan	-8893
vo	-8894
▁konsum	-8895
ffs	-8896
rätta	-8897
▁Rock	-8898
länderna	-8899
▁flickvän	-8900
▁tvn	-8901
naren	-8902
▁op	-8903
▁Västerås	-8904
▁komplex	-8905
▁Hed	-8906
▁målade	-8907
▁sens	-8908
▁trupp	-8909
▁ljusare	-8910
▁veterin	-8911
▁ställs	-8912
▁psykiskt	-8913
▁bik	-8914
▁parken	-8915
▁pian	-8916
▁hu	-8917
▁pet	-8918
klund	-8919
▁chefen	-8920
▁filmerna	-8921
▁stämning	-8922
▁Frölunda	-8923
atiska	-8924
▁illam	-8925
▁1996	-8926
▁båd	-8927
▁kvartalet	-8928
▁myndighet	-8929
▁Skall	-8930
▁Di	-8931
▁Familj	-8932
▁hamn	-8933
.-	-8934
icera	-8935
▁Mag	-8936
▁receptet	-8937
etiskt	-8938
sstyr	-8939
▁upptäckt	-8940
förbundet	-8941
bäck	-8942
▁instrukt	-8943
▁Stan	-8944
ansvar	-8945
gym	-8946
primer	-8947
helm	-8948
celona	-8949
▁dagars	-8950
index	-8951
▁dyka	-8952
värld	-8953
▁otur	-8954
äkare	-8955
infl	-8956
▁Oskar	-8957
båt	-8958
▁Fråg	-8959
▁uppgiften	-8960
▁solsken	-8961
bu	-8962
▁ÖVER	-8963
▁mandat	-8964
▁kommission	-8965
▁Halm	-8966
▁våldtäkt	-8967
evin	-8968
eteck	-8969
▁kred	-8970
▁strå	-8971
▁personerna	-8972
staka	-8973
▁Inom	-8974
dal	-8975
▁höstas	-8976
▁Jacob	-8977
▁Tillsammans	-8978
▁hålls	-8979
glas	-8980
oa	-8981
▁champ	-8982
▁kid	-8983
oppar	-8984
▁släpptes	-8985
▁Perfekt	-8986
▁Plötsligt	-8987
plom	-8988
▁arranger	-8989
▁bot	-8990
▁cm	-8991
▁barr	-8992
▁knän	-8993
stöd	-8994
▁Gro	-8995
▁prim	-8996
yssel	-8997
amöter	-8998
fe	-8999
stugan	-9000
▁läkt	-9001
▁alltets	-9002
föräl	-9003
▁SO	-9004
▁ryck	-9005
▁framsteg	-9006
anka	-9007
▁helgerna	-9008
LIGEN	-9009
▁digit	-9010
▁mörker	-9011
▁diskr	-9012
▁möttes	-9013
igs	-9014
▁inflytande	-9015
▁Imorse	-9016
▁väldiga	-9017
▁bokat	-9018
åv	-9019
▁härifrån	-9020
▁vanligtvis	-9021
▁fon	-9022
blom	-9023
▁färsk	-9024
▁läraren	-9025
▁kryss	-9026
räk	-9027
▁utsatta	-9028
▁profil	-9029
▁tillåter	-9030
▁sovrum	-9031
▁Pu	-9032
fält	-9033
▁tvång	-9034
hål	-9035
stru	-9036
▁benet	-9037
▁mardröm	-9038
▁organisationen	-9039
▁timmen	-9040
phone	-9041
▁gräset	-9042
▁efterrätt	-9043
fal	-9044
▁ledamot	-9045
▁väggarna	-9046
enheter	-9047
▁kladd	-9048
▁ve	-9049
▁Internat	-9050
enskapen	-9051
säker	-9052
▁Japp	-9053
jade	-9054
▁Iallafall	-9055
stin	-9056
▁bitt	-9057
▁sträcker	-9058
▁ALLA	-9059
▁minim	-9060
▁sambon	-9061
▁myndigheterna	-9062
▁arbeten	-9063
▁mammor	-9064
läkaren	-9065
▁spenderade	-9066
spelare	-9067
ussen	-9068
▁decenn	-9069
▁pojken	-9070
▁Vädret	-9071
▁chanser	-9072
▁flaska	-9073
▁kusiner	-9074
▁kräva	-9075
iser	-9076
▁vac	-9077
▁55	-9078
▁skådespelare	-9079
jk	-9080
▁provat	-9081
▁Moder	-9082
▁kanten	-9083
▁Mac	-9084
▁turen	-9085
▁väld	-9086
▁spelades	-9087
seud	-9088
ionell	-9089
▁överraskning	-9090
▁Inne	-9091
▁kos	-9092
▁medför	-9093
▁toaletten	-9094
jord	-9095
▁riksdag	-9096
▁ep	-9097
iserade	-9098
▁fortare	-9099
▁knep	-9100
▁sidorna	-9101
▁hjärtan	-9102
▁hä	-9103
CKA	-9104
▁NY	-9105
▁iP	-9106
▁längd	-9107
▁tomma	-9108
▁Därmed	-9109
▁närings	-9110
▁slutsats	-9111
▁statliga	-9112
▁funkade	-9113
▁enhet	-9114
▁bruna	-9115
▁Aftonbladet	-9116
▁innanför	-9117
car	-9118
▁reglerna	-9119
▁est	-9120
▁supp	-9121
▁Tot	-9122
▁gemenskap	-9123
▁citron	-9124
troll	-9125
▁ponny	-9126
▁evighet	-9127
ätten	-9128
▁gigant	-9129
▁aktier	-9130
ague	-9131
pad	-9132
▁Djurgården	-9133
▁strategi	-9134
▁tit	-9135
tekn	-9136
nsam	-9137
▁shorts	-9138
▁relev	-9139
▁otrolig	-9140
▁granne	-9141
▁önskat	-9142
oli	-9143
▁mos	-9144
▁tillfreds	-9145
▁blöt	-9146
▁Plus	-9147
nivå	-9148
▁läsning	-9149
▁:-)	-9150
▁tales	-9151
▁upplevelser	-9152
▁självmord	-9153
▁segr	-9154
▁Lina	-9155
▁bekymmer	-9156
prom	-9157
▁brått	-9158
▁biljetter	-9159
▁drabbade	-9160
▁vägarna	-9161
▁RE	-9162
uvida	-9163
▁Arbets	-9164
latan	-9165
▁konstaterade	-9166
▁AL	-9167
▁sund	-9168
▁axlar	-9169
▁Ah	-9170
▁fat	-9171
▁AIK	-9172
▁ordentlig	-9173
▁Fyra	-9174
▁Västra	-9175
▁anpassa	-9176
▁förtjust	-9177
vagn	-9178
▁Nåja	-9179
oga	-9180
gås	-9181
▁tell	-9182
▁BRA	-9183
▁snubb	-9184
▁150	-9185
▁Nell	-9186
▁Louis	-9187
▁vägrade	-9188
posit	-9189
▁Föret	-9190
▁larm	-9191
▁SEN	-9192
▁usa	-9193
▁Kor	-9194
▁spl	-9195
▁camp	-9196
▁justa	-9197
▁grovt	-9198
▁badrummet	-9199
▁modeller	-9200
rom	-9201
▁dos	-9202
▁låtit	-9203
iktiga	-9204
▁online	-9205
jul	-9206
▁billiga	-9207
offer	-9208
▁förhållanden	-9209
essan	-9210
▁plåg	-9211
repren	-9212
grupper	-9213
▁Jimm	-9214
▁demonstr	-9215
▁sålde	-9216
ters	-9217
adels	-9218
▁morgondagen	-9219
▁stressa	-9220
▁blomma	-9221
▁ofrukt	-9222
▁BARA	-9223
▁järnväg	-9224
▁tyn	-9225
▁landsting	-9226
▁Viktor	-9227
▁grejen	-9228
▁allmänheten	-9229
▁kärleks	-9230
▁skräp	-9231
delsen	-9232
▁bakade	-9233
▁Halmstad	-9234
▁titeln	-9235
▁bloggade	-9236
▁världskriget	-9237
▁Bilder	-9238
▁ombord	-9239
▁instagram	-9240
ulla	-9241
▁grattis	-9242
▁värdel	-9243
▁Ans	-9244
▁Stat	-9245
uppgifter	-9246
▁klassiska	-9247
▁West	-9248
loppet	-9249
eller	-9250
▁frågat	-9251
▁not	-9252
-6	-9253
▁fastnade	-9254
▁idol	-9255
brans	-9256
▁Reb	-9257
▁oroa	-9258
givare	-9259
▁kontoret	-9260
▁ös	-9261
▁påse	-9262
▁slåss	-9263
▁inträffade	-9264
▁blåste	-9265
▁orsaken	-9266
▁Tob	-9267
▁Synd	-9268
▁frysa	-9269
▁jämna	-9270
vall	-9271
▁Östers	-9272
▁Hugo	-9273
temat	-9274
skomm	-9275
▁kommunala	-9276
▁Ytter	-9277
tell	-9278
▁försvunnit	-9279
onde	-9280
▁vuxit	-9281
▁Verkligen	-9282
▁mik	-9283
▁:(	-9284
▁Bul	-9285
▁arkitekt	-9286
▁Såhär	-9287
▁fotade	-9288
▁knät	-9289
kost	-9290
indlar	-9291
▁lak	-9292
▁byggnad	-9293
▁styrelsen	-9294
▁målat	-9295
eph	-9296
▁hett	-9297
▁Cheshmeh	-9298
▁Människor	-9299
▁lapp	-9300
▁rörde	-9301
idrott	-9302
värm	-9303
▁stiga	-9304
▁skör	-9305
▁ungar	-9306
▁JO	-9307
▁bekanta	-9308
▁bakat	-9309
▁rytt	-9310
▁Loma	-9311
▁nådde	-9312
▁förstas	-9313
▁stänger	-9314
▁Maj	-9315
▁lyckliga	-9316
▁stärka	-9317
▁Akt	-9318
ERNA	-9319
YCKET	-9320
▁försäm	-9321
▁skönhet	-9322
▁europe	-9323
▁Skr	-9324
▁förväg	-9325
bby	-9326
ångt	-9327
▁Tomm	-9328
▁egenskaper	-9329
▁bröstet	-9330
▁ambass	-9331
▁enstaka	-9332
rädd	-9333
▁påverkas	-9334
ÄNG	-9335
▁landslag	-9336
▁ked	-9337
▁obek	-9338
▁fordon	-9339
▁fryser	-9340
▁Svensk	-9341
▁ert	-9342
▁meddelade	-9343
▁sätts	-9344
▁hämtat	-9345
▁öde	-9346
▁rost	-9347
▁Värm	-9348
okt	-9349
▁klänningar	-9350
▁teori	-9351
▁helas	-9352
no	-9353
▁förändrats	-9354
stam	-9355
▁slappa	-9356
▁beseg	-9357
▁häftigt	-9358
sle	-9359
mad	-9360
▁vårdcentral	-9361
▁bråttom	-9362
papper	-9363
▁kastar	-9364
▁ök	-9365
känner	-9366
förslag	-9367
▁ego	-9368
▁Ör	-9369
▁succ	-9370
oppet	-9371
▁sånger	-9372
.3	-9373
▁bakt	-9374
isch	-9375
▁önskan	-9376
▁ingång	-9377
ATT	-9378
▁1-0	-9379
▁döma	-9380
dam	-9381
▁Axel	-9382
▁1800-	-9383
▁team	-9384
▁Polen	-9385
▁Hu	-9386
unga	-9387
10	-9388
▁pasta	-9389
▁Stud	-9390
▁utföra	-9391
förmed	-9392
▁historiska	-9393
▁Kvinn	-9394
mun	-9395
ägge	-9396
▁flygplan	-9397
▁föreslår	-9398
▁Kort	-9399
▁gänget	-9400
▁Georg	-9401
▁datorer	-9402
▁Sar	-9403
väder	-9404
▁startat	-9405
▁längesen	-9406
▁bedr	-9407
▁Klicka	-9408
▁volym	-9409
▁inblandade	-9410
ski	-9411
▁1,2	-9412
dör	-9413
▁försvara	-9414
vatten	-9415
vert	-9416
▁väger	-9417
inger	-9418
▁slutän	-9419
▁tiot	-9420
cho	-9421
▁Jord	-9422
▁betyda	-9423
▁mobiltelef	-9424
▁komna	-9425
▁cyklar	-9426
katt	-9427
tern	-9428
▁gentemot	-9429
▁advokat	-9430
▁kalen	-9431
▁veckors	-9432
▁lys	-9433
▁Tyd	-9434
▁klänningen	-9435
▁försvars	-9436
▁presentera	-9437
▁Österrike	-9438
▁smakade	-9439
▁omgivningen	-9440
▁byx	-9441
▁minuten	-9442
urg	-9443
ivna	-9444
▁klump	-9445
▁52	-9446
▁temat	-9447
andets	-9448
▁VILL	-9449
mod	-9450
vetenskap	-9451
▁bita	-9452
▁sämst	-9453
▁särskilda	-9454
▁människans	-9455
▁demokratiska	-9456
▁Säger	-9457
▁saft	-9458
▁tja	-9459
▁äng	-9460
▁händelsen	-9461
▁Matilda	-9462
▁1992	-9463
▁kanel	-9464
▁landskap	-9465
olja	-9466
▁införa	-9467
ebra	-9468
▁reaktion	-9469
▁städade	-9470
▁minnet	-9471
▁TA	-9472
▁Syrien	-9473
▁spö	-9474
▁Sex	-9475
▁fantasi	-9476
bot	-9477
▁provade	-9478
ovic	-9479
▁fördelar	-9480
försälj	-9481
▁finska	-9482
▁Gott	-9483
▁leksaker	-9484
▁Wh	-9485
▁personligt	-9486
▁nederbörd	-9487
▁upphov	-9488
▁miljöp	-9489
▁jetg	-9490
▁dyrare	-9491
▁stängde	-9492
▁pizz	-9493
▁plockat	-9494
▁skogs	-9495
▁sjukskriv	-9496
▁galna	-9497
▁provinsen	-9498
▁Fler	-9499
▁traditionella	-9500
▁FRÅN	-9501
▁hållbar	-9502
▁minor	-9503
▁doktor	-9504
▁utbildningen	-9505
ården	-9506
ologiskt	-9507
▁desper	-9508
ild	-9509
middagen	-9510
▁Godmorgon	-9511
imen	-9512
▁Sundsvall	-9513
▁närmsta	-9514
▁morg	-9515
▁ledighet	-9516
▁italienska	-9517
▁tyder	-9518
▁Mys	-9519
▁regna	-9520
▁synas	-9521
▁semif	-9522
▁handboll	-9523
▁Ellen	-9524
▁kroppar	-9525
▁itu	-9526
ländsk	-9527
raff	-9528
▁MYCKET	-9529
▁samhälls	-9530
▁nyfik	-9531
▁human	-9532
▁välbeh	-9533
▁byggdes	-9534
ällor	-9535
UM	-9536
▁67	-9537
▁sjönk	-9538
▁Årets	-9539
▁väcker	-9540
må	-9541
iona	-9542
▁Tyckte	-9543
▁samtalet	-9544
▁variant	-9545
▁annon	-9546
▁fallit	-9547
▁drabbats	-9548
▁kommunikation	-9549
tagna	-9550
▁Visserligen	-9551
▁prick	-9552
▁gångna	-9553
▁Polit	-9554
▁plockar	-9555
▁sväl	-9556
▁axel	-9557
▁klocka	-9558
▁planering	-9559
▁akadem	-9560
▁bron	-9561
▁liknar	-9562
▁fån	-9563
kass	-9564
▁misstänk	-9565
▁förste	-9566
▁fingrar	-9567
▁blek	-9568
▁homosex	-9569
45	-9570
▁hälsar	-9571
▁Hör	-9572
▁värderingar	-9573
▁brinner	-9574
▁Förstår	-9575
▁koncept	-9576
▁religiösa	-9577
▁rader	-9578
TS	-9579
punkten	-9580
▁make	-9581
lagen	-9582
aris	-9583
priset	-9584
▁omröst	-9585
▁inklu	-9586
▁hagen	-9587
▁lök	-9588
▁fattat	-9589
▁journalist	-9590
▁com	-9591
▁snus	-9592
▁dansade	-9593
une	-9594
▁Hann	-9595
▁Jak	-9596
▁ofruktbar	-9597
▁tekniken	-9598
iseberg	-9599
▁Skär	-9600
▁Kalle	-9601
▁gladare	-9602
▁James	-9603
ivitet	-9604
▁analyser	-9605
▁ändrade	-9606
▁potat	-9607
ale	-9608
hi	-9609
sprogram	-9610
uens	-9611
beth	-9612
▁Ljung	-9613
▁någorlunda	-9614
.2	-9615
▁vännerna	-9616
hop	-9617
way	-9618
▁KV	-9619
pressen	-9620
▁hekt	-9621
▁avunds	-9622
▁Resultatet	-9623
▁läppar	-9624
▁fattas	-9625
osnien	-9626
▁Gävle	-9627
▁1993	-9628
▁Hy	-9629
▁Bel	-9630
rafik	-9631
iox	-9632
hall	-9633
▁kommes	-9634
sbyg	-9635
▁ball	-9636
▁rörelser	-9637
▁häkt	-9638
▁läggas	-9639
▁brom	-9640
▁matcherna	-9641
▁letat	-9642
▁nedanför	-9643
▁frisyr	-9644
▁befann	-9645
▁hallon	-9646
▁Ström	-9647
▁gälla	-9648
industrin	-9649
▁uppskatta	-9650
▁Jean	-9651
▁vist	-9652
▁ointress	-9653
▁ärt	-9654
▁Särskilt	-9655
▁rösten	-9656
▁rapporterar	-9657
▁kommunerna	-9658
▁lant	-9659
▁djupare	-9660
▁kontakter	-9661
▁biblioteket	-9662
▁syftar	-9663
▁ELLER	-9664
▁fåglar	-9665
▁jud	-9666
▁Nils	-9667
▁klippte	-9668
▁tjuv	-9669
▁finnes	-9670
▁blin	-9671
▁aggress	-9672
uggar	-9673
edom	-9674
▁ante	-9675
iket	-9676
▁klin	-9677
▁fiska	-9678
▁byggde	-9679
▁medvetet	-9680
umär	-9681
▁spegeln	-9682
nel	-9683
formationer	-9684
▁själen	-9685
▁recens	-9686
kö	-9687
▁order	-9688
cit	-9689
▁fotografera	-9690
▁spontan	-9691
▁komnas	-9692
▁skåp	-9693
▁spåret	-9694
▁medvetna	-9695
▁distans	-9696
skom	-9697
ummet	-9698
valt	-9699
LLA	-9700
▁Des	-9701
▁svårigheter	-9702
▁tillför	-9703
▁oblig	-9704
▁förvisso	-9705
▁bensin	-9706
eger	-9707
▁äga	-9708
▁ändrat	-9709
problem	-9710
▁trappan	-9711
belt	-9712
▁sprider	-9713
höj	-9714
▁Karlstad	-9715
▁känslig	-9716
▁journalister	-9717
▁glasögon	-9718
▁medarbetare	-9719
▁Justin	-9720
▁Gamla	-9721
▁deprimer	-9722
oper	-9723
▁Linus	-9724
▁hållas	-9725
▁pressmeddel	-9726
▁timmarna	-9727
▁station	-9728
slöst	-9729
▁riva	-9730
lapp	-9731
▁blåbär	-9732
▁BR	-9733
vand	-9734
▁sympat	-9735
▁invig	-9736
skyd	-9737
▁Norrköping	-9738
▁Son	-9739
▁lärarna	-9740
▁samm	-9741
▁VÄL	-9742
▁Fina	-9743
kanten	-9744
jell	-9745
▁degen	-9746
▁pum	-9747
▁farten	-9748
▁Ericsson	-9749
▁exemplar	-9750
▁OCK	-9751
▁kurser	-9752
▁priserna	-9753
▁simma	-9754
▁förnu	-9755
isser	-9756
▁ph	-9757
▁Sån	-9758
▁halt	-9759
▁energin	-9760
▁Richard	-9761
▁platta	-9762
▁dagsl	-9763
fund	-9764
▁framgångsr	-9765
▁funnit	-9766
valler	-9767
▁72	-9768
yns	-9769
▁fungerande	-9770
▁kylen	-9771
▁identitet	-9772
▁famn	-9773
utr	-9774
▁kolhydrater	-9775
▁berättelsen	-9776
eriet	-9777
gräs	-9778
▁*	-9779
▁förberedel	-9780
▁Kir	-9781
▁Ons	-9782
▁PL	-9783
änga	-9784
resan	-9785
▁Hit	-9786
tav	-9787
▁pyssla	-9788
▁Frank	-9789
oci	-9790
▁cas	-9791
▁sling	-9792
spar	-9793
▁damer	-9794
▁nöja	-9795
duk	-9796
▁hosta	-9797
▁sliten	-9798
ifestivalen	-9799
sättningar	-9800
▁kämpat	-9801
▁närvaro	-9802
▁Kongo	-9803
▁Holl	-9804
▁narkot	-9805
UL	-9806
▁vansinn	-9807
▁mestadels	-9808
▁183	-9809
▁Pan	-9810
▁inspirerande	-9811
kats	-9812
▁spy	-9813
skorna	-9814
▁skaffat	-9815
sked	-9816
▁brö	-9817
▁beslutade	-9818
▁diplom	-9819
HL	-9820
▁Barcelona	-9821
▁livsmedel	-9822
▁kg	-9823
rä	-9824
▁särskild	-9825
▁förkn	-9826
▁bla	-9827
▁berättelser	-9828
ibb	-9829
▁fasc	-9830
▁skadad	-9831
ringen	-9832
▁stam	-9833
▁Star	-9834
▁hemlighet	-9835
▁51	-9836
▁bull	-9837
▁anonym	-9838
▁ringt	-9839
bank	-9840
sbol	-9841
▁vetat	-9842
bla	-9843
▁längta	-9844
my	-9845
▁havs	-9846
▁snett	-9847
▁Amer	-9848
mäktige	-9849
itor	-9850
slor	-9851
▁behövas	-9852
▁180	-9853
▁delas	-9854
▁entr	-9855
▁Tal	-9856
▁kyla	-9857
▁fult	-9858
▁linne	-9859
▁jättel	-9860
▁omvärlden	-9861
▁skivor	-9862
▁skillnader	-9863
iserar	-9864
▁pir	-9865
näs	-9866
▁grymma	-9867
▁Sma	-9868
▁rapporten	-9869
▁pel	-9870
▁omgång	-9871
▁80-	-9872
▁utö	-9873
▁tonår	-9874
▁Cor	-9875
▁avslöja	-9876
▁pus	-9877
▁56	-9878
lings	-9879
▁drömmen	-9880
▁turist	-9881
▁Tommy	-9882
▁starten	-9883
▁yogh	-9884
▁planerna	-9885
▁Annika	-9886
▁kompens	-9887
ual	-9888
▁samlas	-9889
iw	-9890
▁effekter	-9891
▁stängt	-9892
▁Lad	-9893
▁sket	-9894
▁konsumenter	-9895
▁ått	-9896
▁sjutton	-9897
HI	-9898
▁klippt	-9899
▁exempl	-9900
▁mörd	-9901
▁Helena	-9902
flöd	-9903
▁blandat	-9904
▁OCKSÅ	-9905
▁uteslut	-9906
▁slump	-9907
▁förväntar	-9908
▁Oslo	-9909
ofs	-9910
▁Ont	-9911
upt	-9912
▁hemmaplan	-9913
▁HEM	-9914
▁sannolik	-9915
▁departementet	-9916
▁uppväxt	-9917
▁ignor	-9918
▁Rog	-9919
▁betydande	-9920
▁pröva	-9921
▁motståndare	-9922
▁spons	-9923
▁Him	-9924
▁alltmer	-9925
▁datan	-9926
▁tuffa	-9927
▁Full	-9928
▁meddela	-9929
nämnda	-9930
tala	-9931
RAM	-9932
▁mellanrum	-9933
▁hoppet	-9934
nde	-9935
▁70-	-9936
▁expert	-9937
hy	-9938
▁kräm	-9939
▁tiderna	-9940
▁1991	-9941
▁därpå	-9942
▁utställning	-9943
▁info	-9944
▁folks	-9945
▁Prat	-9946
▁komprom	-9947
▁utgår	-9948
▁regiss	-9949
öje	-9950
holt	-9951
▁ansvarig	-9952
revlig	-9953
ario	-9954
stadiet	-9955
▁artister	-9956
▁andet	-9957
▁komme	-9958
▁befri	-9959
▁framh	-9960
▁tev	-9961
▁ökning	-9962
▁protein	-9963
▁sorgligt	-9964
▁lidande	-9965
▁likaså	-9966
▁fullkomligt	-9967
▁Låter	-9968
-5	-9969
▁modellen	-9970
▁räddning	-9971
ee	-9972
▁tros	-9973
▁matlag	-9974
inav	-9975
▁sägas	-9976
▁övergrepp	-9977
▁finn	-9978
▁trod	-9979
▁tig	-9980
▁Jessica	-9981
▁garanterat	-9982
▁Måndag	-9983
▁depress	-9984
▁sjukvård	-9985
▁amma	-9986
▁konkret	-9987
rah	-9988
▁report	-9989
▁kongress	-9990
▁skept	-9991
▁företrädare	-9992
▁delstaten	-9993
▁bos	-9994
ljud	-9995
täv	-9996
▁1990	-9997
▁rumpan	-9998
▁kastr	-9999
▁upptäcker	-10000
▁bransch	-10001
▁deg	-10002
mens	-10003
ordningen	-10004
war	-10005
▁skoldag	-10006
▁tallrik	-10007
▁parf	-10008
▁låda	-10009
▁tidens	-10010
skläder	-10011
änderna	-10012
▁påst	-10013
▁KOMMER	-10014
▁pinsamt	-10015
▁fortfar	-10016
▁förlå	-10017
▁Ukra	-10018
▁Lennart	-10019
▁splitt	-10020
▁kjol	-10021
▁arbetsmarknaden	-10022
▁FL	-10023
bien	-10024
▁Titt	-10025
jort	-10026
attar	-10027
▁resultaten	-10028
▁uppdaterar	-10029
▁majoriteten	-10030
kus	-10031
▁Bella	-10032
▁pannan	-10033
▁miner	-10034
▁hjul	-10035
▁sålt	-10036
▁stående	-10037
▁Google	-10038
▁generellt	-10039
▁Math	-10040
▁Jätt	-10041
▁greps	-10042
häst	-10043
▁inredning	-10044
▁kortet	-10045
▁stenh	-10046
ado	-10047
▁utredningen	-10048
▁skolorna	-10049
erry	-10050
ymer	-10051
▁stämningen	-10052
dafrika	-10053
handeln	-10054
▁nivån	-10055
▁Bush	-10056
▁depp	-10057
äggen	-10058
idit	-10059
▁rann	-10060
fen	-10061
mattan	-10062
ose	-10063
▁Mass	-10064
▁humöret	-10065
dring	-10066
▁deltagare	-10067
▁stoppar	-10068
▁car	-10069
▁femton	-10070
▁trög	-10071
▁Sus	-10072
försvar	-10073
wn	-10074
▁anhöriga	-10075
▁ägde	-10076
▁SD	-10077
såldern	-10078
IST	-10079
vapen	-10080
▁hyster	-10081
▁läger	-10082
▁Ap	-10083
▁skallen	-10084
▁bildades	-10085
▁stål	-10086
liggande	-10087
▁Kra	-10088
▁heltid	-10089
▁rättare	-10090
▁sträcka	-10091
▁Möl	-10092
▁Mona	-10093
bilar	-10094
jat	-10095
▁Linné	-10096
▁Zlatan	-10097
▁lår	-10098
▁framträd	-10099
▁jämförelse	-10100
▁Antalet	-10101
▁AR	-10102
▁nomin	-10103
▁nödvändiga	-10104
▁unik	-10105
▁matemat	-10106
▁samlat	-10107
▁Hos	-10108
▁Lördag	-10109
▁prylar	-10110
banken	-10111
verksamhet	-10112
▁bränn	-10113
▁lim	-10114
▁Tis	-10115
parlamentet	-10116
▁20-	-10117
varor	-10118
▁kramar	-10119
▁föda	-10120
▁läns	-10121
▁sluttar	-10122
▁badrum	-10123
▁debut	-10124
▁Sanna	-10125
▁Rasmus	-10126
ocko	-10127
▁existerar	-10128
▁varumär	-10129
▁finger	-10130
▁bebisen	-10131
▁önskemål	-10132
▁kredit	-10133
▁Medel	-10134
▁befolkning	-10135
amerika	-10136
▁tänkta	-10137
tim	-10138
▁eft	-10139
▁hemsidan	-10140
▁Antar	-10141
▁tydligare	-10142
▁Pär	-10143
▁sexuella	-10144
▁tysta	-10145
▁VAD	-10146
▁förhindra	-10147
▁unders	-10148
▁ente	-10149
▁region	-10150
▁ilska	-10151
▁faktisk	-10152
▁automatiskt	-10153
▁kamer	-10154
▁annans	-10155
▁misshand	-10156
▁appar	-10157
▁farliga	-10158
juder	-10159
sall	-10160
▁hoppat	-10161
▁frysen	-10162
▁betänk	-10163
ärare	-10164
ättre	-10165
▁FÅ	-10166
iskop	-10167
▁lagat	-10168
▁tera	-10169
▁galler	-10170
stedt	-10171
▁regelbundet	-10172
▁växande	-10173
▁godkänt	-10174
▁riksdags	-10175
ovet	-10176
▁militära	-10177
▁elektron	-10178
▁Dahl	-10179
▁Åker	-10180
▁fransk	-10181
▁frust	-10182
ilar	-10183
▁upplag	-10184
▁ljudet	-10185
▁duger	-10186
▁unna	-10187
▁stjäl	-10188
▁unika	-10189
▁käkat	-10190
vikt	-10191
▁tröjan	-10192
▁köks	-10193
rätter	-10194
▁Liksom	-10195
▁infekt	-10196
▁vas	-10197
▁dryck	-10198
▁pojkv	-10199
geriet	-10200
▁onytt	-10201
▁svaga	-10202
▁mellanmål	-10203
obel	-10204
▁lösningen	-10205
▁demonst	-10206
hr	-10207
▁välbehöv	-10208
▁anteck	-10209
brist	-10210
▁qu	-10211
▁flygplatsen	-10212
▁asyl	-10213
▁halsb	-10214
ked	-10215
ISK	-10216
▁fiskar	-10217
▁förbud	-10218
▁träden	-10219
▁altanen	-10220
▁lac	-10221
▁skatter	-10222
uggan	-10223
▁trivas	-10224
▁förknipp	-10225
▁fastnar	-10226
▁flyter	-10227
▁kallat	-10228
▁släktingar	-10229
▁Gran	-10230
frikanska	-10231
ströms	-10232
▁stuga	-10233
rörelsen	-10234
▁tent	-10235
▁olag	-10236
▁chilla	-10237
▁förbannat	-10238
▁export	-10239
▁upprör	-10240
▁skivan	-10241
▁54	-10242
ombia	-10243
▁Plats	-10244
▁påminna	-10245
▁uppvärm	-10246
▁fördes	-10247
▁arbetsgivare	-10248
▁iPh	-10249
▁kungen	-10250
▁blott	-10251
▁para	-10252
▁gris	-10253
▁Cha	-10254
▁Com	-10255
▁kämpade	-10256
▁olymp	-10257
▁faktorer	-10258
▁efterfrågan	-10259
▁wh	-10260
utan	-10261
▁huruvida	-10262
▁lägenheter	-10263
ityd	-10264
▁skynda	-10265
▁GR	-10266
▁försäkring	-10267
▁rabatt	-10268
gjord	-10269
▁baksidan	-10270
▁köttet	-10271
▁långsam	-10272
sång	-10273
skäm	-10274
▁Glad	-10275
vårds	-10276
▁Cat	-10277
▁LÄ	-10278
▁varande	-10279
▁vaccin	-10280
▁Ter	-10281
eum	-10282
angel	-10283
▁snurrar	-10284
▁Leif	-10285
▁Hejsan	-10286
▁kommunens	-10287
▁liter	-10288
igast	-10289
orerna	-10290
▁Ord	-10291
lovet	-10292
▁avläg	-10293
batten	-10294
▁Kō	-10295
vägar	-10296
▁krön	-10297
▁kaffet	-10298
▁stört	-10299
▁arv	-10300
nets	-10301
▁utrustning	-10302
ysning	-10303
▁kas	-10304
▁intensivt	-10305
▁försiktig	-10306
▁absoluta	-10307
▁framgår	-10308
ämna	-10309
▁republiken	-10310
di	-10311
▁Lyss	-10312
▁August	-10313
▁överenskomm	-10314
▁stiger	-10315
▁Bygg	-10316
▁Åsa	-10317
▁mejl	-10318
dragen	-10319
▁diskussionen	-10320
ores	-10321
demokraternas	-10322
▁tillvaron	-10323
▁gator	-10324
▁internationellt	-10325
▁placer	-10326
ändska	-10327
▁Mic	-10328
jal	-10329
oren	-10330
▁Andr	-10331
▁besökt	-10332
läs	-10333
ikens	-10334
▁perman	-10335
▁Grön	-10336
▁hindra	-10337
▁återvända	-10338
▁58	-10339
▁samlar	-10340
▁Morgon	-10341
▁tve	-10342
▁fritids	-10343
▁vackraste	-10344
▁Regeringen	-10345
▁kommenterar	-10346
hjärt	-10347
▁utvecklats	-10348
▁Fortfarande	-10349
▁arbetsl	-10350
färd	-10351
▁praktiska	-10352
▁bedömning	-10353
▁utmatt	-10354
▁Direkt	-10355
▁Troll	-10356
rna	-10357
▁byt	-10358
▁uttalande	-10359
▁beslutat	-10360
▁oliv	-10361
▁stjärnor	-10362
▁Pont	-10363
▁väggar	-10364
▁strö	-10365
skans	-10366
▁källor	-10367
▁inneband	-10368
▁generation	-10369
▁hörnet	-10370
▁vitlök	-10371
▁Olivia	-10372
▁Tall	-10373
▁länkar	-10374
▁billig	-10375
15	-10376
lägget	-10377
▁länken	-10378
▁biljett	-10379
rt	-10380
▁kondition	-10381
▁Hatar	-10382
▁sus	-10383
▁forum	-10384
emanget	-10385
▁Europas	-10386
▁flex	-10387
▁Inför	-10388
▁avsnittet	-10389
▁känslorna	-10390
▁föreläsning	-10391
▁arbetsplats	-10392
▁mängden	-10393
NE	-10394
▁giss	-10395
▁Söndag	-10396
OPP	-10397
▁vov	-10398
▁förväntas	-10399
▁såå	-10400
▁krävde	-10401
▁tryckte	-10402
▁kommers	-10403
ässa	-10404
▁passerat	-10405
▁varann	-10406
.5	-10407
▁koncentrera	-10408
▁offens	-10409
▁förpack	-10410
▁påpekar	-10411
▁lokaler	-10412
usse	-10413
▁Jönköping	-10414
▁föreningen	-10415
▁upptr	-10416
▁åldern	-10417
▁hjärtans	-10418
▁trygga	-10419
▁inuti	-10420
▁Olle	-10421
▁Eu	-10422
rock	-10423
flyg	-10424
▁tunna	-10425
▁kraftig	-10426
▁vanligaste	-10427
▁Vara	-10428
▁Gotland	-10429
amat	-10430
▁kryper	-10431
▁mörkare	-10432
▁90-	-10433
▁ungdoms	-10434
▁mans	-10435
▁skylt	-10436
rottning	-10437
odes	-10438
▁Öst	-10439
yst	-10440
▁tripp	-10441
▁malm	-10442
▁mur	-10443
▁myste	-10444
▁menings	-10445
▁burk	-10446
ierade	-10447
▁Oftast	-10448
▁bänk	-10449
▁Bosnien	-10450
skole	-10451
hu	-10452
▁neut	-10453
aggar	-10454
▁Johannes	-10455
▁bägge	-10456
▁ingredienser	-10457
▁teor	-10458
▁påtag	-10459
▁rått	-10460
▁dörrar	-10461
▁blickar	-10462
ivit	-10463
▁skapas	-10464
▁Bea	-10465
efte	-10466
▁PR	-10467
fråga	-10468
19	-10469
▁balkong	-10470
▁behandlas	-10471
▁Pres	-10472
▁räck	-10473
lådan	-10474
▁väskor	-10475
▁hehe	-10476
▁HUR	-10477
▁Sådan	-10478
▁ödm	-10479
▁kostnad	-10480
▁frågest	-10481
▁insidan	-10482
▁vilj	-10483
▁dä	-10484
▁bre	-10485
▁bearbet	-10486
▁rita	-10487
▁svenskarna	-10488
ENT	-10489
▁brygg	-10490
▁Säg	-10491
▁kvarter	-10492
▁tvivel	-10493
▁kust	-10494
▁beter	-10495
länder	-10496
ïn	-10497
ända	-10498
▁entrepren	-10499
▁30-	-10500
▁grin	-10501
UD	-10502
▁herrar	-10503
▁vännen	-10504
▁löpning	-10505
▁apote	-10506
stig	-10507
▁garant	-10508
▁familjens	-10509
▁munt	-10510
▁förtviv	-10511
▁nämnde	-10512
▁byggnader	-10513
▁sommarlovet	-10514
▁annanstans	-10515
▁fastän	-10516
▁vanilj	-10517
▁rimligt	-10518
▁pannkakor	-10519
tto	-10520
▁fans	-10521
▁tant	-10522
▁Minns	-10523
▁skäms	-10524
▁HADE	-10525
▁upptagen	-10526
troendet	-10527
▁ridit	-10528
▁storst	-10529
▁irriterande	-10530
ford	-10531
▁stök	-10532
▁Vit	-10533
dena	-10534
▁rastlös	-10535
loss	-10536
▁Fors	-10537
etterna	-10538
▁valp	-10539
▁Antingen	-10540
OCK	-10541
▁mediciner	-10542
▁riket	-10543
skrona	-10544
sprocess	-10545
IF	-10546
▁tendens	-10547
▁jogg	-10548
umer	-10549
issen	-10550
bia	-10551
▁paketet	-10552
▁populära	-10553
▁forsknings	-10554
pelsin	-10555
samling	-10556
▁Don	-10557
▁Felicia	-10558
▁innehöll	-10559
▁udda	-10560
▁runtom	-10561
▁konsument	-10562
▁hjärn	-10563
värken	-10564
ubben	-10565
▁Lotta	-10566
▁ögonbr	-10567
gentina	-10568
▁bestående	-10569
▁loppis	-10570
atte	-10571
▁Tj	-10572
skal	-10573
institut	-10574
oda	-10575
▁53	-10576
▁kiss	-10577
▁arabiska	-10578
▁allsvens	-10579
▁Vårt	-10580
▁mors	-10581
▁resulterade	-10582
trakt	-10583
▁Camp	-10584
▁tap	-10585
▁spär	-10586
▁ving	-10587
▁gräva	-10588
▁Molly	-10589
▁svull	-10590
▁investeringar	-10591
publ	-10592
▁sammanlagt	-10593
▁°	-10594
▁timmes	-10595
▁Cas	-10596
▁illamående	-10597
▁appl	-10598
▁Micke	-10599
ode	-10600
agare	-10601
▁Puss	-10602
▁gästerna	-10603
▁Mak	-10604
▁däck	-10605
▁slaget	-10606
▁slutändan	-10607
▁samhällets	-10608
▁säkerligen	-10609
anne	-10610
▁ingå	-10611
▁ken	-10612
ugh	-10613
▁Strax	-10614
▁grilla	-10615
▁succé	-10616
▁Kristian	-10617
SL	-10618
▁tänkas	-10619
takt	-10620
▁rullade	-10621
asit	-10622
iks	-10623
▁new	-10624
▁gur	-10625
▁betänkande	-10626
▁hölls	-10627
parken	-10628
▁åk	-10629
▁borsta	-10630
▁kärnkraft	-10631
VA	-10632
▁Rh	-10633
▁informationen	-10634
▁allvarlig	-10635
▁olycka	-10636
▁flyt	-10637
revligt	-10638
▁sistone	-10639
▁bibliotek	-10640
byg	-10641
▁rosor	-10642
▁tennis	-10643
läget	-10644
▁talang	-10645
▁föreställa	-10646
▁landsbyg	-10647
▁allians	-10648
▁pågående	-10649
▁reformer	-10650
borgs	-10651
isken	-10652
lighetens	-10653
▁skickas	-10654
▁skrivna	-10655
▁mäd	-10656
eskriv	-10657
▁skadades	-10658
▁artist	-10659
▁Bre	-10660
inarie	-10661
▁förväntat	-10662
▁sömnen	-10663
akning	-10664
▁kunderna	-10665
▁jaga	-10666
▁tröjor	-10667
▁risker	-10668
▁upply	-10669
▁laddar	-10670
▁utse	-10671
▁kallades	-10672
▁Twitter	-10673
jörn	-10674
fi	-10675
▁heder	-10676
▁dopp	-10677
▁tvättat	-10678
▁Växjö	-10679
▁62	-10680
▁globala	-10681
▁blått	-10682
▁Bättre	-10683
erierna	-10684
▁fascin	-10685
▁färgerna	-10686
▁tvingade	-10687
given	-10688
▁gångerna	-10689
▁sadel	-10690
▁Publ	-10691
▁gömma	-10692
zon	-10693
▁cl	-10694
▁Handel	-10695
▁rättvis	-10696
▁Vänster	-10697
läge	-10698
▁ambulans	-10699
▁flykting	-10700
▁Samuel	-10701
äkter	-10702
▁bac	-10703
▁Hund	-10704
▁maskiner	-10705
▁tillägg	-10706
▁dubbla	-10707
▁sjung	-10708
anth	-10709
övrigt	-10710
vakten	-10711
▁föräldr	-10712
▁älv	-10713
▁reagera	-10714
branschen	-10715
▁imponerad	-10716
▁smula	-10717
▁segern	-10718
▁konflikter	-10719
▁fält	-10720
▁vänja	-10721
▁värmer	-10722
▁tackade	-10723
▁flest	-10724
▁låtarna	-10725
▁halvlek	-10726
enny	-10727
▁barnets	-10728
▁tank	-10729
▁Vatten	-10730
▁smälta	-10731
▁narkotika	-10732
männen	-10733
▁ängel	-10734
▁Christer	-10735
fön	-10736
ERS	-10737
▁solidar	-10738
▁högtid	-10739
▁Rosen	-10740
▁Bert	-10741
DRA	-10742
▁historier	-10743
▁Chile	-10744
seri	-10745
▁lyckat	-10746
▁kyss	-10747
visningen	-10748
▁alt	-10749
▁förmågan	-10750
▁lagstiftning	-10751
citet	-10752
estad	-10753
▁Va	-10754
▁spegel	-10755
anskt	-10756
him	-10757
▁spänning	-10758
▁ideal	-10759
▁rekr	-10760
▁IDAG	-10761
▁ändrar	-10762
▁pluggade	-10763
▁öppnat	-10764
▁tävlar	-10765
▁sven	-10766
ki	-10767
▁manliga	-10768
▁krogen	-10769
▁städning	-10770
▁avslutar	-10771
▁begreppet	-10772
projekt	-10773
▁KUN	-10774
▁tagna	-10775
▁Lätt	-10776
▁framgångs	-10777
zy	-10778
▁missför	-10779
område	-10780
▁bilda	-10781
wer	-10782
▁Ola	-10783
▁stenar	-10784
▁BÖR	-10785
▁padd	-10786
▁kassan	-10787
▁avslutades	-10788
▁meddelande	-10789
▁nivåer	-10790
ötal	-10791
onerande	-10792
▁Väg	-10793
▁frig	-10794
▁evigt	-10795
▁uppgifterna	-10796
▁Utöver	-10797
▁skrivet	-10798
ashington	-10799
▁SKULL	-10800
▁War	-10801
▁ansl	-10802
▁cigar	-10803
▁diagnos	-10804
▁röstade	-10805
▁Häst	-10806
▁minskade	-10807
75	-10808
▁coolt	-10809
▁cell	-10810
▁sorters	-10811
▁tillfälligt	-10812
▁skrid	-10813
▁regnade	-10814
▁jaja	-10815
▁kunnande	-10816
▁Möj	-10817
▁PRO	-10818
▁feta	-10819
▁flask	-10820
▁hatt	-10821
ättning	-10822
▁mira	-10823
▁Kultur	-10824
▁grannen	-10825
▁sås	-10826
▁Hum	-10827
▁sanna	-10828
▁mult	-10829
köpings	-10830
▁tilltal	-10831
▁Ther	-10832
sstil	-10833
▁drin	-10834
▁utvid	-10835
▁paret	-10836
▁Im	-10837
▁lämnas	-10838
▁glädjen	-10839
▁helgens	-10840
förtiden	-10841
▁50-	-10842
▁stans	-10843
▁sar	-10844
övlar	-10845
▁vinster	-10846
▁upprörd	-10847
▁Mår	-10848
filmer	-10849
▁förlossningen	-10850
▁1,3	-10851
▁Carlsson	-10852
▁Gal	-10853
▁gall	-10854
▁UNDER	-10855
▁löner	-10856
▁tras	-10857
olt	-10858
cet	-10859
läggningen	-10860
▁okända	-10861
▁andetag	-10862
▁attityd	-10863
▁uppfyll	-10864
▁mäta	-10865
▁passager	-10866
▁pappers	-10867
▁förtr	-10868
▁flöd	-10869
▁branschen	-10870
▁Kör	-10871
egel	-10872
▁utgå	-10873
vern	-10874
▁IFK	-10875
▁Et	-10876
▁anna	-10877
▁värma	-10878
▁macka	-10879
▁studi	-10880
▁trum	-10881
▁fotbollen	-10882
▁entus	-10883
fältet	-10884
▁litar	-10885
▁skift	-10886
▁kvarts	-10887
▁drömde	-10888
▁Ker	-10889
▁avslutning	-10890
▁kvinnors	-10891
▁beteck	-10892
▁olyckan	-10893
12	-10894
när	-10895
eman	-10896
▁magn	-10897
underna	-10898
▁domen	-10899
▁kraven	-10900
IKT	-10901
▁Skriver	-10902
▁muskel	-10903
win	-10904
▁Intress	-10905
bus	-10906
▁mens	-10907
▁ungarna	-10908
▁fran	-10909
▁smarta	-10910
▁stolen	-10911
▁utsätt	-10912
eväx	-10913
▁besöker	-10914
▁utvil	-10915
▁Tydligen	-10916
▁Grattis	-10917
▁röka	-10918
▁händels	-10919
▁Ungefär	-10920
▁600	-10921
▁Est	-10922
▁elak	-10923
▁slita	-10924
▁införskaff	-10925
trar	-10926
GER	-10927
▁torrt	-10928
sbanken	-10929
▁inledde	-10930
▁informer	-10931
▁skrivande	-10932
▁polisens	-10933
▁tänkande	-10934
▁Jens	-10935
▁förde	-10936
▁prognos	-10937
andens	-10938
stjänst	-10939
▁färska	-10940
▁pressa	-10941
▁Ren	-10942
▁mill	-10943
ledning	-10944
adi	-10945
▁köpet	-10946
yckt	-10947
▁vilda	-10948
▁högra	-10949
▁förvirrad	-10950
▁försäljningen	-10951
▁Följ	-10952
edi	-10953
ze	-10954
▁skjuter	-10955
▁Tillsätt	-10956
▁betraktas	-10957
▁utgångsp	-10958
▁Bli	-10959
▁hag	-10960
kol	-10961
▁buk	-10962
▁viset	-10963
▁längsta	-10964
ellack	-10965
āh	-10966
▁jäkligt	-10967
ehör	-10968
emat	-10969
▁buff	-10970
▁Tobias	-10971
▁Rid	-10972
stren	-10973
▁droger	-10974
ign	-10975
▁afton	-10976
▁restaurangen	-10977
▁exkl	-10978
▁allan	-10979
sex	-10980
▁Bang	-10981
▁omständigheter	-10982
göt	-10983
▁Mars	-10984
▁fastnat	-10985
▁Säker	-10986
nska	-10987
▁one	-10988
ble	-10989
illat	-10990
park	-10991
makt	-10992
▁Titta	-10993
▁surf	-10994
▁sköts	-10995
▁undersöka	-10996
▁konto	-10997
▁flag	-10998
▁aa	-10999
▁väljarna	-11000
▁tystnad	-11001
▁samarbeta	-11002
▁ÅR	-11003
ävar	-11004
arten	-11005
▁officiella	-11006
ativt	-11007
▁kontakten	-11008
▁vågat	-11009
▁stjärna	-11010
▁beklag	-11011
▁lyckan	-11012
lekar	-11013
▁oskyld	-11014
olutionen	-11015
▁uppdateringen	-11016
▁gubben	-11017
utet	-11018
▁frånvaro	-11019
▁trend	-11020
▁handika	-11021
jänst	-11022
▁utflykt	-11023
▁60-	-11024
inspekt	-11025
▁vågen	-11026
▁snyggare	-11027
▁ägnar	-11028
zo	-11029
▁utbildnings	-11030
▁behandla	-11031
opsis	-11032
▁utlov	-11033
▁onödiga	-11034
krets	-11035
▁lur	-11036
pisar	-11037
▁roller	-11038
ocket	-11039
▁Sjuk	-11040
▁dammsug	-11041
▁yoghurt	-11042
anmäl	-11043
▁promenera	-11044
▁allor	-11045
▁duschade	-11046
cipl	-11047
▁Pri	-11048
ansvärt	-11049
valda	-11050
neringen	-11051
▁sammanhanget	-11052
▁Seb	-11053
▁slarv	-11054
▁misstänkta	-11055
▁Förm	-11056
▁irak	-11057
▁kir	-11058
▁godare	-11059
▁albumet	-11060
spolitik	-11061
▁Jakob	-11062
▁120	-11063
gna	-11064
▁hamnen	-11065
▁katol	-11066
mält	-11067
skapten	-11068
oar	-11069
▁blåst	-11070
▁åskåd	-11071
▁meningar	-11072
▁baraste	-11073
▁skugg	-11074
▁IK	-11075
▁nyttig	-11076
▁smala	-11077
▁lyfte	-11078
bords	-11079
▁fångar	-11080
▁Jer	-11081
cu	-11082
▁MER	-11083
▁stämma	-11084
korna	-11085
▁Sah	-11086
▁trötthet	-11087
erings	-11088
försäkr	-11089
udi	-11090
▁inställd	-11091
▁fors	-11092
sledamot	-11093
▁uppl	-11094
▁väljare	-11095
▁intellekt	-11096
sons	-11097
departementet	-11098
hallen	-11099
atien	-11100
byxor	-11101
▁presenterade	-11102
▁irte	-11103
▁presidenten	-11104
▁gumm	-11105
▁kompletter	-11106
▁Tills	-11107
jäll	-11108
▁mjukt	-11109
insh	-11110
▁torget	-11111
untain	-11112
▁måsta	-11113
deras	-11114
oe	-11115
▁arbetslöshet	-11116
iri	-11117
▁Förre	-11118
▁klokt	-11119
illen	-11120
▁synpunkter	-11121
bladig	-11122
▁föregående	-11123
åld	-11124
ferensen	-11125
▁Bad	-11126
▁naken	-11127
▁FÅR	-11128
▁fysisk	-11129
ionde	-11130
▁Fanny	-11131
▁Ron	-11132
▁ordför	-11133
▁badat	-11134
kreta	-11135
ross	-11136
▁coll	-11137
▁kostnaderna	-11138
▁mum	-11139
▁byggas	-11140
▁Nov	-11141
▁smeten	-11142
▁centimeter	-11143
ågen	-11144
▁berget	-11145
rare	-11146
rus	-11147
▁Svårt	-11148
▁Jesper	-11149
▁stationen	-11150
▁city	-11151
▁rättvisa	-11152
▁delakt	-11153
▁National	-11154
▁mata	-11155
▁installer	-11156
▁Sant	-11157
▁målen	-11158
▁oroliga	-11159
▁Jas	-11160
▁pressmeddelande	-11161
▁transporter	-11162
slin	-11163
vagnen	-11164
▁dödades	-11165
▁reduc	-11166
bered	-11167
▁toa	-11168
▁Herregud	-11169
atern	-11170
hjälp	-11171
▁varierad	-11172
▁ån	-11173
▁klättra	-11174
▁Totalt	-11175
sjuka	-11176
▁mössa	-11177
▁lades	-11178
inder	-11179
▁VARA	-11180
ād	-11181
▁väckt	-11182
▁krama	-11183
ales	-11184
▁armband	-11185
▁Härligt	-11186
▁tandläkaren	-11187
▁fisken	-11188
edlem	-11189
ycklig	-11190
▁aktuellt	-11191
▁resp	-11192
▁sminka	-11193
▁patient	-11194
▁tvåa	-11195
final	-11196
▁allerg	-11197
roll	-11198
▁dryga	-11199
▁skur	-11200
ani	-11201
▁fixas	-11202
ylt	-11203
▁jobben	-11204
helst	-11205
▁Ställ	-11206
▁gram	-11207
▁förflytt	-11208
burgare	-11209
▁välfärd	-11210
▁mentalt	-11211
kläd	-11212
▁mitts	-11213
enterna	-11214
ío	-11215
barns	-11216
▁League	-11217
▁Colombia	-11218
▁beskedet	-11219
▁behandlar	-11220
icus	-11221
▁Liseberg	-11222
70	-11223
▁stränder	-11224
imma	-11225
utveckling	-11226
amål	-11227
▁hind	-11228
▁hämt	-11229
▁restauranger	-11230
▁Dis	-11231
dro	-11232
arium	-11233
maskin	-11234
undr	-11235
▁europa	-11236
▁trå	-11237
▁befin	-11238
▁66	-11239
▁satts	-11240
▁använts	-11241
kontor	-11242
▁diet	-11243
▁passande	-11244
▁målvakt	-11245
án	-11246
▁mattan	-11247
▁föds	-11248
▁jämställdhet	-11249
▁Art	-11250
▁omfattar	-11251
▁tämligen	-11252
▁begränsad	-11253
▁avtalet	-11254
▁shoppade	-11255
krit	-11256
▁pred	-11257
▁sågs	-11258
▁Gol	-11259
yggt	-11260
kännande	-11261
horningar	-11262
▁axeln	-11263
▁varat	-11264
▁allihop	-11265
▁68	-11266
▁samarbetet	-11267
▁repar	-11268
eringarna	-11269
▁Otro	-11270
▁skilja	-11271
trött	-11272
▁krasch	-11273
own	-11274
▁rec	-11275
värde	-11276
▁okänd	-11277
▁Hittills	-11278
▁lind	-11279
▁barnmor	-11280
▁ordinarie	-11281
▁sprit	-11282
▁vilo	-11283
pag	-11284
▁sparar	-11285
▁dressyr	-11286
spres	-11287
▁tillvaro	-11288
ämning	-11289
▁gruv	-11290
▁rumpa	-11291
▁civila	-11292
▁tyngre	-11293
▁kliver	-11294
▁bukter	-11295
ekr	-11296
▁arbetslösa	-11297
▁lyckligt	-11298
▁Kram	-11299
▁Blom	-11300
▁austral	-11301
▁Lev	-11302
▁underlag	-11303
efteå	-11304
▁Coll	-11305
▁kys	-11306
▁skepp	-11307
ssa	-11308
akim	-11309
▁misstänker	-11310
▁syftet	-11311
ollywood	-11312
▁diskrimin	-11313
▁tass	-11314
förbund	-11315
▁förnuft	-11316
▁moment	-11317
▁Bi	-11318
OK	-11319
▁Marocko	-11320
▁tvätten	-11321
▁Kent	-11322
OLL	-11323
▁beskrivs	-11324
ushi	-11325
▁administrativ	-11326
▁luck	-11327
▁inspirerad	-11328
▁missbruk	-11329
▁aktuell	-11330
▁bloggandet	-11331
glöm	-11332
iforn	-11333
▁fortsättningen	-11334
▁Massa	-11335
▁Mosk	-11336
▁förtryck	-11337
oten	-11338
▁fikat	-11339
▁givande	-11340
ässiga	-11341
▁vegetar	-11342
där	-11343
▁bollar	-11344
▁därav	-11345
āl	-11346
odd	-11347
▁Lasse	-11348
▁182	-11349
ms	-11350
▁läxa	-11351
▁tummen	-11352
▁möjligheterna	-11353
▁App	-11354
ladd	-11355
▁Ang	-11356
▁rat	-11357
▁ingenstans	-11358
▁ägaren	-11359
ÖN	-11360
arbets	-11361
▁tipp	-11362
atisk	-11363
▁uppfölj	-11364
▁citat	-11365
▁fyllda	-11366
▁ingick	-11367
ji	-11368
▁kikade	-11369
▁mätare	-11370
innen	-11371
▁trovär	-11372
▁tagits	-11373
▁koppar	-11374
▁hets	-11375
▁aningen	-11376
ärerna	-11377
▁konkreta	-11378
▁nav	-11379
▁publicera	-11380
▁ivr	-11381
▁mittens	-11382
ledaren	-11383
▁hustru	-11384
ioden	-11385
▁eleg	-11386
▁varian	-11387
▁gratul	-11388
skytt	-11389
▁aktörer	-11390
▁Black	-11391
▁lida	-11392
verkets	-11393
ér	-11394
▁konferens	-11395
▁dåvarande	-11396
▁Champ	-11397
▁Ven	-11398
▁skrivs	-11399
▁fördju	-11400
▁ersätta	-11401
▁Riks	-11402
astian	-11403
ansar	-11404
syk	-11405
▁Sjön	-11406
▁skadar	-11407
▁fräscht	-11408
▁förekomm	-11409
▁Dröm	-11410
ytan	-11411
▁landade	-11412
SE	-11413
bilen	-11414
▁63	-11415
▁drömt	-11416
▁lysande	-11417
▁Louise	-11418
▁Mod	-11419
▁iska	-11420
▁sura	-11421
▁ishockey	-11422
▁miljard	-11423
▁omdöm	-11424
▁pend	-11425
▁terminen	-11426
▁Sovjet	-11427
▁1989	-11428
▁Mia	-11429
▁värdet	-11430
ankar	-11431
▁livsstil	-11432
▁förutsättning	-11433
änning	-11434
▁eur	-11435
▁klad	-11436
▁fungerat	-11437
▁parall	-11438
▁59	-11439
▁diskuterar	-11440
sekonom	-11441
▁piss	-11442
▁fröken	-11443
boende	-11444
ugal	-11445
▁SN	-11446
▁stannat	-11447
▁skötte	-11448
▁get	-11449
▁Charles	-11450
▁glitt	-11451
▁yttrande	-11452
emin	-11453
ilomet	-11454
▁apelsin	-11455
▁avskaff	-11456
deln	-11457
cen	-11458
▁gatorna	-11459
▁ensamhet	-11460
onald	-11461
▁hop	-11462
▁dölja	-11463
▁harmon	-11464
▁deltar	-11465
utbildning	-11466
▁skala	-11467
▁smyg	-11468
▁skära	-11469
▁mart	-11470
▁Elsa	-11471
▁Histor	-11472
▁Helsingfors	-11473
riga	-11474
▁por	-11475
▁obegr	-11476
▁otill	-11477
▁jättefin	-11478
▁däri	-11479
acker	-11480
▁fasen	-11481
▁avled	-11482
▁dän	-11483
▁Victoria	-11484
▁hundratals	-11485
vind	-11486
▁Givet	-11487
▁Naturligtvis	-11488
ness	-11489
▁klick	-11490
▁partiets	-11491
tom	-11492
▁allors	-11493
▁1900-	-11494
▁nånstans	-11495
▁allorna	-11496
okal	-11497
▁blåsa	-11498
▁infra	-11499
▁blond	-11500
▁äktenskap	-11501
gräns	-11502
.0	-11503
trafik	-11504
▁dansar	-11505
▁Nam	-11506
▁produktionen	-11507
bbt	-11508
▁·	-11509
▁Pas	-11510
▁fars	-11511
▁bare	-11512
junktur	-11513
▁Brun	-11514
verka	-11515
▁metall	-11516
▁kommen	-11517
▁Cec	-11518
▁hn	-11519
ifiera	-11520
▁tapet	-11521
▁sattes	-11522
kh	-11523
▁talet	-11524
▁skilda	-11525
▁sopp	-11526
▁1-1	-11527
▁verkligt	-11528
▁gifte	-11529
irat	-11530
▁överdrivet	-11531
▁kikar	-11532
▁lådan	-11533
▁soligt	-11534
ict	-11535
▁viljan	-11536
▁fåt	-11537
▁allans	-11538
ses	-11539
politiken	-11540
ffa	-11541
skassan	-11542
▁överför	-11543
ologin	-11544
▁System	-11545
prå	-11546
▁ridning	-11547
▁Tjeck	-11548
▁backar	-11549
stre	-11550
▁obehagligt	-11551
▁havets	-11552
▁bered	-11553
tanke	-11554
ängt	-11555
ito	-11556
▁Nytt	-11557
▁kampanj	-11558
▁knar	-11559
▁diskuteras	-11560
▁Bost	-11561
▁synes	-11562
▁Jonat	-11563
▁Fix	-11564
▁bevar	-11565
▁179	-11566
▁pigga	-11567
▁livrädd	-11568
ove	-11569
▁1990-	-11570
▁handlingen	-11571
yder	-11572
åda	-11573
▁utslag	-11574
▁deklar	-11575
▁Hag	-11576
▁Jör	-11577
▁Sist	-11578
bilden	-11579
▁analyt	-11580
▁Vidare	-11581
körd	-11582
▁råg	-11583
▁beton	-11584
omröst	-11585
▁grabbarna	-11586
▁bloggande	-11587
▁herregud	-11588
▁Efteråt	-11589
▁passion	-11590
▁industr	-11591
▁nordiska	-11592
▁Jennifer	-11593
stjänsten	-11594
BL	-11595
▁säkr	-11596
▁virus	-11597
▁näsa	-11598
▁SKULLE	-11599
▁källaren	-11600
▁gärnings	-11601
▁kontrollen	-11602
▁täcke	-11603
▁bilarna	-11604
veckan	-11605
▁kraftiga	-11606
▁inläggen	-11607
▁universitetet	-11608
▁river	-11609
▁framgångar	-11610
▁erkänner	-11611
maskinen	-11612
▁anar	-11613
▁kej	-11614
▁pick	-11615
fterna	-11616
▁skärpa	-11617
▁2,5	-11618
▁yoga	-11619
▁linjen	-11620
▁allornas	-11621
▁sänk	-11622
▁dansen	-11623
▁Bok	-11624
▁Fer	-11625
ögen	-11626
▁rönt	-11627
alia	-11628
atör	-11629
stads	-11630
▁Fe	-11631
▁Ukraina	-11632
▁svarat	-11633
▁vild	-11634
måga	-11635
▁Argentina	-11636
▁Birg	-11637
▁kritisk	-11638
▁dömdes	-11639
▁nagellack	-11640
▁väga	-11641
▁Elias	-11642
▁vinsten	-11643
▁dagliga	-11644
▁Sommar	-11645
▁pressen	-11646
kyl	-11647
▁premiärminister	-11648
▁betra	-11649
▁öra	-11650
▁örat	-11651
con	-11652
▁berodde	-11653
▁beredda	-11654
▁tomat	-11655
▁even	-11656
▁sliter	-11657
skjut	-11658
öjt	-11659
▁hävda	-11660
▁proffs	-11661
▁skakade	-11662
▁spindelart	-11663
▁kloka	-11664
▁medi	-11665
▁arter	-11666
▁tillsätt	-11667
▁björn	-11668
▁Melod	-11669
▁officiellt	-11670
▁Lid	-11671
tida	-11672
▁barastes	-11673
▁utvärder	-11674
▁misshandel	-11675
råkigt	-11676
▁husen	-11677
▁Avslut	-11678
▁Snacka	-11679
itim	-11680
valla	-11681
▁Väntar	-11682
ikation	-11683
▁falska	-11684
▁Ella	-11685
▁SMHI	-11686
klädd	-11687
▁Leon	-11688
▁Inv	-11689
ontant	-11690
bbe	-11691
▁800	-11692
▁päls	-11693
▁offentligt	-11694
▁besvikelse	-11695
demokrater	-11696
▁sjuksköter	-11697
▁sjal	-11698
▁svampart	-11699
oler	-11700
slet	-11701
omyia	-11702
EV	-11703
▁pojkarna	-11704
▁massage	-11705
▁Mr	-11706
▁Liam	-11707
▁saj	-11708
▁uttrå	-11709
▁Mont	-11710
ammation	-11711
18	-11712
▁OR	-11713
▁checka	-11714
▁baby	-11715
▁ägnat	-11716
▁trakt	-11717
▁Matte	-11718
▁lådor	-11719
▁nyans	-11720
▁svenskan	-11721
▁förlag	-11722
▁Bilderna	-11723
stein	-11724
▁musklerna	-11725
▁bädd	-11726
▁Känslan	-11727
▁soppa	-11728
▁Miljöp	-11729
▁Södra	-11730
järnen	-11731
▁Ytterligare	-11732
▁lutar	-11733
▁återkomma	-11734
▁Mölnd	-11735
iler	-11736
▁64	-11737
▁annons	-11738
etisk	-11739
▁klär	-11740
▁gångens	-11741
▁tvill	-11742
▁vilt	-11743
▁Wik	-11744
▁bästis	-11745
uch	-11746
▁73	-11747
▁kritiken	-11748
▁festival	-11749
▁bevisa	-11750
▁Lägger	-11751
▁bajs	-11752
rans	-11753
▁agerar	-11754
asen	-11755
▁anställd	-11756
▁ficka	-11757
▁69	-11758
▁löjligt	-11759
▁sittande	-11760
stäver	-11761
▁toppar	-11762
▁sinne	-11763
▁rykten	-11764
▁Nova	-11765
▁myt	-11766
▁dokumenter	-11767
ickade	-11768
▁Musik	-11769
▁ana	-11770
▁troligt	-11771
▁prioritera	-11772
▁löften	-11773
▁jättero	-11774
▁Kall	-11775
▁Kjell	-11776
▁Washington	-11777
▁Filip	-11778
▁Norra	-11779
▁RUN	-11780
ces	-11781
sens	-11782
▁tillbringa	-11783
▁variera	-11784
▁misslyckas	-11785
sbacka	-11786
▁ansökan	-11787
ceg	-11788
▁återhäm	-11789
▁provoc	-11790
▁drama	-11791
▁Kevin	-11792
▁dia	-11793
▁nötter	-11794
▁Ten	-11795
▁ändrings	-11796
▁satta	-11797
▁intä	-11798
-7	-11799
▁nuet	-11800
▁tilldel	-11801
▁barnvakt	-11802
orget	-11803
inshasa	-11804
▁valuta	-11805
▁bäste	-11806
risk	-11807
▁agerande	-11808
▁inleddes	-11809
▁medborgarna	-11810
vux	-11811
▁äppel	-11812
▁Skar	-11813
OD	-11814
▁fås	-11815
▁gung	-11816
post	-11817
▁Belg	-11818
▁breda	-11819
▁iPhone	-11820
▁TID	-11821
▁överklag	-11822
KER	-11823
▁sysselsättning	-11824
▁Gabr	-11825
▁Pontus	-11826
▁Aïn	-11827
partiets	-11828
▁Skand	-11829
▁shit	-11830
▁stryk	-11831
▁synen	-11832
vinnan	-11833
▁satsning	-11834
ört	-11835
▁cup	-11836
▁Träffade	-11837
▁Häl	-11838
▁tidskri	-11839
▁midnatt	-11840
▁varar	-11841
▁egenskap	-11842
▁förening	-11843
onten	-11844
▁dej	-11845
ydlig	-11846
▁finansiella	-11847
▁familje	-11848
lutet	-11849
▁nuförtiden	-11850
▁skuggan	-11851
bjud	-11852
▁grekiska	-11853
▁Ke	-11854
▁turister	-11855
▁Öpp	-11856
ÄST	-11857
sur	-11858
▁kruk	-11859
āb	-11860
▁uppdraget	-11861
▁uppsats	-11862
▁förväntan	-11863
▁vikar	-11864
▁besöket	-11865
▁list	-11866
▁Götal	-11867
▁On	-11868
sport	-11869
fåg	-11870
▁fåtal	-11871
▁ångra	-11872
eth	-11873
▁SIN	-11874
▁brett	-11875
▁förebild	-11876
▁bekräf	-11877
▁smet	-11878
▁varierar	-11879
IA	-11880
▁1988	-11881
▁nödvändig	-11882
▁mästerska	-11883
▁ungdomarna	-11884
▁Elisa	-11885
ualitet	-11886
▁Hjär	-11887
▁Samt	-11888
▁porträtt	-11889
▁frist	-11890
▁Juholt	-11891
vända	-11892
▁gissar	-11893
▁fokuserar	-11894
askan	-11895
ligastes	-11896
▁Löf	-11897
▁flyktingar	-11898
▁hamburgare	-11899
hjärtbladig	-11900
▁dessvärre	-11901
▁doften	-11902
▁djäv	-11903
▁sjätte	-11904
▁Ox	-11905
▁utbil	-11906
ekom	-11907
▁skyldig	-11908
▁BÖRJ	-11909
▁drick	-11910
▁VET	-11911
malm	-11912
ovo	-11913
▁eras	-11914
▁Kärlek	-11915
▁Jäv	-11916
▁kore	-11917
EDAN	-11918
▁reserv	-11919
▁säljs	-11920
gol	-11921
▁Ull	-11922
avslut	-11923
▁vika	-11924
▁utesl	-11925
ellen	-11926
hätt	-11927
▁Sem	-11928
▁utk	-11929
▁ped	-11930
▁uppfost	-11931
▁Roger	-11932
▁uppfattas	-11933
▁saga	-11934
▁Emilia	-11935
▁Norm	-11936
▁handeln	-11937
▁stolta	-11938
ålen	-11939
▁Målet	-11940
▁explos	-11941
▁Agnes	-11942
amman	-11943
▁statsminister	-11944
ytning	-11945
▁deltagarna	-11946
▁Skövde	-11947
▁SJÄL	-11948
natur	-11949
sjö	-11950
▁placera	-11951
▁varandras	-11952
▁dyl	-11953
▁halvan	-11954
▁barrskog	-11955
▁accepterar	-11956
hai	-11957
äts	-11958
mosfär	-11959
▁gla	-11960
▁musiker	-11961
▁farlig	-11962
▁blind	-11963
▁filma	-11964
atik	-11965
iza	-11966
▁påh	-11967
▁grillade	-11968
▁orange	-11969
▁brevid	-11970
esi	-11971
▁toalett	-11972
▁doktorn	-11973
▁givit	-11974
▁axlarna	-11975
livet	-11976
▁Otroligt	-11977
▁fiske	-11978
▁Tja	-11979
▁Moderaterna	-11980
▁promenaden	-11981
▁skä	-11982
▁Asien	-11983
guld	-11984
▁bitti	-11985
▁bussar	-11986
▁överst	-11987
▁imponerande	-11988
▁Henry	-11989
▁kostade	-11990
▁•	-11991
▁ah	-11992
▁eran	-11993
▁museum	-11994
▁övergång	-11995
▁rasism	-11996
hället	-11997
uters	-11998
▁japanska	-11999
▁alltih	-12000
▁hindrar	-12001
vitt	-12002
▁ask	-12003
▁Algeriet	-12004
möte	-12005
ducent	-12006
änkta	-12007
▁innov	-12008
▁fortsatta	-12009
▁snör	-12010
▁öre	-12011
▁trycket	-12012
telsen	-12013
lorna	-12014
▁etik	-12015
▁plant	-12016
▁VER	-12017
▁River	-12018
▁svåraste	-12019
▁integ	-12020
▁Leo	-12021
SKA	-12022
▁hå	-12023
fjär	-12024
▁Givetvis	-12025
▁anord	-12026
▁nyfikna	-12027
▁spor	-12028
terad	-12029
yller	-12030
▁sjunker	-12031
▁Alfred	-12032
sal	-12033
▁koncer	-12034
▁lokalen	-12035
▁Kōh	-12036
▁produkten	-12037
▁suver	-12038
▁stock	-12039
alten	-12040
▁Nyheter	-12041
▁öppnas	-12042
ollen	-12043
éns	-12044
▁strider	-12045
▁Punta	-12046
▁Irland	-12047
▁emma	-12048
▁jävlar	-12049
▁bränna	-12050
ostal	-12051
▁funktioner	-12052
▁mekan	-12053
ELL	-12054
▁anmäla	-12055
▁inombords	-12056
▁fond	-12057
hen	-12058
xa	-12059
opol	-12060
▁nationell	-12061
▁leverant	-12062
▁Ljus	-12063
▁tjänsten	-12064
▁skel	-12065
▁gullig	-12066
ILL	-12067
▁stoppade	-12068
▁friidrott	-12069
personer	-12070
▁siffrorna	-12071
YG	-12072
▁årsskiftet	-12073
▁Kur	-12074
▁kunden	-12075
▁cola	-12076
▁tryggt	-12077
▁riskera	-12078
▁åg	-12079
▁säk	-12080
▁sveriges	-12081
▁hylla	-12082
▁förmedla	-12083
▁studerade	-12084
▁tolka	-12085
▁feg	-12086
▁Grand	-12087
▁Blå	-12088
ele	-12089
▁avslutas	-12090
▁svaren	-12091
▁bröder	-12092
▁tycktes	-12093
▁presskon	-12094
▁bestämm	-12095
ovina	-12096
▁af	-12097
▁Cup	-12098
morgonen	-12099
▁banker	-12100
▁Flor	-12101
▁garn	-12102
▁granen	-12103
▁dröjer	-12104
▁plöts	-12105
▁hacka	-12106
▁firas	-12107
▁kreativa	-12108
läggningar	-12109
▁förverk	-12110
▁kakan	-12111
▁Koud	-12112
▁plat	-12113
▁Fören	-12114
▁förhandlingar	-12115
▁klubbar	-12116
▁märken	-12117
▁Rum	-12118
▁graviditeten	-12119
▁smält	-12120
plå	-12121
▁Ok	-12122
▁underhållande	-12123
ännande	-12124
▁flygplats	-12125
▁Markus	-12126
emellan	-12127
▁fingret	-12128
▁Engel	-12129
▁eventuell	-12130
▁köksb	-12131
▁Eskil	-12132
▁näring	-12133
▁byggs	-12134
sman	-12135
▁utvilad	-12136
orp	-12137
bete	-12138
▁chefer	-12139
▁obligator	-12140
yggor	-12141
umman	-12142
▁knäck	-12143
ube	-12144
▁rea	-12145
▁fril	-12146
▁FRAM	-12147
▁elv	-12148
▁ledamöter	-12149
▁Förmodligen	-12150
▁laddat	-12151
sattes	-12152
▁spå	-12153
▁bun	-12154
▁marknads	-12155
▁tavlor	-12156
illo	-12157
skapen	-12158
▁saknad	-12159
▁operationen	-12160
▁hantverk	-12161
zer	-12162
lo	-12163
▁klassisk	-12164
utin	-12165
▁Dig	-12166
▁idrotten	-12167
stått	-12168
▁Lug	-12169
▁Jäm	-12170
musik	-12171
▁sjukdomen	-12172
▁Tet	-12173
▁honung	-12174
ners	-12175
▁Förr	-12176
▁Margar	-12177
▁Kons	-12178
▁medierna	-12179
▁foster	-12180
skin	-12181
▁Södertälje	-12182
männ	-12183
▁beskrivning	-12184
▁backa	-12185
▁återhämt	-12186
▁lyder	-12187
▁servera	-12188
▁drev	-12189
▁konvent	-12190
▁bow	-12191
▁prom	-12192
▁misslyck	-12193
▁kvällsmat	-12194
▁bokh	-12195
▁äcklig	-12196
▁överläg	-12197
▁flitigt	-12198
▁NI	-12199
▁fla	-12200
ellefteå	-12201
▁drabbades	-12202
▁förvänta	-12203
▁blund	-12204
▁populärt	-12205
ikes	-12206
▁57	-12207
▁Stina	-12208
stil	-12209
▁1984	-12210
▁byggnaden	-12211
spolitiken	-12212
▁spenderades	-12213
▁Själva	-12214
▁10-	-12215
▁villan	-12216
▁vidr	-12217
▁Expressen	-12218
▁engelsk	-12219
▁Charlie	-12220
systemet	-12221
irektör	-12222
▁drift	-12223
▁Försvar	-12224
▁Liby	-12225
▁fläsk	-12226
▁återf	-12227
▁ursprungligen	-12228
gu	-12229
▁våff	-12230
▁Bas	-12231
fald	-12232
▁omgångar	-12233
▁jackan	-12234
▁muslimska	-12235
▁leverera	-12236
▁ramen	-12237
▁ringar	-12238
ligast	-12239
▁skrevs	-12240
▁ک	-12241
▁Bäst	-12242
gröna	-12243
▁Astrid	-12244
▁snarast	-12245
▁tillbehör	-12246
▁KR	-12247
▁tvingar	-12248
▁Joseph	-12249
▁Vas	-12250
▁Dat	-12251
▁brunt	-12252
▁Mü	-12253
spår	-12254
trädde	-12255
▁orken	-12256
▁isar	-12257
▁oroar	-12258
▁Radio	-12259
▁Oh	-12260
▁lav	-12261
▁inrätt	-12262
▁1,4	-12263
▁Fru	-12264
▁Wilma	-12265
▁utställningen	-12266
▁månaders	-12267
▁prover	-12268
▁storas	-12269
▁tingsrätt	-12270
▁röstar	-12271
ission	-12272
▁ändring	-12273
▁Pek	-12274
sko	-12275
iaceae	-12276
box	-12277
vade	-12278
▁designen	-12279
▁dagbok	-12280
60	-12281
▁Camilla	-12282
▁svettas	-12283
▁uttrycker	-12284
vägs	-12285
▁msd	-12286
▁party	-12287
▁85	-12288
▁fjort	-12289
13	-12290
VM	-12291
▁italiens	-12292
▁BLIR	-12293
▁strumpor	-12294
kreterare	-12295
▁viktigast	-12296
▁barnbarn	-12297
▁1980	-12298
▁mackor	-12299
▁delat	-12300
icin	-12301
▁täcker	-12302
ni	-12303
ynta	-12304
▁systrar	-12305
▁flock	-12306
▁Bab	-12307
▁sommarens	-12308
▁presenteras	-12309
▁försäkrings	-12310
▁nämnt	-12311
jamas	-12312
▁skärmen	-12313
▁innehålla	-12314
▁Nick	-12315
▁grä	-12316
ektion	-12317
▁anta	-12318
▁kritiska	-12319
▁upplevde	-12320
centrum	-12321
▁faster	-12322
▁matta	-12323
▁Dor	-12324
hållning	-12325
ssen	-12326
▁passerar	-12327
▁landa	-12328
immer	-12329
gjorda	-12330
▁innebandy	-12331
din	-12332
MM	-12333
▁Förresten	-12334
▁blommorna	-12335
ikationer	-12336
▁seriös	-12337
blomm	-12338
rationer	-12339
▁bokstäver	-12340
▁umgicks	-12341
▁belast	-12342
aufför	-12343
▁ansvariga	-12344
▁rinna	-12345
▁testar	-12346
ågor	-12347
▁gubbe	-12348
BA	-12349
▁Fun	-12350
ligan	-12351
▁rekommend	-12352
▁Asp	-12353
▁kvälls	-12354
▁skydds	-12355
safton	-12356
▁rand	-12357
▁sättas	-12358
▁Band	-12359
▁spänd	-12360
▁andan	-12361
skamrater	-12362
▁Ze	-12363
▁övre	-12364
flyn	-12365
80	-12366
▁digitala	-12367
▁befäl	-12368
▁Kos	-12369
▁anda	-12370
▁märka	-12371
▁hotar	-12372
▁Rick	-12373
holmen	-12374
▁osyn	-12375
▁orsaker	-12376
▁festa	-12377
alom	-12378
olkningen	-12379
▁fördr	-12380
stud	-12381
lu	-12382
ynt	-12383
▁kvinno	-12384
▁Börja	-12385
cul	-12386
essen	-12387
ante	-12388
▁domstolen	-12389
▁KON	-12390
förmedlingen	-12391
▁Kajsa	-12392
▁skytt	-12393
▁träningar	-12394
▁helik	-12395
klipp	-12396
byggnaden	-12397
▁bikini	-12398
▁prot	-12399
▁försent	-12400
▁skita	-12401
blog	-12402
▁uppgick	-12403
ppan	-12404
▁avdelning	-12405
▁Klar	-12406
▁knut	-12407
▁täcka	-12408
▁beräknas	-12409
emiären	-12410
▁blött	-12411
▁klädd	-12412
▁putt	-12413
bolagen	-12414
bitar	-12415
corn	-12416
▁julgr	-12417
▁BIL	-12418
▁lugnet	-12419
▁överraskande	-12420
▁Isak	-12421
▁gillat	-12422
▁frisör	-12423
giften	-12424
▁sis	-12425
▁Glob	-12426
▁Kvinnan	-12427
▁bestå	-12428
▁jär	-12429
▁storebror	-12430
▁experter	-12431
ecca	-12432
äkten	-12433
▁ven	-12434
▁1986	-12435
årsåldern	-12436
▁båtar	-12437
▁ramlade	-12438
hälle	-12439
▁byte	-12440
▁utebl	-12441
föreningen	-12442
▁kommissionens	-12443
▁älskat	-12444
▁Francis	-12445
▁flickorna	-12446
▁ryss	-12447
vd	-12448
▁Röda	-12449
sut	-12450
annol	-12451
▁Tony	-12452
▁chockad	-12453
anterna	-12454
▁Sånt	-12455
▁inc	-12456
▁fickan	-12457
▁lampor	-12458
▁krona	-12459
rars	-12460
vätt	-12461
▁fattigdom	-12462
▁1,6	-12463
▁demokratin	-12464
▁dvär	-12465
▁förhoppningar	-12466
▁Pier	-12467
ATS	-12468
▁bildar	-12469
nummer	-12470
▁marin	-12471
▁Nåväl	-12472
▁direkta	-12473
▁fallen	-12474
NAN	-12475
stationen	-12476
▁dropp	-12477
fabr	-12478
▁överraskad	-12479
▁700	-12480
ismens	-12481
▁drabbar	-12482
VEN	-12483
▁käk	-12484
medlem	-12485
källor	-12486
▁sign	-12487
▁utgifter	-12488
▁märkliga	-12489
▁ljuger	-12490
▁ambassad	-12491
▁löper	-12492
sakerna	-12493
förändr	-12494
▁konsekvenserna	-12495
▁frivilligt	-12496
▁arbetare	-12497
orld	-12498
▁bortskäm	-12499
▁stressigt	-12500
▁tyckas	-12501
▁NÅGON	-12502
▁arbetslösheten	-12503
▁1987	-12504
▁förbundskapten	-12505
▁Joel	-12506
▁påpeka	-12507
▁Helst	-12508
ioxid	-12509
▁husse	-12510
▁åstadkomma	-12511
▁konkurs	-12512
ines	-12513
▁ran	-12514
▁uppstod	-12515
svens	-12516
▁holl	-12517
▁Kroatien	-12518
▁äpple	-12519
▁pool	-12520
ekon	-12521
▁spenderar	-12522
▁skrattat	-12523
skolor	-12524
▁flytten	-12525
regler	-12526
▁syntes	-12527
▁svärmor	-12528
▁Mountain	-12529
anke	-12530
smän	-12531
▁nattflyn	-12532
lust	-12533
meter	-12534
▁tält	-12535
▁trö	-12536
▁Låg	-12537
kriv	-12538
▁Förut	-12539
programmet	-12540
ejon	-12541
ätet	-12542
änsa	-12543
▁vänstra	-12544
▁Stig	-12545
▁rymd	-12546
▁gifter	-12547
▁Hammarby	-12548
▁elaka	-12549
▁vetenskapliga	-12550
▁resen	-12551
östern	-12552
▁släpps	-12553
▁GÅ	-12554
▁granskning	-12555
erial	-12556
irg	-12557
kigt	-12558
▁Klara	-12559
▁likv	-12560
........	-12561
igastes	-12562
serie	-12563
▁retor	-12564
▁Wilhelm	-12565
▁Utr	-12566
▁Rio	-12567
▁börjades	-12568
▁repet	-12569
ungar	-12570
▁alternativet	-12571
ekonom	-12572
▁klyft	-12573
▁2015	-12574
▁utskottet	-12575
▁Annie	-12576
▁blåa	-12577
▁jordens	-12578
snämn	-12579
14	-12580
▁hugg	-12581
▁europeisk	-12582
▁permanent	-12583
görande	-12584
▁Sydkorea	-12585
▁sve	-12586
▁förskola	-12587
▁fullständ	-12588
artik	-12589
▁främling	-12590
▁IT	-12591
▁onödan	-12592
▁Veckan	-12593
▁tröttnat	-12594
▁40-	-12595
▁ångesten	-12596
mästare	-12597
ssor	-12598
▁yrke	-12599
▁gulligt	-12600
stagram	-12601
▁jättet	-12602
▁folkets	-12603
▁skäll	-12604
▁ropade	-12605
▁tempot	-12606
▁psykiat	-12607
وه	-12608
▁Sydafrika	-12609
▁spontant	-12610
▁Smith	-12611
▁flyget	-12612
vju	-12613
▁satan	-12614
▁spekt	-12615
▁pyssel	-12616
handa	-12617
▁museet	-12618
▁Ā	-12619
ipul	-12620
ited	-12621
▁Tag	-12622
▁slum	-12623
▁uppmanar	-12624
▁pallar	-12625
▁betalat	-12626
▁vandrar	-12627
keträn	-12628
cegovina	-12629
▁mästare	-12630
▁Ner	-12631
▁brydde	-12632
▁tveksam	-12633
▁vardagsrum	-12634
▁tolkning	-12635
ede	-12636
▁Flyg	-12637
▁Ev	-12638
sallad	-12639
▁alliansen	-12640
ämnen	-12641
▁känslom	-12642
▁tillgänglig	-12643
▁ryt	-12644
▁usel	-12645
▁Tekn	-12646
formera	-12647
▁sänkt	-12648
banon	-12649
▁färgade	-12650
▁Skit	-12651
▁klapp	-12652
▁Verkar	-12653
▁hävdade	-12654
▁lämpligt	-12655
NER	-12656
▁inriktning	-12657
▁mkt	-12658
▁King	-12659
▁samhällen	-12660
▁HÖ	-12661
stens	-12662
▁Sofie	-12663
tart	-12664
unnen	-12665
▁nämner	-12666
ödande	-12667
▁sushi	-12668
kraften	-12669
▁Svan	-12670
komna	-12671
▁halsband	-12672
ston	-12673
▁Moskva	-12674
▁kans	-12675
▁Mas	-12676
▁motivationen	-12677
ljus	-12678
skiv	-12679
klassen	-12680
skare	-12681
▁papr	-12682
klädda	-12683
▁ligan	-12684
▁NHL	-12685
▁MÅN	-12686
▁2000-	-12687
gäst	-12688
▁Joakim	-12689
byggd	-12690
▁ärendet	-12691
▁omgången	-12692
▁motsvarar	-12693
▁Köp	-12694
▁VIL	-12695
▁Central	-12696
▁strikt	-12697
▁Lyck	-12698
fru	-12699
▁förflutna	-12700
▁ropar	-12701
▁bortom	-12702
▁alternativt	-12703
▁bä	-12704
▁omvand	-12705
▁ledaren	-12706
▁Kol	-12707
eland	-12708
▁olympiska	-12709
▁Santa	-12710
▁Skill	-12711
▁någons	-12712
▁sagts	-12713
▁atmosfär	-12714
aller	-12715
▁svampar	-12716
▁långpromenad	-12717
▁drinkar	-12718
▁oppositionen	-12719
▁medlemsstaterna	-12720
▁Lager	-12721
▁äpplen	-12722
▁koms	-12723
▁250	-12724
▁återkommande	-12725
▁Småland	-12726
öten	-12727
spolisen	-12728
▁poängen	-12729
▁Isab	-12730
teringen	-12731
▁Dalarna	-12732
▁hälso	-12733
ligheterna	-12734
▁självklara	-12735
▁moderaterna	-12736
vädret	-12737
antera	-12738
förklar	-12739
låda	-12740
▁Drog	-12741
▁skogar	-12742
ionellt	-12743
▁kunnandes	-12744
▁vistas	-12745
▁föreslag	-12746
▁rutt	-12747
▁Gener	-12748
hlm	-12749
ypt	-12750
▁Cecilia	-12751
▁fängels	-12752
▁kuddar	-12753
▁behandlingen	-12754
garen	-12755
▁glans	-12756
▁mordet	-12757
▁fyn	-12758
mötet	-12759
▁Körde	-12760
▁fik	-12761
tecken	-12762
▁räknade	-12763
ffan	-12764
▁långhorningar	-12765
▁förens	-12766
▁vätska	-12767
▁frys	-12768
▁statens	-12769
▁tyngd	-12770
▁villor	-12771
▁råkat	-12772
▁överflöd	-12773
▁Mör	-12774
▁börsen	-12775
▁jämnt	-12776
▁trettio	-12777
▁pyjamas	-12778
▁utspelar	-12779
▁Kollade	-12780
byt	-12781
▁coola	-12782
▁ida	-12783
ils	-12784
▁hastighet	-12785
▁annonser	-12786
▁skatten	-12787
▁återgå	-12788
▁miljöer	-12789
▁skugga	-12790
▁grillat	-12791
▁Instagram	-12792
hjäl	-12793
▁konsten	-12794
assen	-12795
▁signaler	-12796
▁docka	-12797
▁reform	-12798
▁bjudit	-12799
anal	-12800
acken	-12801
▁hol	-12802
ordförande	-12803
▁Cir	-12804
▁hyllan	-12805
▁appen	-12806
▁1971	-12807
▁DEL	-12808
▁ovanpå	-12809
▁hörl	-12810
▁hm	-12811
▁statistiken	-12812
▁parfym	-12813
organisationen	-12814
▁stolar	-12815
▁Bryssel	-12816
▁idio	-12817
▁Madrid	-12818
pul	-12819
▁smörgås	-12820
▁yttersta	-12821
▁Ute	-12822
▁börjas	-12823
rarnas	-12824
▁skaka	-12825
▁TÄN	-12826
▁vent	-12827
▁kommentarerna	-12828
▁biograf	-12829
▁Maken	-12830
▁Kvar	-12831
▁Samman	-12832
igenom	-12833
samtal	-12834
▁frös	-12835
smys	-12836
▁Green	-12837
ESS	-12838
▁2-0	-12839
▁overk	-12840
▁svagt	-12841
11	-12842
▁jakten	-12843
▁sjukvården	-12844
▁Mir	-12845
▁höjer	-12846
arie	-12847
spart	-12848
▁ende	-12849
▁solade	-12850
▁Fråga	-12851
▁Bank	-12852
▁materialet	-12853
▁peka	-12854
▁firat	-12855
orus	-12856
EA	-12857
IGA	-12858
reh	-12859
▁massvis	-12860
▁gåva	-12861
▁frakt	-12862
öjda	-12863
▁känsliga	-12864
▁tupp	-12865
ence	-12866
▁solig	-12867
▁kick	-12868
erligen	-12869
▁älskad	-12870
▁leds	-12871
▁tjug	-12872
▁Corn	-12873
▁meta	-12874
▁mänsklig	-12875
▁hårfärg	-12876
▁2-1	-12877
▁äran	-12878
▁friheten	-12879
smäst	-12880
▁partiledare	-12881
▁Slutade	-12882
▁ursprungliga	-12883
EST	-12884
mt	-12885
slö	-12886
▁Jimmy	-12887
bilj	-12888
▁tillhörde	-12889
kunskap	-12890
▁verksamheter	-12891
▁fund	-12892
▁farbror	-12893
ffären	-12894
▁tort	-12895
▁Holland	-12896
▁blommar	-12897
helg	-12898
▁utåt	-12899
▁Lovisa	-12900
▁kandidat	-12901
▁tillåta	-12902
ssätt	-12903
▁strul	-12904
UND	-12905
FT	-12906
▁Nina	-12907
öpp	-12908
ryck	-12909
▁MOT	-12910
▁refer	-12911
▁erbjudande	-12912
▁lättnad	-12913
▁skolavslut	-12914
▁bankerna	-12915
▁Pak	-12916
▁intervjuer	-12917
▁1980-	-12918
backen	-12919
▁läsaren	-12920
▁Nån	-12921
▁VÄR	-12922
elig	-12923
▁understr	-12924
aljer	-12925
▁Män	-12926
▁förmod	-12927
uka	-12928
kelt	-12929
▁sekt	-12930
▁familjem	-12931
▁påverkan	-12932
mör	-12933
▁sjukgym	-12934
▁glög	-12935
▁paj	-12936
▁omh	-12937
▁rätter	-12938
ebrada	-12939
▁South	-12940
▁rättegång	-12941
▁rulle	-12942
▁nedåt	-12943
läkare	-12944
▁lura	-12945
▁argumenter	-12946
▁erbjöd	-12947
▁Ohl	-12948
▁gymnast	-12949
▁graviditet	-12950
▁rättigheterna	-12951
▁åtskill	-12952
▁isär	-12953
▁psykiska	-12954
▁brorsan	-12955
▁avklarad	-12956
▁Snälla	-12957
▁parkering	-12958
mart	-12959
ämningen	-12960
▁bekost	-12961
▁stilen	-12962
▁umgåtts	-12963
▁bokade	-12964
elen	-12965
trafiken	-12966
▁bergstopp	-12967
▁Portugal	-12968
▁ping	-12969
hjul	-12970
▁jazz	-12971
▁Skatt	-12972
tagit	-12973
▁horm	-12974
▁rörelsen	-12975
▁kava	-12976
▁Big	-12977
fol	-12978
▁Torsdag	-12979
▁kvinnlig	-12980
▁tränaren	-12981
▁cer	-12982
▁anmärk	-12983
▁höns	-12984
▁enk	-12985
▁bolagen	-12986
▁1970-	-12987
▁tonåring	-12988
▁ints	-12989
▁Exempel	-12990
▁företagets	-12991
▁blandar	-12992
▁företagare	-12993
▁kvalité	-12994
▁måndagar	-12995
PA	-12996
▁lagts	-12997
▁tönt	-12998
▁EL	-12999
▁avsp	-13000
▁pump	-13001
gilt	-13002
▁—	-13003
▁vrå	-13004
▁summa	-13005
▁liggande	-13006
▁origin	-13007
▁trångt	-13008
raget	-13009
▁Allting	-13010
▁ansikten	-13011
▁kontakta	-13012
▁begravning	-13013
▁tob	-13014
▁genu	-13015
▁Sab	-13016
▁anmälan	-13017
▁avskyr	-13018
▁hemliga	-13019
▁potential	-13020
▁maxim	-13021
koll	-13022
visade	-13023
▁utmaningen	-13024
▁tomater	-13025
▁kold	-13026
pengar	-13027
▁Jätte	-13028
yrk	-13029
▁area	-13030
▁tabletter	-13031
bildning	-13032
▁heldag	-13033
▁RUNT	-13034
märken	-13035
BORG	-13036
▁sof	-13037
▁undersökningen	-13038
▁GÅR	-13039
▁Vall	-13040
låd	-13041
▁kanaler	-13042
▁Härom	-13043
▁överlag	-13044
▁JA	-13045
▁badkar	-13046
▁hotade	-13047
▁flug	-13048
▁Sha	-13049
▁Cast	-13050
hättan	-13051
edig	-13052
▁varianter	-13053
▁relationen	-13054
▁Il	-13055
▁forskar	-13056
▁shoppat	-13057
▁folkomröst	-13058
▁kryp	-13059
jev	-13060
▁osäkra	-13061
▁Räk	-13062
▁omöjlig	-13063
▁kompon	-13064
▁konserten	-13065
ningsför	-13066
anas	-13067
kalender	-13068
▁vårdcentralen	-13069
ão	-13070
shirt	-13071
sländ	-13072
▁aff	-13073
▁producera	-13074
▁gosa	-13075
▁glim	-13076
▁sega	-13077
▁visades	-13078
urer	-13079
▁sannolikhet	-13080
ickor	-13081
▁egent	-13082
▁frus	-13083
▁garantera	-13084
▁stöder	-13085
▁74	-13086
▁Felix	-13087
▁repl	-13088
▁stater	-13089
▁kanada	-13090
test	-13091
▁hands	-13092
▁vida	-13093
▁bjöds	-13094
▁beslöt	-13095
▁hållning	-13096
▁uppdaterat	-13097
▁lånade	-13098
▁revis	-13099
bidrag	-13100
▁bänken	-13101
fakt	-13102
▁malmö	-13103
▁tugg	-13104
▁orkidé	-13105
▁korridor	-13106
▁peng	-13107
ETS	-13108
företaget	-13109
▁stigit	-13110
rinningsområde	-13111
▁1979	-13112
▁Faktiskt	-13113
▁Río	-13114
▁konflikten	-13115
▁78	-13116
▁badet	-13117
▁starkaste	-13118
▁reaktioner	-13119
▁pussel	-13120
▁invandring	-13121
▁toler	-13122
▁tvättar	-13123
▁orim	-13124
▁sjunk	-13125
ometer	-13126
▁armén	-13127
▁tycke	-13128
▁avgifter	-13129
▁utbrott	-13130
innes	-13131
▁betr	-13132
rick	-13133
▁rese	-13134
▁intellig	-13135
▁sjunka	-13136
▁flod	-13137
▁Alva	-13138
▁sned	-13139
▁industrin	-13140
▁sistnämnda	-13141
▁kyrkans	-13142
▁Alf	-13143
▁MÅSTE	-13144
▁ade	-13145
▁Försökte	-13146
▁Gustafsson	-13147
▁rädslan	-13148
▁bidragit	-13149
▁framstår	-13150
▁uppgav	-13151
▁matlagning	-13152
▁slitna	-13153
▁välkomnar	-13154
elin	-13155
arn	-13156
▁1985	-13157
JE	-13158
byggda	-13159
NAT	-13160
äten	-13161
▁casino	-13162
▁förfölj	-13163
▁Kroppen	-13164
itteratur	-13165
▁Poj	-13166
onalen	-13167
▁Oliver	-13168
▁rötter	-13169
▁förhandlingarna	-13170
▁landat	-13171
▁höstens	-13172
▁ställas	-13173
människ	-13174
▁brok	-13175
▁radika	-13176
▁mässan	-13177
istens	-13178
▁gardiner	-13179
▁kämp	-13180
▁muff	-13181
▁Dagarna	-13182
▁tredjedel	-13183
▁israeliska	-13184
▁underteck	-13185
▁regi	-13186
somhelst	-13187
▁drivs	-13188
usentals	-13189
▁jog	-13190
ALL	-13191
▁Bort	-13192
shem	-13193
▁bedöma	-13194
unge	-13195
▁videos	-13196
▁Swed	-13197
▁action	-13198
▁suck	-13199
eld	-13200
▁knäna	-13201
▁NÅGOT	-13202
▁bekämpa	-13203
hö	-13204
▁akuten	-13205
▁utmana	-13206
▁support	-13207
▁mynt	-13208
▁ränte	-13209
grän	-13210
▁Saker	-13211
▁utsidan	-13212
uterade	-13213
sbyrån	-13214
▁Kap	-13215
riska	-13216
▁Vita	-13217
▁svettig	-13218
▁förbered	-13219
mers	-13220
ttag	-13221
ågs	-13222
nig	-13223
▁Bell	-13224
ania	-13225
omma	-13226
▁nye	-13227
▁besatt	-13228
▁struntar	-13229
▁medlemmarna	-13230
▁klickar	-13231
skas	-13232
▁tjänstemän	-13233
▁smälter	-13234
bev	-13235
▁varg	-13236
▁underlätta	-13237
▁Otto	-13238
▁nostal	-13239
▁kvalific	-13240
änkningar	-13241
16	-13242
fång	-13243
▁ärende	-13244
▁IM	-13245
▁vision	-13246
bron	-13247
▁Ou	-13248
▁surt	-13249
▁yngsta	-13250
▁popcorn	-13251
▁Stack	-13252
stuga	-13253
▁Står	-13254
▁exploder	-13255
▁Mol	-13256
▁los	-13257
▁korrupt	-13258
höll	-13259
▁tavla	-13260
▁Arlanda	-13261
▁domare	-13262
▁skämmas	-13263
▁födda	-13264
zi	-13265
▁slogs	-13266
▁nak	-13267
pern	-13268
▁varandes	-13269
▁rykte	-13270
ägna	-13271
kull	-13272
▁Aling	-13273
▁fastna	-13274
pra	-13275
▁regnat	-13276
skrivna	-13277
▁betydde	-13278
▁rutan	-13279
▁helvetet	-13280
▁bestämd	-13281
blogg	-13282
▁delav	-13283
okoll	-13284
▁tillägga	-13285
▁gata	-13286
▁löfte	-13287
▁identifier	-13288
▁Form	-13289
finalen	-13290
heim	-13291
▁slant	-13292
ERA	-13293
▁ständiga	-13294
▁radion	-13295
▁gulliga	-13296
▁fog	-13297
▁rubrik	-13298
▁lättaste	-13299
real	-13300
▁Familjen	-13301
tråd	-13302
iserat	-13303
▁opposition	-13304
▁redovisning	-13305
äsongen	-13306
▁värker	-13307
▁check	-13308
▁rov	-13309
turen	-13310
▁Faktum	-13311
▁diskuterade	-13312
▁mänskligheten	-13313
regl	-13314
▁märklig	-13315
▁Bör	-13316
▁förbju	-13317
▁North	-13318
ingo	-13319
ssjuk	-13320
KAR	-13321
▁sans	-13322
Kinshasa	-13323
träning	-13324
▁Åke	-13325
.4	-13326
benen	-13327
▁tjus	-13328
kok	-13329
▁undersökningar	-13330
▁ifrågasätta	-13331
uma	-13332
pal	-13333
▁Polis	-13334
▁tjänste	-13335
▁ryggs	-13336
▁existens	-13337
deg	-13338
DES	-13339
▁kladdkaka	-13340
▁landslaget	-13341
verker	-13342
▁upprepade	-13343
▁flott	-13344
▁Sebastian	-13345
▁gråa	-13346
▁spisen	-13347
▁lärar	-13348
▁ryttare	-13349
▁hata	-13350
▁tillgängliga	-13351
▁karaktärer	-13352
▁Stre	-13353
ics	-13354
sbygg	-13355
▁latin	-13356
▁iak	-13357
▁format	-13358
▁dol	-13359
album	-13360
▁skon	-13361
▁ljuga	-13362
▁tvingats	-13363
▁brittisk	-13364
▁omed	-13365
ställande	-13366
▁stötta	-13367
▁ratt	-13368
▁lusten	-13369
▁sympt	-13370
▁kriminal	-13371
▁slottet	-13372
▁blixt	-13373
▁maka	-13374
▁arenan	-13375
▁kapacitet	-13376
▁Skott	-13377
▁riktlin	-13378
▁Spen	-13379
▁jätten	-13380
alisering	-13381
eks	-13382
▁Hamp	-13383
järvi	-13384
evi	-13385
▁månads	-13386
▁element	-13387
▁bö	-13388
▁effekten	-13389
▁varmaste	-13390
▁väv	-13391
▁Kungsbacka	-13392
▁rektor	-13393
▁friskt	-13394
bott	-13395
▁Jansson	-13396
åget	-13397
▁ledsna	-13398
▁bidrog	-13399
▁tidsin	-13400
▁styrketrän	-13401
▁tabell	-13402
▁evigheter	-13403
▁Inatt	-13404
▁fräscha	-13405
utta	-13406
▁Jämt	-13407
IM	-13408
▁träningskläder	-13409
skop	-13410
▁Test	-13411
heterna	-13412
håller	-13413
▁spark	-13414
▁desperat	-13415
kvar	-13416
▁korg	-13417
ografiska	-13418
ando	-13419
▁love	-13420
▁1976	-13421
middag	-13422
▁Bon	-13423
▁Ingr	-13424
skort	-13425
▁Clara	-13426
▁motsatsen	-13427
▁förg	-13428
ängde	-13429
▁Pettersson	-13430
▁utrikesminister	-13431
▁iron	-13432
▁påminn	-13433
▁sökande	-13434
▁klist	-13435
▁platserna	-13436
▁stödet	-13437
▁Bod	-13438
▁tryckt	-13439
bek	-13440
▁introduc	-13441
▁huvudstad	-13442
övning	-13443
▁Udde	-13444
▁föreslog	-13445
▁försörj	-13446
ILJ	-13447
▁bespar	-13448
namnet	-13449
▁char	-13450
▁däribland	-13451
▁föran	-13452
▁handels	-13453
▁klasser	-13454
ome	-13455
▁duga	-13456
ikten	-13457
rens	-13458
väsen	-13459
▁tokig	-13460
äderna	-13461
▁medalj	-13462
▁klappar	-13463
▁likadana	-13464
hard	-13465
▁fredagar	-13466
spers	-13467
▁Somnade	-13468
▁93	-13469
▁äckliga	-13470
▁grannarna	-13471
venska	-13472
server	-13473
▁Therese	-13474
▁Sådana	-13475
▁marknadsföring	-13476
▁ultra	-13477
olas	-13478
▁lampa	-13479
ckare	-13480
iers	-13481
jes	-13482
▁skipp	-13483
▁tillväxten	-13484
▁slås	-13485
kelse	-13486
▁gavs	-13487
▁kylskåpet	-13488
▁avdelningen	-13489
adens	-13490
▁hemlig	-13491
▁Fol	-13492
▁älg	-13493
▁mut	-13494
ienten	-13495
▁åtgärd	-13496
▁1982	-13497
▁Större	-13498
rosa	-13499
intill	-13500
▁uppror	-13501
artade	-13502
stuna	-13503
▁Albin	-13504
▁onekligen	-13505
▁Personligen	-13506
▁kröp	-13507
▁intervjun	-13508
▁försvaret	-13509
▁discipl	-13510
etto	-13511
▁vån	-13512
▁uppskattat	-13513
▁fängsl	-13514
▁ess	-13515
▁over	-13516
▁ramla	-13517
▁kalorier	-13518
▁gubbar	-13519
▁bredare	-13520
▁passerade	-13521
▁blöj	-13522
rer	-13523
▁sad	-13524
ISKA	-13525
atser	-13526
▁smärts	-13527
▁presenterar	-13528
▁kulturen	-13529
▁alex	-13530
▁förälskad	-13531
▁söndagar	-13532
▁arbetsmarknad	-13533
KL	-13534
▁Jg	-13535
▁TY	-13536
▁neutral	-13537
ssp	-13538
ådde	-13539
sakt	-13540
▁avn	-13541
▁1974	-13542
▁Lucas	-13543
arin	-13544
▁nykter	-13545
▁0-1	-13546
▁Ät	-13547
skat	-13548
▁fjärilar	-13549
▁speglar	-13550
jänsten	-13551
▁städerna	-13552
▁magiskt	-13553
▁bekvämt	-13554
▁BB	-13555
▁monster	-13556
▁högtal	-13557
▁huvuden	-13558
▁Litt	-13559
▁spa	-13560
▁födelsedagspres	-13561
▁dröja	-13562
▁Minst	-13563
listan	-13564
▁framgångsrika	-13565
▁Bakom	-13566
▁arga	-13567
▁Mur	-13568
▁trotts	-13569
▁tam	-13570
▁hördes	-13571
▁undervisning	-13572
▁påhitt	-13573
▁analysera	-13574
▁investera	-13575
▁ti	-13576
▁GÖ	-13577
kvist	-13578
glad	-13579
▁efterlängtade	-13580
▁Fantast	-13581
▁dansk	-13582
▁nöt	-13583
innet	-13584
▁handled	-13585
▁fysik	-13586
▁översv	-13587
miljö	-13588
▁Hollywood	-13589
▁Endast	-13590
▁blädd	-13591
▁smul	-13592
▁neråt	-13593
▁definier	-13594
▁bekräftar	-13595
▁tenta	-13596
▁Stort	-13597
▁katterna	-13598
ammare	-13599
▁bredd	-13600
▁flagg	-13601
▁scener	-13602
▁avstå	-13603
▁stift	-13604
▁strunta	-13605
bed	-13606
17	-13607
urn	-13608
▁Film	-13609
▁Arvid	-13610
bruket	-13611
▁föreställningen	-13612
▁brutit	-13613
ynen	-13614
▁99	-13615
▁samarbets	-13616
▁havande	-13617
▁gyll	-13618
▁ägnade	-13619
LIGA	-13620
▁ansågs	-13621
▁propp	-13622
shistor	-13623
▁bristen	-13624
chester	-13625
▁83	-13626
▁Dennis	-13627
▁judar	-13628
▁löste	-13629
▁självkänsla	-13630
▁ändamål	-13631
emen	-13632
▁VÄN	-13633
▁gult	-13634
▁Skellefteå	-13635
▁gudom	-13636
utred	-13637
▁Senaste	-13638
▁utsikten	-13639
▁Passar	-13640
▁psykisk	-13641
die	-13642
reger	-13643
▁därtill	-13644
▁festivalen	-13645
skriven	-13646
▁tidnings	-13647
▁Bildt	-13648
▁Fattar	-13649
▁effektiva	-13650
ädan	-13651
alerna	-13652
cara	-13653
▁Underbart	-13654
▁kommunicera	-13655
▁läror	-13656
▁fd	-13657
▁Tjeckien	-13658
▁revolution	-13659
▁bekräftelse	-13660
ktis	-13661
▁säkerheten	-13662
▁mes	-13663
▁njutit	-13664
▁blodet	-13665
▁anställning	-13666
otet	-13667
▁maskinen	-13668
▁klassiker	-13669
▁begåv	-13670
▁budgeten	-13671
▁sydöstra	-13672
▁fördomar	-13673
▁uttråkad	-13674
väp	-13675
▁orkidéer	-13676
▁FÖRS	-13677
mak	-13678
▁självt	-13679
▁skoldagen	-13680
▁kapten	-13681
▁uppfattar	-13682
▁76	-13683
▁balansen	-13684
▁teknisk	-13685
stillstånd	-13686
▁godkänd	-13687
▁ridhuset	-13688
▁Libyen	-13689
iskas	-13690
mal	-13691
▁ambition	-13692
▁bergen	-13693
▁Sur	-13694
▁komplim	-13695
ävande	-13696
▁näringsliv	-13697
jorta	-13698
▁mannens	-13699
▁moderat	-13700
fattare	-13701
▁verksam	-13702
inte	-13703
▁kulturella	-13704
▁flyttas	-13705
smed	-13706
älen	-13707
▁skulder	-13708
▁skapel	-13709
▁mul	-13710
▁uppmärksamma	-13711
▁Rå	-13712
fram	-13713
skur	-13714
skrig	-13715
▁vul	-13716
▁kull	-13717
gripande	-13718
quist	-13719
▁nyckeln	-13720
▁dagsläget	-13721
yx	-13722
▁städar	-13723
▁dir	-13724
▁Johns	-13725
medels	-13726
organisation	-13727
sky	-13728
▁bars	-13729
andan	-13730
▁trenden	-13731
nosen	-13732
▁pappret	-13733
▁säsonger	-13734
▁konstitut	-13735
▁framställ	-13736
▁kallare	-13737
▁digital	-13738
▁avsked	-13739
▁napp	-13740
▁komposit	-13741
▁frustrerad	-13742
▁Bef	-13743
usa	-13744
▁Pseud	-13745
▁utvecklar	-13746
▁överlever	-13747
strän	-13748
chi	-13749
▁86	-13750
▁görat	-13751
▁Love	-13752
▁kassa	-13753
▁pur	-13754
▁Bou	-13755
▁reagerade	-13756
klubben	-13757
▁cerro	-13758
ratt	-13759
olver	-13760
▁kvinnans	-13761
▁Jonsson	-13762
▁unikt	-13763
▁placerade	-13764
▁Rapp	-13765
▁depression	-13766
▁rycka	-13767
▁Albert	-13768
▁störa	-13769
mi	-13770
avorit	-13771
ökt	-13772
▁parter	-13773
▁plugget	-13774
āgh	-13775
sspelare	-13776
▁flexi	-13777
▁lampan	-13778
▁Libanon	-13779
åten	-13780
▁handikapp	-13781
▁människas	-13782
▁varu	-13783
trä	-13784
▁skärp	-13785
▁häp	-13786
▁non	-13787
▁sagda	-13788
▁framgångsrik	-13789
GÅR	-13790
▁koldioxid	-13791
▁Saint	-13792
▁Claes	-13793
äre	-13794
▁piano	-13795
ves	-13796
▁GL	-13797
▁tidningarna	-13798
▁snål	-13799
ilis	-13800
▁självklarhet	-13801
▁extrema	-13802
handlingar	-13803
▁sjunde	-13804
▁bråka	-13805
▁förövrigt	-13806
▁jätted	-13807
▁impul	-13808
▁hyp	-13809
▁ringen	-13810
▁placering	-13811
▁chokladen	-13812
▁79	-13813
▁flertalet	-13814
klaga	-13815
▁solned	-13816
▁avslappnad	-13817
givning	-13818
▁herre	-13819
▁normer	-13820
ittén	-13821
vänt	-13822
skul	-13823
▁JOBB	-13824
▁omfattning	-13825
▁produkterna	-13826
pens	-13827
▁tillgod	-13828
▁prinsessa	-13829
▁systers	-13830
▁nämnda	-13831
iang	-13832
▁1970	-13833
▁arbetsdag	-13834
▁förrgår	-13835
▁koppling	-13836
cker	-13837
▁kolleger	-13838
▁våldet	-13839
▁prem	-13840
▁orättvist	-13841
▁Sahlin	-13842
▁1983	-13843
leg	-13844
ätts	-13845
cket	-13846
öde	-13847
▁smaker	-13848
▁examen	-13849
▁grova	-13850
▁hande	-13851
▁representerar	-13852
▁FINNS	-13853
KTEN	-13854
▁Syftet	-13855
▁återvände	-13856
▁ledarskap	-13857
▁mall	-13858
▁1968	-13859
▁terräng	-13860
▁Philip	-13861
etnam	-13862
▁enskild	-13863
▁anslutning	-13864
▁Övr	-13865
▁skattes	-13866
▁kusten	-13867
▁prestation	-13868
▁matten	-13869
▁Sin	-13870
▁skrivbord	-13871
▁migrän	-13872
▁äll	-13873
▁inspekt	-13874
▁presentation	-13875
undersökning	-13876
▁värdelös	-13877
▁förn	-13878
▁mic	-13879
▁Bloggen	-13880
▁Fotboll	-13881
▁tender	-13882
▁Nyss	-13883
ämningar	-13884
platt	-13885
▁resonemang	-13886
▁Wa	-13887
▁beställning	-13888
▁Caroline	-13889
▁Ungern	-13890
▁Anne	-13891
hundra	-13892
▁pek	-13893
omer	-13894
▁Jabal	-13895
▁krafterna	-13896
▁räddade	-13897
▁grottor	-13898
▁sektorn	-13899
etid	-13900
▁blöta	-13901
▁innerligt	-13902
▁klämma	-13903
▁specifika	-13904
handlingen	-13905
▁övar	-13906
▁vilodag	-13907
försäkring	-13908
▁frustration	-13909
▁pojkvännen	-13910
hängare	-13911
nst	-13912
▁Roligt	-13913
▁kudden	-13914
▁propag	-13915
▁studs	-13916
uropa	-13917
▁konservat	-13918
▁Angeles	-13919
görelse	-13920
▁fåglarna	-13921
▁Onsdag	-13922
▁förblir	-13923
▁Palm	-13924
▁föreställning	-13925
▁Rud	-13926
▁pist	-13927
▁tw	-13928
ilus	-13929
▁lönen	-13930
▁opinion	-13931
▁Ingenting	-13932
▁julp	-13933
ield	-13934
▁bröllopet	-13935
▁skakar	-13936
kött	-13937
▁historiskt	-13938
▁krok	-13939
▁årens	-13940
orterna	-13941
▁Beck	-13942
kamera	-13943
▁förfär	-13944
aton	-13945
▁plånbok	-13946
▁ödmjuk	-13947
emon	-13948
▁sträng	-13949
▁uttala	-13950
ånds	-13951
▁nyanser	-13952
▁col	-13953
▁byxorna	-13954
upplev	-13955
driv	-13956
▁budskapet	-13957
yc	-13958
▁promenerade	-13959
▁angrepp	-13960
▁förkylningen	-13961
▁tvåhjärtbladig	-13962
etecken	-13963
▁åtton	-13964
▁Åk	-13965
▁Verk	-13966
▁proc	-13967
▁dokumentär	-13968
äckad	-13969
▁rundan	-13970
▁branden	-13971
förvalt	-13972
▁twitter	-13973
väska	-13974
▁Peters	-13975
▁kriminella	-13976
▁veder	-13977
▁samlades	-13978
▁Norden	-13979
▁palestinska	-13980
▁meg	-13981
▁innebur	-13982
▁faktor	-13983
▁bh	-13984
▁storasyster	-13985
visor	-13986
▁infrastruktur	-13987
▁dvärg	-13988
▁efterly	-13989
▁principer	-13990
▁STOR	-13991
▁Shit	-13992
▁tvättade	-13993
▁mötas	-13994
▁staket	-13995
▁Alingsås	-13996
▁nödvändigtvis	-13997
▁smöret	-13998
▁Wester	-13999
▁Rädd	-14000
īr	-14001
▁riktar	-14002
▁hug	-14003
iseras	-14004
▁diam	-14005
▁landar	-14006
havet	-14007
▁Thor	-14008
▁slakt	-14009
▁tillåtet	-14010
▁bod	-14011
▁inkomster	-14012
▁småsaker	-14013
▁Tillslut	-14014
▁sexuellt	-14015
▁slip	-14016
▁plå	-14017
▁traditioner	-14018
▁dennes	-14019
vas	-14020
▁bestämda	-14021
▁recension	-14022
▁Sätt	-14023
DEL	-14024
synt	-14025
▁1,8	-14026
▁Björklund	-14027
▁träffats	-14028
▁representanter	-14029
ämnade	-14030
ställe	-14031
▁semest	-14032
▁påmind	-14033
▁Värmland	-14034
▁SY	-14035
▁Sarah	-14036
▁Saga	-14037
▁Sky	-14038
▁kyrkor	-14039
▁Gissa	-14040
▁tin	-14041
bis	-14042
▁vinet	-14043
▁föref	-14044
▁Si	-14045
▁Ped	-14046
▁intensiva	-14047
▁Antag	-14048
▁prestera	-14049
▁lake	-14050
▁pier	-14051
▁Adr	-14052
skommun	-14053
▁bevara	-14054
▁blandas	-14055
▁iofs	-14056
▁SJÄLV	-14057
▁gestalt	-14058
▁reha	-14059
▁bacon	-14060
kusten	-14061
▁förbättring	-14062
▁Lim	-14063
flytt	-14064
▁semin	-14065
▁Visste	-14066
▁kokos	-14067
▁förakt	-14068
▁ständig	-14069
▁bakar	-14070
ūr	-14071
▁1978	-14072
ängda	-14073
äter	-14074
▁gömmer	-14075
▁exklus	-14076
▁lovande	-14077
▁bildade	-14078
▁besluts	-14079
▁fortsättning	-14080
▁Kristina	-14081
splatsen	-14082
▁åklagaren	-14083
ez	-14084
fint	-14085
▁Öland	-14086
▁utvecklat	-14087
▁olyckor	-14088
▁rys	-14089
▁tillbringade	-14090
iral	-14091
▁FICK	-14092
▁havre	-14093
götland	-14094
▁pos	-14095
▁elden	-14096
▁95	-14097
ippi	-14098
talen	-14099
▁helr	-14100
▁bildas	-14101
▁kretsar	-14102
▁tunnelbanan	-14103
lus	-14104
▁bestått	-14105
▁individuella	-14106
▁begära	-14107
▁illustr	-14108
▁arbetskraft	-14109
▁skåd	-14110
▁samord	-14111
▁kreativitet	-14112
▁Tam	-14113
▁respons	-14114
▁ansvars	-14115
uper	-14116
▁flaskan	-14117
såt	-14118
▁lund	-14119
▁immun	-14120
▁1977	-14121
▁berörda	-14122
yrka	-14123
agda	-14124
▁numer	-14125
▁gråtit	-14126
▁konkurrensen	-14127
▁önskel	-14128
▁Hägg	-14129
linjen	-14130
▁varade	-14131
▁1975	-14132
▁HELA	-14133
▁Juni	-14134
▁Älsk	-14135
▁kostym	-14136
▁slock	-14137
sproblem	-14138
fast	-14139
▁nagel	-14140
▁Sun	-14141
juta	-14142
▁magiska	-14143
▁nuläget	-14144
▁grupperna	-14145
▁Jones	-14146
▁Janne	-14147
▁garaget	-14148
▁stadsdel	-14149
▁Hercegovina	-14150
lagda	-14151
▁biskop	-14152
▁domaren	-14153
▁tillämp	-14154
▁hiss	-14155
▁fester	-14156
▁mönstret	-14157
▁IGEN	-14158
▁vilat	-14159
▁1981	-14160
▁fod	-14161
▁lekar	-14162
▁kraften	-14163
nytt	-14164
▁knäppa	-14165
▁mr	-14166
▁skrämmer	-14167
▁butikerna	-14168
▁Quebrada	-14169
▁1,7	-14170
▁kuk	-14171
▁halvåret	-14172
▁byrå	-14173
▁110	-14174
▁fältet	-14175
zar	-14176
▁bristande	-14177
▁veterinären	-14178
▁etta	-14179
dörren	-14180
▁ling	-14181
▁morgondagens	-14182
▁passera	-14183
▁egendom	-14184
▁Belgien	-14185
▁Morm	-14186
▁otroliga	-14187
▁avkopp	-14188
lappar	-14189
▁görats	-14190
▁lektionerna	-14191
▁företags	-14192
▁hava	-14193
bom	-14194
▁robot	-14195
▁plånboken	-14196
produc	-14197
▁ron	-14198
bers	-14199
▁skägg	-14200
▁livstid	-14201
▁varats	-14202
tagen	-14203
▁fascinerande	-14204
aminer	-14205
skande	-14206
▁långvar	-14207
ifol	-14208
icken	-14209
▁champagne	-14210
▁överlycklig	-14211
▁betänkandet	-14212
▁semifinal	-14213
ate	-14214
24	-14215
▁kostnaden	-14216
▁Alexandra	-14217
▁Fått	-14218
▁oron	-14219
▁trea	-14220
▁Gårdagen	-14221
▁knuff	-14222
▁Sommaren	-14223
▁genre	-14224
▁1967	-14225
▁trappa	-14226
▁schweiz	-14227
▁morbror	-14228
▁lås	-14229
spindlar	-14230
▁fotat	-14231
▁avgift	-14232
adel	-14233
▁komplicerat	-14234
▁rörande	-14235
tabelt	-14236
▁TYCK	-14237
▁valda	-14238
▁Cap	-14239
▁tillgångar	-14240
▁tvättstugan	-14241
▁lögn	-14242
▁samb	-14243
byr	-14244
▁marknader	-14245
▁möjligtvis	-14246
▁varning	-14247
▁passat	-14248
▁dödade	-14249
▁will	-14250
▁sovjet	-14251
rem	-14252
▁diktatur	-14253
▁föresprå	-14254
▁länsstyr	-14255
▁meters	-14256
▁Peking	-14257
▁got	-14258
▁1972	-14259
rov	-14260
inet	-14261
▁division	-14262
▁Jobbar	-14263
▁obeskriv	-14264
▁vansinnigt	-14265
▁lam	-14266
▁Miljöpartiet	-14267
odå	-14268
▁obekv	-14269
▁individen	-14270
▁suga	-14271
▁ändringar	-14272
sområden	-14273
IKA	-14274
smask	-14275
▁Lukas	-14276
▁SA	-14277
▁tröttnar	-14278
▁frik	-14279
asson	-14280
▁finland	-14281
▁Mell	-14282
ulpan	-14283
▁ÄVEN	-14284
▁uttalanden	-14285
▁blöd	-14286
▁vanligare	-14287
▁tungan	-14288
▁vilade	-14289
▁hunger	-14290
▁allsvenskan	-14291
▁2016	-14292
▁främja	-14293
▁if	-14294
-9	-14295
nest	-14296
▁ke	-14297
▁Birgitta	-14298
▁kryddor	-14299
▁resterande	-14300
▁morötter	-14301
▁pryd	-14302
▁påverkat	-14303
▁osäkerhet	-14304
▁Mora	-14305
▁nill	-14306
▁rykt	-14307
▁Kost	-14308
▁explo	-14309
▁avslöjar	-14310
▁kategori	-14311
▁pip	-14312
▁Tok	-14313
▁Uddevalla	-14314
▁styrkan	-14315
▁eländ	-14316
▁pekade	-14317
▁77	-14318
▁solat	-14319
▁idioter	-14320
akar	-14321
änker	-14322
vt	-14323
ergi	-14324
▁relevant	-14325
krisen	-14326
▁Neder	-14327
▁ås	-14328
▁kod	-14329
▁snyggaste	-14330
▁kartan	-14331
▁deprimerad	-14332
▁engagera	-14333
▁berus	-14334
▁stormen	-14335
▁doftar	-14336
▁Fried	-14337
ASS	-14338
▁Läste	-14339
▁Föräl	-14340
färdig	-14341
▁årstid	-14342
ming	-14343
▁solar	-14344
▁knas	-14345
▁kontrovers	-14346
▁forskningen	-14347
▁frågestund	-14348
▁snick	-14349
▁lockande	-14350
▁utgångspunkt	-14351
▁spåren	-14352
åkning	-14353
▁Nobel	-14354
▁välfärden	-14355
▁GJ	-14356
▁masker	-14357
▁universum	-14358
samlingen	-14359
▁undviker	-14360
match	-14361
▁Tillbaka	-14362
▁kräftdjursart	-14363
▁eröv	-14364
▁jagar	-14365
▁alltihop	-14366
▁forma	-14367
▁disken	-14368
▁förvåning	-14369
oven	-14370
▁Numera	-14371
▁italien	-14372
äsen	-14373
▁såsen	-14374
områden	-14375
▁nyheterna	-14376
▁våt	-14377
troller	-14378
solut	-14379
▁associ	-14380
▁kammar	-14381
▁representant	-14382
▁Täv	-14383
▁baren	-14384
▁tillbringat	-14385
peraturen	-14386
odor	-14387
▁hängig	-14388
▁tej	-14389
▁1973	-14390
▁växthus	-14391
▁Svart	-14392
fit	-14393
hat	-14394
▁såldes	-14395
änka	-14396
▁konstru	-14397
▁sax	-14398
▁romanen	-14399
▁falsk	-14400
▁vips	-14401
▁carl	-14402
▁klädde	-14403
ffer	-14404
pus	-14405
▁förberett	-14406
brand	-14407
raels	-14408
vita	-14409
▁jes	-14410
▁Britt	-14411
▁årliga	-14412
bbar	-14413
▁linjer	-14414
▁fiskart	-14415
▁torkar	-14416
▁tillräcklig	-14417
▁orke	-14418
▁legen	-14419
▁SKR	-14420
gal	-14421
▁valdes	-14422
▁grädd	-14423
▁sno	-14424
▁elef	-14425
▁betalas	-14426
▁områdena	-14427
smässigt	-14428
▁nyårsafton	-14429
▁Tri	-14430
▁långsiktigt	-14431
▁juster	-14432
byrån	-14433
▁slängt	-14434
▁hittas	-14435
▁lusse	-14436
▁kanin	-14437
▁160	-14438
▁kes	-14439
▁tidpunkt	-14440
▁generationer	-14441
▁förmögen	-14442
drande	-14443
UG	-14444
▁repris	-14445
bre	-14446
▁Gla	-14447
alismen	-14448
▁nyheten	-14449
▁Använd	-14450
▁galoppen	-14451
jel	-14452
▁därute	-14453
▁plag	-14454
▁Spar	-14455
▁Myr	-14456
▁Der	-14457
▁kunskapen	-14458
▁sååå	-14459
▁obegrip	-14460
▁lokalt	-14461
▁bevilj	-14462
kri	-14463
▁jättefint	-14464
▁avslutat	-14465
▁tårtan	-14466
ador	-14467
▁AF	-14468
fo	-14469
unionen	-14470
▁knyta	-14471
grens	-14472
▁ANDRA	-14473
▁separat	-14474
▁betong	-14475
bat	-14476
▁Mill	-14477
▁institutioner	-14478
mets	-14479
▁nickade	-14480
▁kitt	-14481
▁Edward	-14482
▁regional	-14483
▁julkalender	-14484
▁lyckade	-14485
▁strålar	-14486
▁glögg	-14487
▁engagerade	-14488
nämnden	-14489
ötterna	-14490
▁käkar	-14491
▁Alliansen	-14492
▁sanden	-14493
▁tyckts	-14494
▁utsätts	-14495
▁orten	-14496
▁stressen	-14497
▁menyn	-14498
▁taj	-14499
▁bjuden	-14500
▁lånat	-14501
▁leksak	-14502
▁fredagsmys	-14503
▁BER	-14504
terades	-14505
▁anspråk	-14506
▁drink	-14507
▁motorcy	-14508
▁Arro	-14509
▁1-2	-14510
▁slutsatser	-14511
▁Trollhättan	-14512
stider	-14513
▁nud	-14514
▁Jörgen	-14515
▁Jonathan	-14516
▁medicinen	-14517
▁aspekter	-14518
▁Jocke	-14519
▁vattenkällor	-14520
▁ramlar	-14521
glasögon	-14522
▁trix	-14523
25	-14524
▁1960-	-14525
NAS	-14526
▁Olofsson	-14527
▁pågick	-14528
▁Mesa	-14529
pir	-14530
▁femtio	-14531
▁spe	-14532
▁Maur	-14533
spress	-14534
▁ridningen	-14535
▁lämplig	-14536
▁Soph	-14537
▁matcha	-14538
▁pågått	-14539
▁178	-14540
eli	-14541
▁Mary	-14542
▁index	-14543
▁röj	-14544
▁Alldeles	-14545
önster	-14546
SP	-14547
▁rundas	-14548
▁Rebecca	-14549
▁ekologiska	-14550
▁redog	-14551
▁åtag	-14552
▁Pot	-14553
▁informera	-14554
▁mu	-14555
▁amerikan	-14556
__	-14557
rys	-14558
▁förhållandet	-14559
▁Sådär	-14560
▁nånsin	-14561
målet	-14562
▁studio	-14563
▁Björk	-14564
▁bryt	-14565
▁fundament	-14566
bour	-14567
ionala	-14568
▁ll	-14569
▁förhoppning	-14570
▁gir	-14571
▁säljas	-14572
▁högstadiet	-14573
▁Uppdat	-14574
▁Ovan	-14575
▁VID	-14576
▁kändis	-14577
▁avundsjuk	-14578
▁Norrland	-14579
emar	-14580
▁stadigt	-14581
▁oändligt	-14582
▁staterna	-14583
träde	-14584
▁Sahl	-14585
▁legitim	-14586
▁Ḩ	-14587
▁nervöst	-14588
▁Idol	-14589
▁Post	-14590
▁Maten	-14591
▁direktiv	-14592
▁befintliga	-14593
dahl	-14594
▁förluster	-14595
ägarna	-14596
änken	-14597
▁Bohus	-14598
▁avseende	-14599
▁kombinera	-14600
▁konsumtion	-14601
▁ER	-14602
▁Hun	-14603
idi	-14604
▁coach	-14605
▁1,9	-14606
▁jätteroligt	-14607
▁oljan	-14608
▁gamle	-14609
▁kroppens	-14610
▁finnar	-14611
▁grundades	-14612
juter	-14613
▁fönstren	-14614
▁gjordas	-14615
▁anlände	-14616
▁skjorta	-14617
uven	-14618
▁fotografering	-14619
▁bund	-14620
▁Sag	-14621
▁baserad	-14622
▁sankt	-14623
▁aven	-14624
stade	-14625
▁familjerna	-14626
▁begränsa	-14627
kningar	-14628
▁skulpt	-14629
▁Hor	-14630
▁betalade	-14631
▁uppskattade	-14632
▁Tisdag	-14633
▁SITT	-14634
▁illeg	-14635
▁Bus	-14636
▁glitter	-14637
sper	-14638
▁rysk	-14639
▁uppgång	-14640
▁kategorin	-14641
▁lösas	-14642
▁berömda	-14643
▁händ	-14644
text	-14645
▁föreläsningar	-14646
▁saknades	-14647
▁drast	-14648
▁Tem	-14649
▁föreställningar	-14650
▁numret	-14651
mars	-14652
▁befinna	-14653
▁Tråkigt	-14654
▁HELT	-14655
▁skrivas	-14656
ådd	-14657
▁laddade	-14658
▁nyttiga	-14659
frisk	-14660
▁Pern	-14661
▁inledningen	-14662
▁96	-14663
▁Real	-14664
▁iphone	-14665
▁Ti	-14666
ysen	-14667
▁leken	-14668
▁1969	-14669
▁alle	-14670
▁MÅNGA	-14671
▁TVÅ	-14672
sjön	-14673
▁stenhårt	-14674
▁påf	-14675
▁studien	-14676
brahim	-14677
▁konfir	-14678
▁ota	-14679
▁gnälla	-14680
▁strömmen	-14681
▁kalaset	-14682
▁Plat	-14683
▁församlingen	-14684
▁tilläm	-14685
▁tatuering	-14686
▁Finans	-14687
▁TRA	-14688
drom	-14689
▁erik	-14690
▁influens	-14691
▁karriären	-14692
oca	-14693
▁plattan	-14694
▁def	-14695
inv	-14696
onerna	-14697
▁Våg	-14698
holms	-14699
▁Natt	-14700
stritar	-14701
▁kav	-14702
▁Evel	-14703
▁torde	-14704
▁Ingrid	-14705
▁diabet	-14706
▁skärm	-14707
▁Falun	-14708
▁avveck	-14709
▁förbjudet	-14710
▁affärs	-14711
▁styrkor	-14712
▁71	-14713
halie	-14714
▁nästintill	-14715
▁sminket	-14716
▁dödar	-14717
▁enklaste	-14718
▁Nar	-14719
▁avgång	-14720
▁Bib	-14721
▁logga	-14722
▁Cro	-14723
▁tran	-14724
▁otr	-14725
egas	-14726
▁sparat	-14727
▁kvaliteten	-14728
osp	-14729
▁luktade	-14730
21	-14731
▁ungen	-14732
vecka	-14733
▁packar	-14734
▁Tredje	-14735
varen	-14736
älsa	-14737
▁underhållning	-14738
▁krigs	-14739
löshet	-14740
▁utkik	-14741
▁stul	-14742
▁besvikna	-14743
fört	-14744
▁arbetstid	-14745
atarina	-14746
▁traditionell	-14747
▁omhänder	-14748
unty	-14749
bunden	-14750
▁världar	-14751
ords	-14752
▁asf	-14753
▁närmre	-14754
▁besvar	-14755
▁vinn	-14756
▁invånarna	-14757
▁SC	-14758
▁vittnen	-14759
▁bädda	-14760
äma	-14761
▁bränner	-14762
obi	-14763
BER	-14764
▁våningen	-14765
▁överlevde	-14766
▁tentan	-14767
oped	-14768
akes	-14769
▁inrikes	-14770
▁cur	-14771
▁United	-14772
▁Roy	-14773
▁orkidéart	-14774
▁rättegången	-14775
politiska	-14776
▁Såklart	-14777
▁kräk	-14778
▁salu	-14779
▁spelen	-14780
ingars	-14781
▁Amerik	-14782
▁Huset	-14783
▁logiskt	-14784
▁penning	-14785
▁dynam	-14786
▁Klipp	-14787
▁utvecklade	-14788
▁misstänks	-14789
jacka	-14790
▁tekniker	-14791
▁onödig	-14792
▁flytande	-14793
▁SÄ	-14794
▁diskriminering	-14795
TEBORG	-14796
-8	-14797
▁Äter	-14798
▁pepparkakor	-14799
▁soft	-14800
duktion	-14801
▁serveras	-14802
▁mäster	-14803
▁Ena	-14804
▁tyckta	-14805
▁medit	-14806
▁joh	-14807
▁luta	-14808
▁motiverad	-14809
▁Nora	-14810
▁Made	-14811
▁sne	-14812
beln	-14813
▁harm	-14814
▁svenske	-14815
▁mångfald	-14816
▁satsningar	-14817
resor	-14818
▁Fi	-14819
kompis	-14820
ologen	-14821
▁flöt	-14822
▁ventil	-14823
▁nyhets	-14824
▁uppfylla	-14825
▁Ana	-14826
▁manipul	-14827
▁hungriga	-14828
▁kare	-14829
IC	-14830
▁1700-	-14831
erto	-14832
▁fullsp	-14833
▁inifrån	-14834
dotter	-14835
▁gel	-14836
sefter	-14837
▁sparkar	-14838
▁ast	-14839
▁centralt	-14840
▁skjort	-14841
▁Filippa	-14842
▁vantar	-14843
▁Bloggar	-14844
▁BN	-14845
▁bolagets	-14846
skarna	-14847
▁klassrummet	-14848
bod	-14849
▁bubbel	-14850
▁tuffare	-14851
▁stabilt	-14852
▁hemmag	-14853
runda	-14854
▁trädgårds	-14855
▁skeptisk	-14856
▁tekniskt	-14857
▁ordnar	-14858
▁Grym	-14859
▁armé	-14860
▁skarpt	-14861
▁inbrott	-14862
▁läkarna	-14863
▁köttbullar	-14864
▁kolon	-14865
▁bokstavligen	-14866
▁långas	-14867
▁kärl	-14868
▁lönsam	-14869
▁kūh	-14870
▁+	-14871
▁versionen	-14872
▁140	-14873
fullmäktige	-14874
▁apt	-14875
▁länka	-14876
▁avdel	-14877
▁Pra	-14878
▁tävlade	-14879
ower	-14880
ådär	-14881
öarna	-14882
▁ålders	-14883
▁manifest	-14884
▁kina	-14885
▁uttrycket	-14886
yte	-14887
▁Knapp	-14888
▁viner	-14889
▁sör	-14890
▁stämde	-14891
▁grubb	-14892
ättade	-14893
▁tacksamhet	-14894
▁reflektera	-14895
▁anti	-14896
nick	-14897
▁skulden	-14898
▁pytt	-14899
▁idrotts	-14900
▁vra	-14901
▁Back	-14902
chus	-14903
▁Brit	-14904
istans	-14905
▁publicerade	-14906
grunden	-14907
rollen	-14908
▁skaffar	-14909
▁användare	-14910
ifornien	-14911
▁damen	-14912
▁investering	-14913
▁sara	-14914
ättningen	-14915
▁framträdande	-14916
▁ursäkta	-14917
▁upplevelsen	-14918
▁förskräck	-14919
▁glider	-14920
▁teatern	-14921
▁stt	-14922
▁GÖTEBORG	-14923
▁bistånd	-14924
▁original	-14925
ydda	-14926
▁BES	-14927
▁Mellanöstern	-14928
ical	-14929
▁fäl	-14930
▁behär	-14931
▁segrar	-14932
▁truppen	-14933
▁VERK	-14934
▁sjunkit	-14935
▁vanligen	-14936
▁Guld	-14937
▁andelen	-14938
esedan	-14939
▁Nordkorea	-14940
▁rättvist	-14941
▁کوه	-14942
▁avrätt	-14943
ECK	-14944
▁Reuters	-14945
onda	-14946
▁vindar	-14947
▁vinnaren	-14948
▁Bjuder	-14949
huvudort	-14950
▁cigg	-14951
cas	-14952
▁hälsan	-14953
▁babb	-14954
▁återvänder	-14955
▁nämns	-14956
resultatet	-14957
▁Götaland	-14958
sledare	-14959
▁kragen	-14960
▁kyrkog	-14961
skost	-14962
▁stö	-14963
▁tunt	-14964
▁sinnes	-14965
▁broder	-14966
plac	-14967
▁minuters	-14968
▁1960	-14969
splanen	-14970
ischer	-14971
▁Antagligen	-14972
▁GÖRA	-14973
▁byråk	-14974
▁sugna	-14975
▁skyddar	-14976
JA	-14977
ägaren	-14978
▁lyste	-14979
omål	-14980
▁Angola	-14981
▁porr	-14982
▁André	-14983
▁stegen	-14984
▁spott	-14985
▁jättest	-14986
▁muffins	-14987
▁inleds	-14988
▁höras	-14989
▁sysslar	-14990
▁Tio	-14991
▁experiment	-14992
▁Trans	-14993
▁styrde	-14994
▁efterfråg	-14995
▁trasig	-14996
▁empat	-14997
▁sköld	-14998
▁påfrest	-14999
▁abort	-15000
▁Vore	-15001
▁Cañ	-15002
ingsliv	-15003
▁belöning	-15004
äser	-15005
▁kritiker	-15006
▁jobbigaste	-15007
formation	-15008
▁publiceras	-15009
uppfatt	-15010
▁Gabriel	-15011
bak	-15012
▁rust	-15013
ense	-15014
▁modet	-15015
▁turneringen	-15016
panna	-15017
▁tvåan	-15018
▁slet	-15019
▁Gunilla	-15020
jölk	-15021
▁växel	-15022
▁utforska	-15023
▁kliar	-15024
tet	-15025
▁innefatt	-15026
▁hanterar	-15027
▁förbereder	-15028
▁rensat	-15029
▁etablerade	-15030
▁bjudna	-15031
▁religiös	-15032
▁halsd	-15033
▁svalna	-15034
OP	-15035
helgen	-15036
▁namnen	-15037
▁VÄ	-15038
havare	-15039
svenskan	-15040
enskaps	-15041
▁flaskor	-15042
▁utreda	-15043
▁noggrann	-15044
stal	-15045
ues	-15046
▁skadat	-15047
▁nöje	-15048
▁stret	-15049
▁fläck	-15050
mät	-15051
kalas	-15052
▁densamma	-15053
sterna	-15054
▁näringslivet	-15055
alisera	-15056
▁biter	-15057
▁Lille	-15058
▁stors	-15059
rinningsområdet	-15060
▁mascara	-15061
everket	-15062
▁Eskilstuna	-15063
▁förväntans	-15064
▁familjemedlem	-15065
▁unionens	-15066
▁smås	-15067
▁skarp	-15068
▁gränserna	-15069
▁hafts	-15070
▁sparka	-15071
▁Program	-15072
arskap	-15073
▁Kristus	-15074
▁kudde	-15075
▁prester	-15076
▁Pratade	-15077
▁illust	-15078
▁power	-15079
▁förbr	-15080
yren	-15081
▁task	-15082
marnas	-15083
▁uppstå	-15084
▁Buk	-15085
▁Hansson	-15086
▁gräsmattan	-15087
▁evenemang	-15088
▁Times	-15089
▁kapp	-15090
▁obef	-15091
vagnar	-15092
▁skrib	-15093
▁förbundet	-15094
kts	-15095
▁Nad	-15096
▁Hav	-15097
▁dörrarna	-15098
▁hostar	-15099
▁skapades	-15100
▁basket	-15101
▁bebisar	-15102
▁sorgen	-15103
▁Gym	-15104
rea	-15105
▁skåpet	-15106
▁Hjäl	-15107
▁magisk	-15108
▁Vel	-15109
hängande	-15110
▁befar	-15111
▁Rolf	-15112
jebel	-15113
board	-15114
▁frisören	-15115
▁lösen	-15116
▁sårad	-15117
▁urin	-15118
▁novell	-15119
▁sortera	-15120
▁havas	-15121
▁rusar	-15122
▁sängar	-15123
col	-15124
evärd	-15125
▁rasande	-15126
▁nyårs	-15127
▁brödet	-15128
▁strävar	-15129
▁hades	-15130
▁tillfråg	-15131
▁interna	-15132
▁Airport	-15133
▁miste	-15134
▁påsar	-15135
▁Pelle	-15136
ibiot	-15137
▁toner	-15138
glada	-15139
▁piff	-15140
ege	-15141
▁Halland	-15142
▁entré	-15143
beck	-15144
▁upplägg	-15145
▁dl	-15146
▁Ele	-15147
▁ägarna	-15148
ily	-15149
▁livsl	-15150
▁orter	-15151
▁kronan	-15152
▁kramade	-15153
▁ogillar	-15154
ilde	-15155
DS	-15156
▁utvis	-15157
▁redigera	-15158
▁vits	-15159
▁Staden	-15160
▁Dans	-15161
▁bråkar	-15162
▁beslag	-15163
▁seriösa	-15164
▁Pia	-15165
▁skån	-15166
▁kosten	-15167
▁händelserna	-15168
fylld	-15169
▁nedgång	-15170
▁Desa	-15171
▁Jeg	-15172
▁talesman	-15173
▁experim	-15174
▁ställdes	-15175
▁brevet	-15176
▁term	-15177
oul	-15178
▁stressade	-15179
iserad	-15180
öss	-15181
▁Cu	-15182
▁patienten	-15183
▁nig	-15184
▁krydd	-15185
▁identifiera	-15186
▁omtänk	-15187
▁Ig	-15188
▁befog	-15189
▁ull	-15190
▁fylls	-15191
▁vardera	-15192
satts	-15193
▁hobby	-15194
▁förändringen	-15195
▁engagerad	-15196
▁nos	-15197
vision	-15198
▁Åtminstone	-15199
▁frekv	-15200
▁OK	-15201
station	-15202
bollar	-15203
▁Varberg	-15204
▁DETTA	-15205
▁landskapet	-15206
▁adop	-15207
▁vares	-15208
▁förstörd	-15209
▁spektak	-15210
▁kind	-15211
▁kamrater	-15212
▁DEM	-15213
▁José	-15214
ap	-15215
[...]
