▁.	326990969
▁och	182720089
▁,	177967710
▁att	147959731
▁jag	121241574
▁i	118792494
▁det	116206348
▁är	108755312
▁på	95634829
▁som	89187202
▁en	88287379
▁för	64840858
▁med	64655754
▁inte	61919521
▁så	59366542
▁har	58253622
▁till	51887046
▁av	48777480
▁om	45057978
▁!	42323782
▁den	39087461
▁vi	36047694
▁var	35780209
▁ett	33450303
▁men	31987489
▁de	31312506
▁man	30293367
▁mig	28094127
▁ska	26116366
▁Jag	25955228
▁kan	24364890
▁Det	23884493
▁nu	21727208
▁lite	20760809
▁när	19819752
▁sig	19284217
▁han	18461580
▁?	17917862
▁här	15924685
▁bara	15605409
▁"	15567637
▁ut	15250231
▁min	14996203
▁upp	14990388
▁kommer	14759530
▁)	14662532
▁mycket	14495926
▁från	14385039
▁eller	14371138
▁då	14248488
▁bra	14232567
▁(	14179431
s	13935286
▁där	13880217
▁Men	13685782
▁vara	13375288
▁hade	12884627
▁över	12680421
▁ju	12654835
▁hon	12445825
▁du	12392735
▁får	12270705
▁alla	12266070
▁in	12135395
▁ha	12070090
▁skulle	11977845
-	11914577
▁vad	11865520
▁-	11650334
▁efter	11158435
▁också	11153289
▁blir	11147697
▁hur	10890690
▁vill	10538105
▁”	10420955
▁mer	10143930
▁få	10124174
▁än	9896957
▁något	9646005
▁idag	9574503
▁bli	9213811
▁göra	8865907
▁allt	8826351
en	8586521
ar	8523351
▁finns	8506905
▁ta	8378945
▁Vi	8333934
▁fick	8302101
▁under	8289433
as	8135372
▁varit	8012809
▁andra	7959827
et	7824209
▁hem	7781341
▁ni	7759922
▁någon	7748229
▁år	7747200
▁sen	7745829
▁även	7708956
▁går	7631309
▁gör	7602686
▁blev	7576890
▁se	7564469
▁helt	7530401
▁gå	7398278
▁Och	7394011
▁I	7370653
ens	7365800
▁många	7302183
▁dag	7275530
▁hela	7242678
▁sin	7025999
▁mot	6896382
▁Nu	6886058
▁två	6839952
▁måste	6779451
▁sedan	6723867
▁–	6718878
▁vet	6714989
▁runt	6712755
▁igen	6656392
e	6623423
▁Den	6600038
▁vid	6586002
ade	6538947
▁oss	6535661
▁Så	6529534
▁kom	6514859
▁själv	6502920
▁detta	6420534
an	6329011
▁dem	6315281
▁några	6227169
▁utan	6173123
▁mitt	6140856
▁gick	6078463
a	5885869
at	5872617
▁Har	5857259
▁kanske	5807015
▁En	5738389
▁väl	5634359
▁nog	5591789
ande	5465898
er	5417058
▁säger	5405665
▁innan	5403380
▁:	5317452
▁tycker	5263650
▁ser	5232512
▁mina	5230940
▁riktigt	5175245
▁tid	5174242
t	5171286
arna	5134322
▁fram	5115711
▁ner	5103415
▁verkligen	5016236
▁del	5005560
▁denna	4930075
▁åt	4926189
i	4896211
are	4763777
n	4725411
ad	4725193
▁väldigt	4718694
▁just	4644942
▁De	4642307
▁första	4639415
or	4598923
▁Han	4580187
ning	4562307
▁nya	4457737
▁För	4435528
es	4416170
▁aldrig	4404350
o	4400554
▁alltid	4395920
▁annat	4296342
erna	4234178
▁hemma	4231612
▁rätt	4224490
▁ingen	4208830
▁gång	4173564
▁ändå	4142289
▁När	4104689
▁honom	4088818
▁dagen	4068119
d	4058670
▁dig	4016533
▁eftersom	3998870
▁bättre	3981291
▁tror	3910467
in	3883582
▁fått	3786343
▁kunde	3782955
▁S	3774279
▁faktiskt	3771354
▁tog	3743057
▁tiden	3740268
▁tar	3721939
▁vilket	3721243
▁barn	3719514
▁komma	3695462
▁Är	3694167
▁henne	3688560
▁gjort	3655892
st	3637655
▁ganska	3635329
▁sina	3608887
▁kunna	3603065
▁känner	3592153
na	3581349
▁gjorde	3579162
▁saker	3578539
▁/	3568497
▁känns	3566194
▁er	3549202
▁liv	3542506
▁Idag	3531722
▁meter	3525274
h	3519458
▁olika	3512987
▁säga	3481355
▁ligger	3455989
▁genom	3421977
▁skolan	3421226
▁fall	3407105
y	3404514
de	3401813
ig	3398607
▁haft	3387968
▁sätt	3379770
▁T	3368951
is	3345649
▁familjen	3338009
▁ny	3315978
▁samma	3294230
▁Att	3280607
▁sitt	3250255
▁hos	3233187
▁stor	3231632
▁L	3229292
▁K	3154836
▁dock	3152700
▁tre	3145631
▁igår	3144268
▁tillbaka	3141711
▁M	3135255
▁mellan	3133556
el	3132354
on	3117563
r	3101514
▁havet	3069529
▁redan	3066881
ningen	3052983
▁varje	3047420
▁B	3042772
▁bort	3038515
▁ute	3037901
▁inget	3030378
▁lika	3008166
▁vår	3003974
▁människor	2986547
▁Om	2977137
▁Hon	2965660
ades	2962002
▁kvar	2943516
▁precis	2942609
ing	2928054
▁snart	2925831
▁dessa	2923571
▁mat	2912593
▁D	2902730
▁kul	2893602
it	2880601
k	2850205
▁hans	2837232
da	2823444
▁tag	2822328
p	2819355
▁behöver	2816123
▁ingår	2814835
▁ur	2810955
▁P	2796799
▁mamma	2793005
ets	2789920
▁folk	2782864
▁bästa	2776946
l	2740292
▁sitter	2727815
▁På	2726089
m	2702886
▁t	2692298
▁mest	2683482
▁börjar	2680397
u	2672444
▁länge	2668180
▁stora	2666730
▁Sen	2666556
▁hoppas	2646983
▁Man	2645846
▁ja	2637830
▁liten	2628534
▁imorgon	2621104
▁H	2615075
ta	2614315
▁flera	2613305
▁först	2589231
▁sa	2576948
.	2574264
▁R	2561424
▁annan	2558312
ans	2558083
v	2551528
▁både	2538274
▁Ska	2533726
▁G	2529693
▁bilder	2518656
▁par	2508718
▁nästan	2503834
al	2483602
us	2480222
▁ville	2467517
▁slut	2466568
ra	2460615
▁tidigare	2450583
iga	2448535
▁började	2434219
▁blivit	2433156
▁km	2428621
▁typ	2415971
▁skriva	2394700
▁Efter	2393535
▁per	2393375
orna	2379101
▁dagar	2376362
▁gott	2368412
b	2368325
lig	2364564
ningar	2353077
▁senare	2351961
▁ännu	2342132
▁skönt	2339360
▁Som	2334704
▁såg	2323129
▁längre	2318842
▁A	2313085
▁ge	2310661
▁massa	2308646
▁inom	2305806
▁F	2293364
▁äta	2287695
▁släktet	2283351
iska	2281789
▁veckan	2272410
▁lång	2268959
▁hennes	2268914
f	2267900
▁större	2263729
▁börja	2254318
▁åka	2254254
▁skall	2242887
▁helst	2240895
▁sista	2227364
▁vecka	2224086
▁svårt	2211137
ligt	2203833
▁istället	2201187
▁ens	2199770
ats	2199586
g	2199570
▁gått	2198466
ia	2196674
▁bland	2185593
▁egentligen	2184300
▁hel	2165345
▁Då	2161458
▁fort	2151694
▁står	2151538
▁Sverige	2148681
▁lätt	2142813
▁kväll	2133649
▁1	2128908
▁fel	2128592
▁fast	2126650
ers	2112765
▁N	2105796
▁tänker	2103326
igt	2100590
era	2091927
▁mindre	2083573
▁C	2080645
▁Ja	2072655
ts	2058995
▁jobb	2052481
▁glad	2050614
▁små	2050220
▁klart	2047453
▁plats	2045249
liga	2039742
▁ibland	2025410
▁sova	2014006
▁fina	2011051
▁a	2010608
▁deras	2005720
▁trött	2003705
▁beskrevs	2001086
▁alltså	1995529
des	1994678
▁alls	1994328
▁ihop	1992201
▁o	1989194
ka	1986201
▁hand	1984640
▁s	1984314
c	1982552
▁p	1981403
▁fin	1979647
▁fortfarande	1979280
▁ofta	1978938
▁film	1978252
▁gäller	1977666
sk	1974523
▁samt	1973631
os	1968566
▁tillsammans	1962545
▁lägga	1958325
la	1950649
▁försöka	1945431
▁våra	1944127
▁nästa	1941758
▁varför	1937567
te	1930683
▁ger	1923192
▁livet	1918861
▁gången	1916698
isk	1915434
▁V	1915221
▁Inte	1909093
ste	1906958
▁tills	1892613
▁Här	1886165
j	1883724
▁vänner	1880869
ä	1877511
▁direkt	1875820
:	1868604
▁tänkte	1867359
▁an	1862332
▁invånare	1860835
▁därför	1852991
▁väg	1852474
▁n	1846966
▁d	1846486
▁svenska	1845565
ik	1844587
▁sagt	1842672
▁Var	1839586
z	1829549
▁håller	1828222
▁jobbet	1827323
▁bild	1820832
▁hålla	1816148
▁trots	1815881
▁älskar	1808100
▁Vad	1807846
aren	1805200
▁Hur	1797516
▁inför	1778291
▁gånger	1777729
▁stan	1775552
▁inlägg	1772104
▁m	1763830
▁satt	1763440
▁stund	1757653
▁lilla	1757068
▁enkelt	1756439
▁Ett	1751460
▁problem	1750752
ed	1748554
▁kort	1747472
nas	1746322
▁kommit	1739733
▁gärna	1722375
▁åkte	1721226
▁kvällen	1719778
▁roligt	1715619
▁tur	1711467
▁Min	1707666
den	1705740
▁fler	1704721
▁blogg	1703746
▁sett	1693640
re	1693333
um	1689908
▁iväg	1680241
arnas	1679616
▁5	1678470
▁din	1674799
ch	1673054
▁tänka	1672382
ns	1671684
▁köpa	1669904
▁nytt	1668757
▁E	1664434
▁mål	1662551
▁långt	1662361
▁egen	1659129
▁k	1658082
▁heller	1657525
▁pengar	1656062
▁pappa	1654728
▁senaste	1654567
▁Du	1653428
ne	1643857
ter	1643574
▁läsa	1633388
▁morgon	1632522
▁b	1629708
ernas	1627361
▁ord	1623040
▁enligt	1616818
▁procent	1611568
▁vidare	1610260
▁liksom	1608371
▁enda	1604628
▁dit	1604335
▁all	1602443
▁Detta	1598260
om	1598178
▁framför	1594825
▁samtidigt	1592695
▁dags	1592587
▁nära	1591389
S	1578829
▁stort	1576537
▁sak	1571512
▁g	1558208
▁närheten	1554750
▁hitta	1552985
▁själva	1549951
id	1549519
▁ont	1544500
▁brukar	1544350
▁händer	1542438
▁timmar	1542286
▁högsta	1539956
▁kl	1538876
▁jätte	1534810
▁båda	1527879
▁h	1523331
ur	1523134
▁O	1516654
▁r	1516232
▁borde	1514228
▁e	1509194
är	1508795
▁halv	1504606
▁vart	1504495
▁känna	1502831
▁sjukt	1502639
erade	1500927
▁jobba	1498811
▁fyra	1495631
▁skriver	1491409
▁kolla	1491063
▁fint	1483425
ma	1482777
▁Med	1481128
andes	1480753
▁året	1480615
▁varandra	1475126
▁handlar	1474484
▁gillar	1473578
▁helgen	1470747
▁förra	1470190
sa	1465276
▁god	1463849
ag	1461681
▁ikväll	1458027
▁dessutom	1446231
▁vissa	1435589
▁inne	1434023
▁inga	1433774
▁Kan	1433677
▁låg	1430735
▁gamla	1429802
ie	1429140
▁vatten	1425776
nings	1421148
▁sängen	1418864
▁snabbt	1413175
▁tagit	1411304
▁fem	1406052
▁världen	1405027
▁ifrån	1403540
ion	1403438
il	1402728
▁sätta	1396006
▁bloggen	1390766
ss	1388656
ic	1387394
▁vilken	1385132
▁J	1381657
▁punkten	1378786
der	1372577
sta	1365599
ilometer	1362623
ot	1361685
▁kvadratk	1361209
▁fanns	1355517
ut	1352037
▁person	1351467
▁bil	1351364
▁extra	1347755
▁st	1334180
▁grund	1333316
▁igenom	1330806
▁början	1330400
kar	1330103
▁verkar	1329952
▁hjälp	1328130
sl	1327158
ol	1326563
▁f	1325563
▁v	1323293
ist	1322672
▁hus	1320080
▁vanligt	1317527
▁kände	1315010
iv	1314901
▁2	1312863
▁l	1312791
▁hög	1311452
▁tyckte	1311312
▁Sedan	1310268
▁otroligt	1306496
▁familj	1301913
man	1301413
lar	1299265
▁himla	1299067
▁bok	1296998
erat	1295892
ier	1292985
▁personer	1291869
ent	1290683
▁vägen	1290502
▁	1288134
▁sitta	1288020
iskt	1284671
▁kronor	1280824
▁W	1279884
▁rum	1279286
▁vän	1278626
▁barnen	1273747
▁egna	1273130
▁c	1271463
▁dess	1269851
▁val	1266418
▁sex	1266385
▁Stockholm	1261172
▁emot	1260717
ant	1260406
berg	1259517
▁exempel	1253879
andet	1252249
▁veta	1249869
▁igång	1248382
▁sk	1246150
w	1239792
▁visa	1239251
▁form	1236678
T	1236476
ken	1236067
▁visar	1234280
▁dra	1234228
▁sjuk	1231570
▁musik	1230038
▁alldeles	1226801
▁kläder	1225688
▁tv	1224834
▁stå	1224688
▁vem	1221663
▁namn	1219331
▁bor	1216323
im	1214481
em	1211118
▁veckor	1210237
▁kroppen	1207429
▁ar	1206628
ars	1206323
op	1204652
sen	1204130
▁försöker	1201665
am	1200557
ul	1198823
▁tänkt	1198751
▁ned	1193802
▁tro	1193532
▁St	1192526
2	1191034
▁lär	1190149
▁OCH	1187456
▁fråga	1187179
ska	1179584
▁vilja	1179367
▁annars	1177647
▁Igår	1176997
ro	1174856
▁3	1173451
▁lag	1168927
▁äntligen	1167079
▁Runt	1166552
▁frukost	1165434
▁säkert	1164077
▁iallafall	1162864
å	1160807
kt	1159897
▁dåligt	1157630
▁medan	1157008
erar	1154673
▁Till	1153697
3	1148946
för	1148801
▁vårt	1146726
▁Kanske	1145675
4	1143968
▁bör	1138447
▁Eller	1134406
ds	1131140
▁Alla	1126263
▁pass	1125191
▁åter	1124777
ingen	1124605
▁sommar	1124340
▁fixa	1123424
▁minst	1121520
▁jul	1121106
▁fan	1119702
▁nöjd	1118388
▁Även	1118337
▁vilka	1115937
▁Ni	1115266
ir	1115056
▁full	1115027
▁största	1114386
ja	1111257
8	1107784
▁spel	1107757
het	1104581
▁4	1102769
ors	1102626
gen	1100662
▁träning	1100101
▁börjat	1097130
nar	1097008
▁natt	1094625
▁klar	1094599
A	1093931
▁skit	1092955
▁stod	1089780
▁träffa	1089274
▁jävla	1088647
▁sp	1087680
▁12	1087357
▁huvud	1086219
▁helg	1084961
▁nej	1084492
▁tidigt	1081965
D	1079920
▁hår	1077792
▁Där	1075568
▁träna	1074852
▁möjligt	1073051
▁landet	1071179
▁la	1069786
▁prata	1068686
▁Hade	1067626
▁el	1063760
▁bilden	1063755
6	1062648
än	1056232
▁delen	1053755
▁bakom	1050834
▁lunch	1049396
ell	1048337
▁bäst	1046416
▁å	1045103
▁middag	1044028
▁viktigt	1043518
▁Hoppas	1038798
1	1036270
▁speciellt	1035335
▁samhälle	1034462
x	1030698
7	1029644
5	1028547
▁flesta	1022040
9	1019399
▁världens	1017059
▁al	1016517
talet	1015466
erad	1013820
ation	1012726
▁kommun	1012656
▁väntar	1011800
stes	1011631
un	1011603
▁sånt	1011046
ningarna	1004176
▁förstår	1003704
▁solen	1003009
▁blogga	1002963
▁trodde	1002499
ett	1001528
▁använda	1000675
▁före	998928
▁soffan	998487
▁kändes	998425
EN	996348
▁Under	992386
▁köpte	989689
▁Göteborg	989688
▁bo	989151
▁sådan	986624
▁sol	983639
ina	982900
mar	981650
▁hit	979829
▁växer	979292
▁död	978316
pa	976288
▁frågor	975603
▁hör	975028
br	972708
▁kärlek	972611
▁tio	971742
▁spela	970846
▁åker	965512
▁fredag	962720
▁Terrängen	961783
▁orkar	961253
od	961031
ö	959837
sp	959438
▁sverige	955884
é	955829
▁skrev	955389
▁tyvärr	954172
▁dagarna	954053
▁land	953825
ys	952963
▁ovanligt	951830
▁innebär	951693
ien	950801
▁Ch	948748
▁'	948205
▁huvudet	946030
▁Vill	940049
▁Just	939905
▁bilen	939833
▁menar	938794
og	938553
▁j	938391
▁huvudsak	936959
rat	935020
▁klara	934125
▁lever	930760
ke	929527
▁ATT	928796
▁EU	927927
▁håll	927805
and	926025
▁utanför	924626
▁klockan	923980
sson	923592
▁nån	923041
▁lugnt	922884
ang	920387
▁kör	920011
ör	919907
ov	919586
▁drog	919315
▁gav	918313
▁frågan	918159
ionen	916064
▁sidan	915417
▁berg	913643
▁kvinnor	912392
▁Nej	910555
▁köra	910117
▁sn	909652
▁borta	908759
▁leva	908461
▁berätta	907256
▁ungefär	906626
▁tack	904457
▁JAG	903486
▁15	902023
▁någonting	901642
▁färg	901422
▁sommaren	899028
▁ljus	898867
▁natten	898613
▁timme	898300
nat	897726
▁kr	897450
▁lära	896607
ga	896392
▁titta	896126
tt	895141
▁knappt	893514
▁fl	892293
▁fortsätta	891972
▁kropp	890557
ala	889408
men	888860
ten	887557
▁jobbar	886363
▁företag	885360
ger	883280
▁bl	882593
▁super	881650
▁män	881236
P	881131
▁låta	880859
▁10	880644
▁mår	880096
ares	878225
▁sov	875889
▁fullt	875148
▁USA	873854
art	872977
▁förstå	872763
▁miljoner	872390
nad	870537
▁särskilt	869938
▁sida	869612
▁tr	868230
yn	867705
▁låter	865105
▁äter	864913
B	864532
▁vis	864265
rar	863603
▁Allt	861063
▁DET	860985
le	859689
nade	858439
▁omkring	858112
▁lägger	857429
▁sv	857302
▁sl	855234
▁sluta	853892
▁nämligen	852256
▁6	852154
▁morgonen	851918
▁tjej	848395
▁hänt	848388
▁hjälpa	846153
G	845753
▁boken	845462
▁visst	844988
▁minuter	842406
▁spelar	842375
▁absolut	841606
E	841262
K	838166
▁må	837405
var	837161
▁Lite	836909
▁svensk	836688
ak	835290
▁nåt	834839
bo	834737
io	834144
▁sån	833667
mer	833553
▁sade	831300
▁trakten	831055
▁kunnat	830512
das	828876
▁tanke	828162
▁väder	827458
▁steg	826880
▁Sk	826848
▁br	826211
▁höra	824654
ill	823635
▁litet	821293
ingar	821066
▁delar	820000
ika	818513
▁be	817131
▁höll	815438
▁ensam	814564
▁20	814305
eras	812887
▁13	812272
rade	812056
▁Kommer	811304
▁månader	809956
▁dagens	809938
▁hittade	809921
▁arbete	809432
▁vin	806961
▁såklart	806039
AR	805467
ha	805206
▁slutet	803556
▁kring	802943
▁“	802008
ings	800956
L	799270
kl	798612
▁jobbigt	796842
▁vaknade	795464
▁Fast	795338
▁ätit	794737
▁platt	794322
eg	791840
▁Fick	790327
år	789574
▁roll	788395
▁huset	787924
▁läser	787523
sm	787287
▁välja	785789
▁ögon	785221
▁massor	785129
▁följa	784432
▁uppe	783163
▁Denna	782701
▁filmen	782540
ker	782449
M	782060
▁ditt	781384
▁stället	781322
▁energi	780547
▁satte	780037
▁perfekt	779743
▁tankar	775993
ER	775416
▁föräldrar	774617
▁Av	774583
▁dålig	774532
▁ena	773969
▁skola	773745
▁Kom	772437
▁far	772135
▁månad	771619
▁Imorgon	770960
▁förut	770701
▁säng	770386
dr	768081
▁000	767704
sb	766385
▁mysigt	765250
ornas	765067
▁Br	761333
▁Får	761319
▁ben	759716
▁Bara	759600
▁okej	758518
▁magen	757929
▁anser	757253
kade	756848
I	756725
▁Varför	755267
▁Vet	754362
▁Sitter	753988
▁ingenting	753453
▁sju	753159
yr	752815
▁vänta	752805
▁hittar	752564
▁goda	752181
▁beslut	752063
▁lämna	749878
▁intressant	748563
▁låt	746884
▁värld	746377
▁heter	745922
▁resa	745853
se	745389
ud	745333
▁resten	743365
▁stad	742810
▁hund	741803
▁ytterligare	741040
▁PÅ	740644
▁ö	739670
F	738018
est	737654
▁ligga	737247
▁visste	736170
ras	734770
▁lugn	734764
▁kompis	733191
▁ex	732261
▁någonsin	731131
▁EN	729886
▁prov	729416
▁rör	728939
son	728386
▁Z	726451
▁Dessutom	726324
▁människa	725571
ok	725393
▁betyder	724623
▁rädd	724267
▁Ha	722956
bl	722273
▁Jo	722200
ip	721644
▁drar	720934
ering	718691
▁Trakten	718173
lade	717880
del	717813
▁passar	717562
▁Al	717314
▁endast	715737
▁behöva	714838
▁stöd	714605
▁plan	714318
▁plugga	712712
▁In	712354
sts	711235
▁ÄR	711189
▁sam	711036
▁förbi	711026
▁spännande	710437
▁bar	709299
ser	708823
▁åren	708494
▁skrivit	707897
▁7	707776
▁visade	707716
gar	707614
ins	706761
▁söndag	706091
N	705999
▁djur	705820
▁arbets	705126
▁hårt	704522
ling	704316
ät	704302
heten	703538
▁bär	703297
▁kuperad	702279
▁promenad	702076
▁tips	700935
▁lördag	699605
▁svart	697949
▁eget	697814
▁plötsligt	697759
C	697282
V	695581
▁El	695249
▁tredje	694638
▁at	694304
▁sådant	693865
▁besök	693121
▁kaffe	693020
ev	692347
▁bussen	692133
▁springa	690751
▁består	690514
▁FÖR	690490
ket	690167
nen	689878
▁skol	689751
ster	688808
ioner	688571
▁datorn	688095
land	687111
R	687004
ver	686216
▁ro	685162
▁oftast	684850
▁vattendrag	683715
▁långa	683440
ara	682427
iva	679868
▁bad	679683
va	679254
▁dina	677383
▁måndag	677156
ast	676544
▁förs	676414
▁11	675161
▁illa	674237
av	673398
ena	671206
▁re	670651
▁saknar	668509
▁vore	668449
▁böcker	668041
▁förstås	667823
▁14	667551
▁äldre	667420
O	666441
▁självklart	666242
ord	665890
▁håret	665380
▁bloggar	664105
▁varmt	663990
par	663814
▁te	663333
▁snö	663158
▁ra	663147
▁tråkigt	660527
by	660511
▁Ibland	659747
▁Många	659712
▁social	659403
▁Hej	658883
▁hunnit	658641
▁norr	658636
▁sist	657490
▁match	657011
▁grupp	655942
▁Ingen	655906
ner	655414
▁hinner	654447
▁strax	654267
ex	653970
▁gammal	653715
▁sent	652461
iet	651945
ian	651631
dag	650951
▁önskar	650695
▁nå	650372
▁8	649821
▁svar	649185
ister	647836
▁antal	647754
▁läst	647700
▁rolig	647537
▁kn	647459
▁däremot	646257
kat	646209
▁Eftersom	645718
▁konstigt	645669
ce	644973
per	644544
bar	644208
ber	643971
▁syster	643561
H	642781
▁sådana	642663
str	642570
ons	641155
ström	640325
▁omgivningarna	640290
▁vanliga	640018
▁samhället	639678
▁trevligt	639534
▁w	638872
▁använder	638568
▁sover	636352
▁Närmaste	636015
▁känsla	635689
its	634793
kas	634427
rad	633917
▁mera	632130
▁tt	632116
▁namngivna	631559
▁vila	630572
▁18	629480
▁glesbefolkat	629464
▁fungerar	628555
▁Blir	628152
▁Enligt	627647
▁and	627475
tr	627155
▁resultat	625409
0	624630
▁huvudsakligen	624190
sh	623957
gr	623789
▁An	620339
▁kollade	620273
▁Dock	618694
AN	617774
▁lat	617681
ek	617496
▁samman	617219
▁ordning	617185
else	616971
▁körde	616505
▁försökte	616430
▁lyckas	616423
▁mesta	616312
▁et	615780
ata	615206
▁topp	614406
▁länder	614018
pen	613900
eln	611771
▁bestämt	611562
▁Skulle	610172
▁ej	609879
▁skapa	608184
▁kilometer	607464
▁Måste	607219
▁pratade	607201
net	606694
▁vär	605481
▁häst	605312
▁nyss	605270
▁16	604410
▁spelade	604314
▁La	603746
▁via	602431
▁U	602344
ET	602177
▁underbar	601866
▁fest	601787
ller	601759
▁sväng	601577
▁undrar	601277
▁sm	600909
▁ihåg	599343
▁pl	598559
tar	596384
▁syn	595946
▁hopp	595550
▁underbara	595464
▁berättar	594286
▁for	593596
▁viss	592906
▁tal	592898
▁SOM	592588
▁hämta	592555
ätt	592501
▁information	591939
ium	591195
▁underbart	591182
▁skull	589722
▁Känns	589427
▁Blev	589232
äm	589210
▁förutom	589187
▁tydligen	588957
▁ställa	588616
▁slutade	588226
▁vädret	587548
▁Y	587521
▁gymmet	586665
▁Kanada	585686
hus	585654
▁Ta	585488
▁fotboll	585458
ism	585430
sn	584969
▁lyssna	584683
ck	584388
▁ledig	584132
▁Ar	583630
▁the	583591
anden	583176
▁språk	582902
ost	582804
▁trevlig	582637
▁höst	581793
ön	581502
▁väljer	580926
▁möjlighet	580582
▁fortsätter	577772
ighet	577675
▁besk	577273
▁fr	577237
▁17	576077
pl	575818
▁lyckades	575694
▁9	574752
und	574694
▁hann	574652
▁lagt	574273
▁kille	574155
▁Gud	574052
▁flytta	573719
▁ca	573652
▁vann	573206
▁förslag	572904
iken	572532
▁stanna	572143
▁allra	571705
▁öppna	571653
▁sjö	571477
▁framåt	570691
▁behövs	570459
U	569893
tal	569766
▁lättare	569527
▁tittar	569336
▁polisen	568926
▁mannen	568311
▁Vid	567517
sv	567456
▁Hans	565985
▁pratar	565825
▁bak	565697
▁koll	565155
▁stark	565009
▁The	564518
ob	564473
▁reda	564250
▁Europa	564134
kr	564122
▁or	563825
▁köpt	563716
ard	563594
sten	562952
▁byta	562924
▁Toppen	562622
▁pris	561865
▁Tänk	561556
▁ansvar	561069
▁ordentligt	561053
▁ka	560687
▁sådär	560548
tes	560353
▁Bo	560044
▁utav	559528
▁högre	558454
▁politiska	558384
▁staden	557910
▁Först	557256
▁Därför	556973
én	556425
alt	556282
▁framtiden	555947
▁Tack	555313
lag	555111
▁bilderna	552884
▁rad	552251
itt	552039
▁behövde	551998
▁tvungen	551884
▁chans	551765
▁finnas	550516
fl	550136
▁anledning	549491
▁åtta	549372
▁högt	549302
▁nere	549257
pt	548628
▁ber	548243
▁kontakt	547945
▁bit	547911
▁Visst	547243
▁hoppa	546151
▁ses	544438
ri	544289
ow	544224
alen	543173
▁regeringen	543127
▁härligt	542848
▁of	542591
▁vikt	541534
▁vanlig	539325
▁känslor	539073
lighet	538945
▁kvinna	538431
▁söder	538254
▁tjejer	537911
ī	537753
▁beror	537486
▁glas	537257
▁värt	536882
pp	536859
▁undan	536809
▁försök	536573
▁klass	536497
▁passa	536279
▁30	535811
▁konst	535689
yl	535293
▁mor	534859
▁Mar	534663
ung	534222
▁projekt	534213
▁maten	534025
▁såhär	533818
▁gr	533735
▁pr	533551
▁slå	533197
▁ch	532593
▁lov	532438
▁stallet	532366
dar	531551
▁liknande	530989
▁skön	530393
sam	530228
▁års	530097
▁li	529765
▁dricka	529285
▁roliga	529265
▁utveckling	529058
ick	528849
äng	528251
▁tänk	527599
▁Le	527360
▁hände	527054
ren	526675
all	526447
▁skillnad	526303
sr	526134
▁van	525738
ads	525631
▁kollar	524894
ph	524827
▁fika	524074
ff	523914
▁klarar	523721
▁Mitt	523286
ac	523271
▁bygga	523156
▁varm	522999
ll	522987
▁skor	522564
▁därmed	522469
▁njuta	522214
▁somna	521831
▁seg	521395
▁dans	521204
▁råd	521078
▁vinter	520843
▁oc	520747
▁behov	520686
orn	520576
upp	520352
▁Sveriges	520296
▁godis	520168
ott	520103
▁kraft	519632
▁handla	519196
▁kultur	519072
▁hjärta	519056
▁favorit	518670
▁dela	517450
▁kär	517286
nes	517231
▁aning	516765
fr	514772
▁tittade	514441
▁ren	513537
▁förr	513007
pr	512685
▁längtar	512521
▁riktig	512257
▁hösten	512224
▁u	512145
▁matchen	512021
▁maj	511838
if	511450
las	511308
▁kallt	511282
ån	510813
▁lägenhet	510446
▁program	510074
▁totalt	509794
▁sätter	509611
äg	509203
äs	508395
▁tycka	508304
▁allting	508143
▁träningen	507689
ug	507576
▁mormor	507526
▁älskade	507526
▁kon	507032
▁unga	506858
ort	506812
▁känslan	505722
ou	505226
ā	504903
▁slog	504760
▁tillräckligt	504648
▁Annars	504210
▁flyg	503155
▁blod	502441
▁vare	502279
▁Trots	502028
▁ringde	501485
▁betala	501103
▁rent	500126
iker	500039
▁ledsen	499918
▁hittat	499721
▁fantastiskt	499718
▁känt	499120
▁Cerro	498011
▁vit	497174
▁hända	496799
▁Tror	495966
▁historia	495813
ab	495775
ust	495709
▁annorlunda	494952
▁Lac	494588
bb	494230
▁vackra	493956
ationen	493954
▁planer	493765
▁vattnet	493734
▁minns	493659
▁poäng	493640
▁Upp	493391
▁Känner	493310
▁nått	492593
▁svara	492176
▁frågade	492161
▁frisk	491838
els	491388
▁dator	490975
▁Lake	490875
iss	490678
▁född	490567
ef	490519
lat	489463
ong	489189
vis	489040
▁hinna	488979
▁exakt	488701
▁slag	488637
▁värsta	488627
▁säker	488419
▁Kūh	487884
▁tom	487863
▁valde	487660
▁SÅ	487193
▁Se	486858
mat	486717
▁antalet	485997
▁krav	484923
▁härlig	484562
▁Ser	483465
▁rummet	482753
je	482581
ationer	482335
▁viktig	482227
▁hört	482207
▁start	482126
▁grejer	481915
ine	481760
ica	481651
▁skogen	481647
ft	481504
terna	481385
▁bestämde	481354
▁kompisar	481170
▁sällan	480289
▁viktiga	480273
▁snabb	480050
▁väster	479954
▁laget	478850
öt	478829
▁Ö	478379
ång	478242
▁Tänkte	478070
itet	477743
▁son	476952
äck	476803
▁ända	476615
he	475954
▁främst	475653
▁toppen	475101
äl	474282
▁grej	473847
åg	473099
ret	472966
▁ögonen	472818
▁öppet	472817
▁so	472736
▁miss	472518
ella	472203
▁slutar	472064
▁makt	471317
aste	471190
▁åtminstone	471080
▁torsdag	470612
▁kalla	470591
▁semester	470447
▁engelska	469953
▁höger	469676
ST	469536
▁varken	469175
▁Två	468923
kad	468255
▁hej	467793
▁Tr	467643
▁hörs	467373
ps	466468
▁Samtidigt	466367
▁Finns	465799
ann	465241
▁personen	465126
▁höga	465113
ös	465000
ås	464945
▁vinna	464659
▁TV	463843
▁dörren	463670
▁kära	463415
▁läsare	463239
▁ande	463204
▁Tycker	463185
J	462333
▁lärare	462110
▁testa	461793
▁lust	461761
▁rida	461590
▁värre	461387
▁övrigt	461121
▁mobil	460743
▁str	460404
uk	460102
▁snygg	459981
▁följer	459685
kan	458813
▁sömn	458674
ikt	458524
▁samtal	458335
▁Mycket	458311
▁telefon	458131
▁svår	457801
oc	457016
▁miljö	456908
▁internet	456400
▁hjälper	456270
▁Sch	456130
▁städa	456079
▁MED	455356
▁tala	454983
derna	454800
ass	454784
▁vänster	454713
▁förhoppningsvis	454534
▁någonstans	454427
▁Själv	454334
▁long	454257
▁cirka	453495
igare	453412
▁ting	453336
▁fri	453173
▁naturligtvis	453029
▁förmodligen	452912
▁tätbefolkat	452361
▁led	451907
ions	451452
▁politik	451380
▁köket	450853
▁Å	450829
▁imorse	450773
▁lyckats	450457
▁jobbat	449967
▁terrängen	449803
▁INTE	449531
▁25	449518
▁funkar	449015
▁sovit	448972
▁dåliga	448769
▁rygg	448714
▁träffade	448378
▁red	448219
▁Sp	448090
▁fot	447802
▁regn	447681
▁dö	447586
▁sydväst	446926
▁spelare	446164
me	445810
▁talar	445805
▁Anna	445629
▁Ut	445612
▁is	444997
▁årets	444390
▁öster	444315
ks	444163
▁TILL	443905
▁inlägget	443850
▁verk	443773
▁mysig	443118
akt	443112
▁nordost	443048
agen	442002
▁un	441543
ida	441113
▁ordförande	440995
idae	440733
▁nio	440648
▁sönder	440199
▁bredvid	439897
▁tanken	439464
ba	439372
▁Sa	438731
▁0	438730
▁arbetar	438690
of	438676
▁fokus	438468
▁vakna	437755
▁våren	437138
▁New	437072
▁res	436608
jer	436075
▁sämre	435964
bel	435540
▁sugen	435117
▁sprang	434974
▁Johan	434901
▁lagom	434562
▁fyller	434533
▁vita	434180
▁Snart	433988
▁brott	433943
▁;	433658
▁somnade	432417
▁polis	432322
▁Helt	432112
▁Mo	432065
▁Bra	431786
▁räcker	431603
ah	431440
▁Sh	431198
▁beroende	430938
ess	430916
istiska	430220
▁mars	430169
▁mar	430166
▁arbeta	429170
▁sker	428700
▁dotter	428049
▁enbart	427716
▁morse	427668
▁ung	427440
▁filmer	426862
eh	426113
▁sten	425630
▁velat	425345
att	425256
▁princip	425215
▁röst	424913
▁mag	424572
▁sydost	424221
▁arg	423782
▁området	423711
▁duktig	423539
▁oavsett	423534
bil	423027
▁gud	422950
▁Bl	422648
iner	422605
▁ställe	422474
▁hittills	422401
▁läs	422333
ich	422141
▁packa	422119
▁berättade	421793
▁ovan	421761
▁möte	421631
▁betydligt	421613
▁Malmö	420257
▁krig	419862
OR	419757
▁synd	419494
▁umgås	419014
▁rakt	418725
▁fart	418513
▁choklad	418382
▁ställer	417944
kon	416631
▁nätet	416449
▁funderar	416230
ana	416170
▁närmare	416159
▁mitten	416154
▁göras	416067
▁leder	416024
▁kommande	415899
▁Dessa	415844
▁ryggen	415736
▁efteråt	415225
▁idé	414768
▁Mina	414481
▁21	414180
▁januari	414148
▁stör	413924
▁försökt	413780
▁tyst	413779
▁onsdag	413704
eri	413698
met	413596
▁Ikväll	413452
▁tydligt	412597
▁Tyvärr	412410
▁inatt	411909
▁lät	411853
▁le	411784
▁guld	411713
▁Ny	411683
ym	411617
▁amerikanska	411593
▁överallt	411530
▁lycklig	411114
▁Fr	411078
▁bror	410950
▁vård	410685
▁taget	410590
▁gett	410495
▁kall	410282
▁dr	410045
▁vardag	409692
▁fira	409460
▁osv	409309
▁blå	408954
▁Någon	408953
▁läste	408823
▁drag	408658
▁pigg	408463
▁met	407388
▁ske	407329
ius	406759
ock	406659
▁slår	406611
▁ringa	406057
▁drygt	405820
▁Något	405509
▁luft	405338
▁Vilket	404910
▁Alltså	404721
▁pga	404429
▁politiker	404163
▁vitt	404149
▁dröm	404011
stad	403550
▁lägenheten	402653
utt	402550
▁spår	402506
▁lärt	402458
▁19	402106
▁Kr	402102
▁stolt	401825
age	401700
▁söt	401621
▁skratt	401616
▁Per	401363
▁ekonomiska	401223
▁fisk	400601
nt	400429
▁slags	400312
▁samband	400024
▁HAR	399960
▁chef	399950
▁ver	399934
▁mys	399925
▁bus	398849
▁intresse	398835
▁glada	398749
▁plus	398625
▁suttit	398394
tid	398161
▁hatar	398132
▁snarare	398124
▁röd	398109
▁hänga	398057
▁VI	397884
▁sociala	397781
▁hälsa	397559
▁styr	397536
skan	397022
▁starkt	396670
▁miljarder	396622
▁sällskap	396494
▁Från	396323
ran	395754
▁fantastisk	395678
▁natur	395562
▁sy	395509
int	395449
▁lämnade	395395
▁int	395365
▁krävs	395083
▁dels	394894
▁humör	394828
▁ätt	394800
ram	394633
ök	394534
eb	394525
▁Gick	394523
yt	394278
▁sur	394184
▁am	394157
▁Mer	393796
ert	393518
▁gl	393451
ies	393440
▁lyssnar	393283
▁december	393165
ark	392578
min	392068
▁vågar	391986
▁system	391969
▁handen	391947
▁24	390779
▁passade	390681
▁Gr	390584
änd	390432
▁band	390377
pe	390229
cka	390202
Y	389909
▁åkt	389626
▁kräver	389498
▁lösa	389449
▁juni	389215
▁öka	389134
gång	388964
elsen	388926
▁grymt	388783
▁frukt	388551
▁hjärtat	388441
▁numera	388352
▁oerhört	388349
▁ä	388271
håll	388141
▁tävling	388127
▁Några	388019
inn	387939
▁jord	387803
▁saken	386897
▁stil	386625
▁valt	386598
▁utbildning	386345
▁dagis	386343
ora	386171
co	386114
▁närmaste	386058
▁laga	385284
▁runda	385217
öd	384937
huset	384722
ge	384455
▁övriga	384364
▁kunskap	384325
▁kopp	384166
ci	384020
▁papper	383857
▁ol	383549
▁matte	383464
äv	382814
up	382357
▁framtid	382336
▁Pro	382244
▁hundra	382091
ias	381973
▁september	381738
▁dat	381549
▁tåg	381472
▁tisdag	381457
äd	381355
▁eftermiddagen	380595
▁nivå	380457
▁Fredrik	380140
▁ton	380121
▁golvet	380121
▁Första	380011
▁Vem	379920
▁röra	379891
▁pro	379673
▁jo	379642
▁ant	379629
▁ägg	379600
▁viktigaste	378956
▁plocka	378938
▁Peter	378776
▁glädje	378566
kom	377745
▁värd	377245
▁smak	377076
ivt	377003
▁risk	376981
isten	376655
▁ändra	376436
pet	376260
▁text	375919
dagen	375883
▁släppa	375809
▁benen	375804
▁vil	375358
▁Tur	375089
ligen	374868
▁näst	374758
verk	374575
▁klipp	374573
NA	374412
▁nordväst	374316
▁ok	374272
▁parti	373835
▁kv	373784
▁Bar	373631
▁Kl	373616
▁Anders	373611
▁allvar	373474
▁därefter	373193
▁Ber	373179
▁vacker	373050
▁AV	372849
▁glass	372066
▁eftermiddag	371545
ven	371016
▁april	370993
▁riktiga	370531
▁starka	370521
eter	370062
bara	370044
▁100	369517
▁vars	369383
▁mil	369184
dan	369180
▁tåget	369107
▁säsongen	368577
▁50	368531
,8	368425
▁svarta	368178
väg	367906
▁givetvis	367630
ater	367513
iteten	367434
▁Or	367342
▁fundera	366949
▁skatt	366886
▁lek	366855
▁månaden	366750
▁Mamma	366067
ula	365706
▁Am	365514
ib	365445
▁Kina	365362
▁ångest	365249
anska	365070
▁legat	365068
▁22	364954
▁Re	364534
▁em	364533
,9	364381
▁All	364376
▁OM	364094
▁Dagen	363885
▁hänger	363811
rätt	363799
▁Ma	363379
▁skicka	362843
fall	362584
▁glömt	362556
▁plugg	362212
▁resultatet	362057
▁säkerhet	361868
▁mark	361781
▁verksamhet	361549
▁jäkla	361287
▁snäll	361198
nan	360460
▁fett	359567
▁ålder	359464
sför	359421
ige	359414
▁våld	359280
onen	359058
▁snyggt	359043
amp	358973
▁...	358920
vet	358652
▁snygga	358617
elser	358539
▁fil	358011
▁härliga	357897
▁uppgifter	357843
▁period	357757
▁tolv	357730
▁Ro	357489
▁VAR	357166
▁hörde	357101
▁halva	357056
▁exempelvis	356638
▁problemet	356425
öst	356293
▁träd	356030
,7	355866
▁färger	355847
lad	355744
ont	355554
,4	355504
len	355421
ierna	355361
▁vintern	355359
▁frågar	355250
,6	355042
▁möta	354838
▁oxå	354796
▁november	354433
opp	354329
▁kyrkan	353962
▁fantastiska	353590
åt	353452
erades	353356
▁hämtade	352881
▁köper	352779
▁slipper	352631
▁vackert	352310
▁buss	352307
öv	352273
dat	352249
▁situation	352088
illa	352026
▁ko	351768
▁y	351554
▁medel	351368
▁jg	351246
tag	351234
▁förklara	351190
▁Vilken	351079
▁Åh	351040
▁lycka	350928
▁killar	350546
▁brev	350532
▁redo	350503
▁arbetet	350230
▁positivt	350010
▁arbet	349697
▁augusti	349450
▁katt	349144
▁Omgivningarna	348679
▁gäng	348660
▁Älskar	348623
▁mått	348098
det	348021
▁London	347940
demokraterna	347616
ola	347549
▁oktober	347286
▁alternativ	347194
jen	347193
▁Th	347157
▁Sam	346758
▁kött	346572
spel	345486
▁lämnar	345404
ari	345353
▁log	345050
▁mening	344942
▁sättet	344887
▁kar	344536
▁vända	344467
pan	343768
00	343690
▁23	343556
▁Carl	343547
▁resan	343512
▁kommentarer	343377
▁tusen	343131
▁Svenska	343115
▁kallas	343094
▁antagligen	342982
,5	342902
,2	342611
▁prova	342386
yd	342326
▁ort	341736
▁tillfället	341039
ern	340949
▁Hela	340693
ind	340647
▁aktiv	340614
ey	340516
▁möjligheter	340054
▁röda	339356
han	339291
▁leka	339229
▁Ju	339225
iden	339165
▁dum	339091
▁rosa	339068
▁halsen	338994
öl	338927
▁platser	338844
▁tas	338667
▁innehåller	338363
▁era	338231
▁hästar	338080
▁kallar	338035
▁mobilen	337955
iens	337833
▁valet	337564
ko	337313
▁kor	337250
,1	337203
▁bet	337155
▁träffat	337056
▁smått	336636
▁uppgift	336567
▁län	336452
▁extremt	336377
ningens	336052
▁bryr	335938
erande	335933
▁--	335200
▁mass	335055
▁Ä	335018
▁värme	334890
kv	334616
vin	334578
▁planerat	334498
▁kallade	334223
oner	334155
▁tvätt	333965
,3	333813
igaste	333797
▁alkohol	333727
▁stat	333062
▁inser	332893
oll	332888
▁me	332868
▁Emma	332813
▁MEN	332782
▁vuxna	332329
▁söka	332116
▁syns	331652
▁banan	331532
▁Däremot	331389
▁slippa	331345
▁tra	331319
▁40	330841
▁tycks	330708
▁betydelse	330396
slag	330232
▁vr	330174
verket	330173
▁senast	330032
▁ökar	329691
▁personal	329650
ca	329643
▁Tog	329530
▁paket	329331
uss	329051
▁används	328932
▁Er	328907
ada	328878
▁jorden	328649
▁tränar	328550
▁våran	328546
▁handlade	328380
▁ljud	328246
ingarna	327746
qu	327655
▁fallet	327595
lös	327301
▁rid	327297
▁juli	327099
▁sälja	327046
▁pengarna	326930
▁president	326881
▁icke	326864
ipp	326769
aget	326218
▁farmor	326026
▁mage	325727
▁fredags	325624
▁skäl	325514
▁pojkvän	325349
kte	325090
▁ma	324939
ära	324620
▁jättebra	324614
med	324571
▁uppdrag	324470
▁bel	324289
▁insåg	324056
▁Precis	324023
iz	324011
▁dusch	323860
RA	323828
▁Tyskland	323813
kel	323662
▁verkligheten	323596
kten	323518
▁skriv	323407
▁elever	323149
▁Väl	323101
▁situationen	323089
▁as	322974
▁bio	322970
▁mm	322958
kta	322694
▁stress	322649
▁press	322570
Å	322565
▁februari	322469
AT	322408
▁tider	322254
▁vaknar	322228
▁hot	322179
q	322036
IN	321895
▁fortsatte	321694
▁hoppade	321569
▁kulle	321224
▁framöver	321121
▁&	321115
▁leta	320904
mor	320823
▁Ka	320769
▁Vissa	320442
▁Finland	320372
▁fixat	320341
▁lik	320328
pel	320276
▁chansen	320238
▁färdig	320032
▁roligare	319951
▁27	319906
▁oro	319902
▁IN	319643
▁bilar	319554
▁rätta	319385
ören	319254
form	319200
▁skär	319089
ix	318713
▁spr	318597
,0	318512
▁skapar	318494
ål	318424
ye	318366
ura	318192
▁Låt	318118
ond	317874
▁enkel	317845
▁to	317750
▁debatt	317641
▁produkter	317476
ligare	317452
▁bygg	317309
▁Gör	317269
gren	317229
ring	316943
▁pa	316783
▁blommor	316605
▁Frankrike	316521
▁socker	316402
▁hen	316340
▁öl	316268
▁Inget	316165
▁respekt	316031
▁botten	315902
▁därifrån	315803
▁förrän	315517
skap	315032
▁barnet	315019
äll	314965
▁Sl	314574
▁Lars	314546
▁hotell	314479
▁köp	314410
ona	314362
DE	314343
▁faktum	314023
tta	313796
▁Gu	313680
▁paus	313632
▁sjukhus	313331
▁fjärilsart	313260
▁hellre	313195
▁väntade	313028
▁jobbade	312683
▁antingen	312640
rum	312584
mål	312561
ita	312547
▁älskling	312525
▁trivs	312285
▁bestämma	312177
▁rädda	312007
als	311944
▁tillhör	311933
▁kollat	311845
AS	311611
san	311573
ull	311559
▁tidningen	311455
▁pol	310949
äder	310912
▁ansiktet	310906
▁kameran	310855
▁snön	310713
▁ständigt	310706
▁26	310502
▁dog	310465
▁söker	310299
▁gratis	310131
▁fattar	309994
▁lade	309907
▁visat	309804
▁sä	309450
▁värde	309448
▁Erik	309332
far	309303
▁recept	308827
▁luften	308432
▁kommunen	308420
▁namnet	308156
▁mo	308080
ubb	307996
▁minsta	307933
▁ig	307659
▁stannade	307651
▁Sv	307646
pat	307355
▁ST	307334
▁rik	307270
▁hamnar	307178
uv	307171
ea	307064
ec	307050
▁positiv	306708
▁ing	306684
▁alltför	306659
▁marknaden	306570
▁gräs	306538
▁by	306340
▁fortsatt	306276
ira	306069
larna	306060
▁Kon	306056
▁fred	305953
res	305942
▁on	305816
▁hundar	305741
▁gen	305707
▁ty	305645
▁ungdomar	305578
▁Tre	305459
▁lö	305286
▁stranden	305052
val	305019
▁utifrån	304982
bart	304962
tel	304849
▁sjuka	304690
▁z	304501
▁Maria	304343
äst	304016
▁leda	303967
▁föll	303453
▁ställen	303420
skr	303409
▁kännas	303386
▁jämfört	303380
▁hunden	303379
▁svåra	303348
yg	303275
ry	303195
▁funnits	303178
▁följde	303077
▁28	302810
▁söta	302629
▁lin	302391
▁ev	302214
▁bröd	302156
aga	301968
▁matcher	301893
▁skoj	301884
▁gruppen	301880
▁VM	301740
full	301468
▁Innan	301396
ila	301220
▁Varje	300711
▁glömma	300591
plats	300543
lan	300307
sin	300287
bet	300276
▁puss	300253
▁Nord	299928
▁klassen	299793
▁springer	299729
▁andras	299614
▁regering	299592
▁flyttade	299509
▁skaffa	299366
▁Vaknade	299295
ay	299244
▁kontroll	299215
▁ly	299159
▁punkt	298961
▁positiva	298881
digt	298683
▁fixade	298660
▁obefolkad	298650
▁rejält	298630
▁faller	298548
isen	298371
▁finaste	298348
▁åsikter	298168
▁trafik	298136
aten	298021
▁väst	297467
karna	297017
▁hål	296982
öj	296614
▁baka	296560
▁kur	296332
▁låtar	296089
▁veckorna	295961
▁sant	295941
tra	295936
▁verkade	295790
▁ledare	295682
ej	295510
▁tvåvingeart	295283
▁straff	295132
▁Går	294909
▁dan	294736
▁Par	294697
IT	294373
▁älska	294325
▁minska	294323
▁marken	294245
▁ifall	293728
▁längst	293647
▁gällande	293622
▁desto	293548
ū	293513
▁räkna	293149
▁John	293137
▁ordet	293080
▁sidor	292979
▁kvart	292865
▁Pa	292850
▁områden	292841
▁spelat	292800
▁galet	292768
lin	292423
▁fru	292001
▁fruktansvärt	291967
▁läkare	291890
▁släkt	291837
▁slänga	291808
igheter	291669
▁mötte	291350
▁mail	291288
let	291197
▁säg	291083
▁tecken	291080
▁Nästa	290990
anda	290847
▁os	290739
▁present	290519
▁starta	290491
▁omöjligt	290485
▁korta	290474
▁fylla	290292
▁kritik	290239
och	290145
▁område	290056
á	290054
▁antar	289956
▁svarade	289850
▁framförallt	289836
▁bygger	289831
▁lovar	289735
▁nord	289513
▁väll	289468
▁fungera	289338
▁Jan	289182
▁hal	289144
▁hjälpte	288763
▁DEN	288737
▁nummer	288667
▁läget	288650
hand	288647
▁platsen	288294
▁Martin	288273
▁Johansson	288232
▁skott	288200
▁bi	288102
▁speciell	288084
▁Q	288034
orer	287966
yll	287961
▁ne	287940
▁mon	287768
▁allmänt	287527
▁andas	287408
▁kvinnan	287387
▁lön	287365
borg	287353
▁Bland	287344
▁Andra	287163
▁orkade	287150
▁revs	287111
▁befinner	287111
▁kommentar	287108
▁bas	286816
▁morfar	286672
▁va	286662
▁sport	286552
▁intresserad	286401
ander	286392
▁ans	286300
ult	286068
▁värmen	285989
▁Co	285778
▁Pr	285602
ide	285581
▁läng	285490
▁svarar	285165
uren	285042
▁varma	284822
▁vinst	284167
mas	284099
▁födelsedag	284076
▁dom	284042
äk	283257
▁orka	283130
▁stycken	283103
ider	282457
▁tacksam	282379
▁ide	282334
▁stannar	282214
uc	282172
lla	282170
över	281744
▁X	281439
▁företaget	281428
▁Fl	281418
ya	281261
▁ir	281170
▁jordbruksmark	281115
▁lördags	281045
▁År	280885
▁Nä	280776
▁Folk	280756
lande	280740
▁huvudstaden	280727
▁dt	280719
▁folket	280636
aler	280319
skar	280279
▁såväl	280277
▁mysa	280059
kor	279606
▁herr	279389
sch	279265
▁fönster	279136
▁lagen	279111
ionerna	279070
▁bidrag	279000
▁säsong	278960
▁hälften	278891
▁intervju	278843
▁öppen	278831
▁kämpa	278731
ON	278671
▁nervös	278628
▁Daniel	278606
Ö	278572
▁människan	278560
unt	278491
za	278097
KA	278023
▁Facebook	277998
▁målet	277893
AL	277823
▁tryck	277674
yck	277639
ju	277560
▁inspiration	277494
▁Ra	277275
▁grym	277267
▁Norge	277219
jan	277217
ske	277213
plan	277120
isterna	277103
▁lämnat	276836
▁regler	276456
▁jeg	276371
▁serien	275929
▁titt	275862
▁sjön	275660
▁Vår	275585
▁he	275493
▁klä	275446
▁Andersson	275314
ler	275169
▁tjejerna	275026
▁förstod	274573
▁stopp	274412
▁relativt	274378
holm	274336
▁tacka	274169
▁Över	274149
▁Ligger	273881
▁sjukdom	273758
▁fas	273726
ansk	273627
▁gråta	273463
▁komm	273402
▁Utan	273340
ften	273284
▁tillslut	273128
astes	272836
▁ring	272771
▁dör	272758
▁användas	272535
▁tillfälle	272460
inen	272418
▁känd	272374
▁partiet	272281
▁bebis	272132
▁scen	272031
led	272001
wa	271754
▁kal	271748
▁pratat	271666
▁påverka	271599
▁duschen	271582
▁vapen	271527
▁dam	271512
▁stats	271440
▁sakta	271416
▁mjölk	271377
ack	271296
▁ställde	271266
örer	271175
▁låten	270977
istisk	270913
▁bevis	270895
▁lös	270884
samt	270384
▁Australien	270133
▁San	270103
▁bära	270061
vär	270055
▁uppdatering	269892
▁Hem	269767
▁inre	269711
ii	269485
▁längs	269399
▁försvar	269339
ygg	269269
▁vaken	269154
▁panik	269108
▁skog	269060
▁shopping	268905
▁idéer	268786
▁uppdatera	268722
▁döda	268427
samma	268298
▁väntat	268130
▁måla	268051
▁feber	268005
­	267988
▁ob	267970
EL	267738
▁normalt	267735
▁DE	267603
▁hård	267577
▁erfarenhet	267553
▁do	267544
▁nyligen	267398
▁privat	267306
tiden	267267
▁29	267204
bild	267102
reg	266834
▁ekonomi	266829
▁sorg	266777
▁knappast	266289
▁centrum	266189
▁kunder	266177
▁ön	266163
ppa	266130
▁Str	265845
alis	265793
▁Ne	265790
ask	265775
ligheten	265699
▁ban	265417
▁loss	265156
▁hän	265045
▁överens	264990
▁York	264962
ekt	264956
▁bordet	264881
▁påsk	264822
▁bröst	264717
▁fjärde	264328
alet	264207
under	264196
▁bolag	264157
▁lista	263931
sst	263897
▁svårare	263689
▁sms	263589
▁lokal	263274
ben	263254
tan	263048
▁dricker	263014
ub	262971
▁minut	262969
▁nuvarande	262876
▁fota	262873
▁växa	262796
van	262694
▁varenda	262642
▁betyg	262438
▁Dagens	262349
▁oför	262279
▁salt	262173
ton	262172
▁nedan	262011
▁tand	261949
▁klubb	261872
▁åtgärder	261789
▁ost	261783
▁tyska	261651
0-	261553
▁kostar	261327
▁material	261245
pass	261184
▁kö	260889
▁ladda	260876
▁mådde	260816
▁takt	260816
▁Danmark	260755
▁bodde	260639
▁Stockholms	260516
ppar	260505
▁serie	260501
▁framme	260347
▁cykel	260262
▁anställda	260243
drag	259999
▁gra	259955
▁kända	259870
▁vinner	259812
▁minnen	259704
▁farande	259692
▁mätt	259677
▁idrott	259590
▁jäg	259240
▁finans	258961
ÄR	258908
▁utvecklas	258818
tur	258734
▁utom	258661
▁nöjda	258656
▁försvinner	258651
lingen	258539
▁still	258450
▁reklam	258374
▁tidig	258372
▁brist	258261
▁tim	258045
heter	258014
▁möter	257878
▁orolig	257821
▁sköna	257819
▁träffar	257816
▁medans	257805
▁skratta	257741
▁gym	257720
rik	257487
uck	257433
▁affär	257056
▁lägre	257024
▁enkla	256869
▁programmet	256812
▁tillgång	256671
▁bord	256479
▁märker	256460
inna	256310
▁Mot	256234
▁sch	256220
▁barns	256195
▁omgivande	256184
▁äventyr	256170
▁jobbig	256105
amm	255923
fullt	255838
▁Genom	255822
▁hästen	255797
▁medlem	255782
▁tränat	255744
▁definitivt	255710
rande	255605
▁restaurang	255421
som	255350
▁di	255308
▁post	255307
▁texten	255112
dra	255072
▁fördel	254972
▁da	254934
▁bergig	254932
▁drack	254899
▁bada	254805
ligaste	254703
ensis	254655
▁hav	254571
▁förändring	254450
nande	254394
åd	254253
▁undvika	254161
▁centrala	254151
▁Ba	254073
▁het	253869
▁munnen	253766
▁duscha	253713
▁kram	253677
▁rå	253582
mark	253445
▁komp	253444
▁högst	253406
▁rättigheter	253185
▁kol	252952
▁prat	252908
▁spelet	252881
▁ste	252826
her	252728
▁facebook	252554
äkt	252462
▁snälla	252431
naden	252425
SA	252315
▁landets	252294
▁slutat	252286
▁Jonas	252174
▁tet	252147
▁ba	251841
enter	251549
▁visserligen	251519
▁inl	251473
▁nyår	251262
uter	251188
▁Mel	251168
▁Sm	250999
▁budget	250985
ärt	250890
▁stack	250889
▁mun	250677
▁utvecklingen	250648
tor	250619
▁försvann	250219
▁vd	250193
▁inv	249763
ore	249359
▁våga	249339
drar	249201
▁Stefan	248949
▁noll	248947
▁franska	248923
▁förl	248840
▁Lund	248819
▁priset	248772
▁Ryssland	248706
▁såna	248685
▁återigen	248598
▁klänning	248556
▁internationella	248548
▁grupper	248531
▁ringer	248503
▁spara	248313
▁Spanien	248306
▁avtal	248269
satt	248167
vän	248106
▁ökat	248079
kades	247939
▁mod	247904
eta	247904
▁Un	247823
▁tjänst	247737
▁mörkt	247727
▁hantera	247652
▁bjuda	247557
▁video	247375
▁He	247185
▁elva	247017
▁hemsida	246468
dom	246442
▁teknik	246244
▁gröna	245893
ismen	245751
lingar	245699
▁bjuder	245516
▁södra	245462
▁europeiska	245337
tera	245239
så	245174
▁julen	245086
▁hud	245029
▁inse	244942
▁balans	244939
▁tor	244748
ü	244745
bär	244730
▁tungt	244706
▁sim	244562
▁sekund	244488
ham	244317
▁yngre	244274
▁SK	244251
▁innehåll	244240
▁lektion	244130
▁grann	244120
▁lån	244016
▁kost	243989
ros	243900
orr	243533
▁her	243512
TT	243474
sel	243474
▁hungrig	243410
▁si	243242
▁Hel	243142
▁Sara	243116
sf	243109
eringen	242931
▁Både	242890
▁affären	242727
ått	242687
▁euro	242671
▁ursäkt	242561
▁lä	242541
▁test	242409
▁sh	242407
klar	242210
▁Förutom	242195
▁förb	242185
IS	242145
▁til	242113
▁mörk	242110
▁kört	241784
▁arm	241399
▁tvätta	241367
ator	241339
pro	240967
▁pizza	240853
▁detaljer	240783
▁förhållande	240658
▁hy	240633
▁tillfällen	240570
oph	240502
▁media	240439
▁tomt	240395
▁hö	240302
▁hamnade	240268
▁grå	240185
▁ungdom	239881
▁Skönt	239693
aden	239591
chef	239581
▁ställ	239550
▁2006	239445
växter	239442
▁förmiddagen	239431
▁marknad	239286
▁dar	239098
▁tränings	239073
▁föd	239042
▁vuxen	238942
▁sand	238858
▁uppleva	238807
öm	238655
▁jävligt	238474
▁ökade	238465
Ä	238340
▁David	238320
▁Istället	238137
▁snabbare	238119
▁lediga	238041
▁satsa	237948
▁uttryck	237880
▁grön	237801
▁Äntligen	237687
▁kusin	237672
erats	237619
▁1,0	237545
▁sovmorgon	237522
▁Be	237488
part	237328
▁Ed	237257
▁leende	237255
▁perspektiv	237178
▁stoppa	237146
arens	237056
▁staten	237047
▁livs	236972
▁startade	236948
▁Förra	236891
▁Car	236854
▁räknar	236809
▁uppmärksamhet	236694
▁möjliga	236636
▁växtlighet	236608
▁kalas	236556
KT	236399
ende	236333
▁Sn	236285
▁julafton	236150
▁hat	236023
▁fara	235997
▁vänder	235987
▁art	235880
▁äger	235814
▁tjock	235806
fter	235782
▁levande	235780
▁slapp	235442
▁tävlingen	235438
▁ed	235334
off	235314
for	235278
▁disk	235099
▁använd	235086
▁drömmar	234947
▁samhäll	234891
▁styrka	234852
▁hemskt	234735
▁musiken	234714
▁Thomas	234686
▁följ	234627
▁utför	234309
▁klippa	234293
▁kors	234237
band	234142
▁killen	234139
ban	233946
▁medlemmar	233943
vägen	233937
▁stämmer	233903
▁fredagen	233857
lands	233828
olog	233426
org	233421
one	233419
▁fönstret	233351
▁2008	233287
▁Elin	233157
▁2010	233080
▁Aja	233059
▁Karl	233056
▁tj	232942
fa	232932
AG	232872
löst	232859
ho	232818
ders	232718
▁fört	232707
rev	232672
▁stått	232600
▁relation	232549
▁Riktigt	232506
▁Jul	232437
qvist	232408
red	232180
▁ot	232000
▁trä	231993
▁SKA	231961
▁lördagen	231875
▁rev	231723
▁frihet	231628
▁flytt	231600
▁forskning	231538
▁händerna	231490
be	231479
▁svag	231408
▁hästarna	231320
▁31	231315
▁lägg	231311
▁Lin	231298
▁lyx	230961
▁läge	230843
▁klarade	230843
amma	230843
▁blandskog	230534
▁Tor	230489
▁förresten	230404
th	230397
▁kvadrat	230295
▁tak	230263
▁gn	230206
▁skada	230056
▁samtliga	230021
▁sägs	229968
ivet	229965
▁stilla	229834
bergs	229768
▁ins	229719
etter	229625
▁samarbete	229603
▁kommentera	229602
▁mån	229589
▁Göteborgs	229289
▁enormt	229098
▁förmåga	229089
▁butik	229044
▁tröja	228964
▁stockholm	228952
▁storlek	228916
etr	228852
▁fritt	228779
växtart	228731
▁kurs	228668
▁jämför	228613
iter	228574
▁utmärkt	228522
lades	228403
▁rund	228365
▁besviken	228256
▁Ste	228249
▁universitet	227859
▁erkänna	227765
▁Än	227718
▁tå	227688
▁na	227587
▁hållet	227541
▁Island	227538
▁Jesus	227508
▁ETT	227489
▁reg	227383
▁avsnitt	227332
▁oper	227251
▁Hennes	227203
▁Iran	227119
▁kamera	227094
▁njuter	227021
▁smör	226784
▁noga	226745
▁rött	226579
▁häng	226562
▁föra	226543
▁regel	226540
▁dvs	226526
ct	226474
▁60	226437
▁Uppsala	226414
▁tvingas	226371
▁snacka	226353
▁Självklart	226325
▁bes	226267
▁bloggat	226198
▁tung	226132
▁gener	226102
▁fet	226014
▁mode	225908
▁bostad	225906
▁part	225867
▁Herr	225689
▁ärligt	225665
▁talat	225556
hem	225432
▁naturlig	225391
rå	225346
▁flyttar	225245
▁fotograf	225119
▁norra	225084
▁starkare	225031
▁åsikt	225026
ckade	225022
▁no	225005
▁lit	224921
ytt	224707
▁båt	224693
▁gjordes	224527
▁ad	224498
▁gemensamma	224486
▁intressanta	224381
▁smink	224374
▁medicin	224358
▁skr	224343
▁ledde	224324
▁mängder	224299
▁påverkar	224224
▁fören	224160
▁skydd	224154
▁möjligheten	224038
▁lager	224032
▁kro	224014
▁national	223968
▁kung	223860
▁ställning	223806
▁For	223758
usen	223725
ött	223614
ice	223451
▁2007	223443
▁MAN	223393
▁mammas	223341
▁hårda	223303
ink	223290
▁gillade	223221
sar	223132
▁kvalitet	223087
▁troligen	223066
▁handling	222968
ansen	222853
▁bjöd	222754
▁Lind	222670
▁Inga	222200
▁halvt	222152
▁kön	222145
IK	222118
▁gränsen	221994
▁nationella	221790
ve	221728
▁FN	221660
▁TT	221601
▁politisk	221562
▁djupt	221555
end	221550
▁varv	221077
▁dollar	221043
▁Sol	221033
▁väggen	220950
▁bestämmer	220903
▁dyker	220888
AD	220886
▁midsommar	220731
▁miljon	220716
▁Social	220672
▁188	220644
▁rikt	220632
▁stol	220587
▁syr	220502
åriga	220475
▁lopp	220454
▁mång	220444
▁driv	220418
▁världs	220362
▁tråkig	220347
▁artikel	220321
▁bred	220295
pade	220294
▁presenter	220291
▁brun	220250
årig	220040
▁kika	219989
▁bro	219881
▁lösning	219853
▁perioden	219422
▁bank	219366
ux	219288
▁im	219230
åringen	219077
▁bry	219066
igheten	219023
▁använt	218990
▁lita	218880
▁planera	218844
▁seger	218787
▁finna	218754
▁nä	218689
▁hängde	218684
▁mänskliga	218539
▁ork	218466
▁Paris	218435
ADE	218086
▁fatta	218042
▁sammanhang	218022
▁2009	217924
▁historien	217914
▁lokala	217893
▁Redan	217706
bok	217690
tade	217665
▁mjuk	217521
▁diskutera	217461
ukt	217455
▁författare	217370
▁bott	217364
▁Nya	217274
mans	217220
▁sjukhuset	216842
▁mörka	216679
▁skrattade	216651
▁tankarna	216649
lor	216636
▁Indonesien	216634
▁God	216554
get	216395
▁produkt	216333
etten	216288
▁nytta	216197
▁trevliga	216142
▁Del	215987
▁tan	215882
▁Persson	215873
orm	215830
▁brand	215825
▁bolaget	215823
▁Tar	215818
▁riv	215814
▁julklappar	215671
skor	215658
ensen	215628
gi	215546
▁fria	215420
ny	215380
OM	215272
▁käka	215244
▁farfar	215056
▁smart	214948
▁hundarna	214703
▁modern	214645
marna	214607
▁Julia	214589
eck	214543
ista	214494
-1	214425
▁säkra	214386
▁lå	214256
▁Ph	214217
oss	214179
bolag	213969
▁trott	213958
▁framgång	213809
▁former	213805
▁växt	213794
▁helvete	213768
▁skap	213634
▁färgen	213550
▁san	213385
▁regnet	213329
▁gu	213218
▁35	213215
bin	213209
▁effekt	213208
▁besked	213190
▁gården	213171
dera	213146
▁fötterna	212995
▁mängd	212991
▁risken	212909
▁utveckla	212758
ite	212443
RE	212438
▁pågår	212432
▁fjol	212425
▁misstag	212386
▁Ol	212238
▁trötta	212148
hopp	212133
ING	212125
▁tjejen	212081
▁po	211934
platsen	211930
▁tydlig	211891
nader	211844
iat	211786
▁jeans	211771
▁tunga	211756
fulla	211629
▁OS	211596
▁taggad	211541
▁ras	211540
▁akt	211454
▁ihjäl	211426
▁Magnus	211421
▁Dem	211385
▁riktning	211180
DER	211131
▁Berg	211121
▁fyr	211099
▁klubben	211048
▁småningom	210950
▁lyfta	210916
▁sikt	210792
unn	210524
▁gran	210523
▁gift	210463
▁regionen	210451
▁listan	210445
▁Ca	210425
▁kra	210389
kväll	210368
▁AN	210326
▁total	210103
▁krypa	210083
▁200	209996
▁träffas	209946
▁höjd	209935
▁vägar	209880
po	209743
ron	209562
anna	209558
▁vind	209544
▁bryta	209455
▁naturen	209428
▁behålla	209424
▁respektive	209341
▁Egentligen	209327
anen	209312
▁städat	209278
▁ind	209195
ash	209082
▁Mon	209013
▁öppnade	208764
arl	208754
▁eg	208748
oma	208587
▁mönster	208584
▁söndagen	208583
ua	208574
W	208564
skolan	208539
▁tids	208517
allen	208397
iske	208376
omen	208369
▁NU	208284
▁Paul	208159
▁Okej	208086
orter	207946
▁Israel	207897
▁orden	207844
▁förstått	207790
▁kommissionen	207785
ellt	207697
▁gilla	207426
▁lugna	207291
ösa	207279
▁kont	207087
▁tillstånd	207078
▁julklapp	206888
▁2005	206887
▁glömde	206881
▁knä	206867
▁kamp	206859
▁ell	206788
▁tex	206677
▁utomlands	206557
▁låna	206454
▁öppnar	206435
▁fokusera	206423
▁telefonen	206277
▁himmel	206240
▁mötet	206201
spr	206200
▁svenskar	206162
▁trist	206128
▁lev	206082
▁märkt	206078
▁butiken	206072
anta	206049
ppen	205885
▁genast	205878
▁allvarligt	205841
▁2004	205836
▁privata	205687
▁verklighet	204958
▁England	204830
▁glömmer	204749
ställ	204713
▁tvärtom	204693
▁nät	204496
▁själ	204482
till	204431
▁sej	204402
▁fa	204374
jö	204231
iten	204220
▁pen	204186
▁gött	204186
ān	204061
▁äg	204009
▁Började	203958
▁förändringar	203839
▁Italien	203833
▁tränare	203822
▁behandling	203797
grupp	203764
▁potatis	203737
▁Mexiko	203653
änk	203613
icka	203579
▁eleverna	203405
▁reser	203145
dig	202966
▁grad	202910
fär	202886
▁politiskt	202776
▁cykla	202657
änn	202654
▁sticka	202651
▁kilo	202621
▁tårar	202566
▁central	202313
▁familjer	202242
▁beskriva	202223
▁Andreas	202150
▁önska	202136
▁modell	202085
ations	202070
hör	202055
▁meningen	202006
▁medier	201998
▁vände	201991
▁gäst	201669
bes	201575
▁sång	201566
▁Creek	201490
▁Hanna	201486
▁Senare	201400
▁motiv	201393
uta	201379
▁praktiken	201368
▁spar	201264
▁når	201170
ugg	201011
▁islam	200960
▁använde	200885
▁intill	200843
▁Frågan	200810
▁fötter	200749
▁gravid	200716
gången	200622
-2	200511
▁ros	200501
alla	200490
▁tel	200443
▁äv	200424
▁sär	200403
▁skolor	200380
▁avgörande	200349
▁anses	200334
▁affärer	200290
▁Göran	200276
ino	200049
tas	200006
istiskt	199908
▁klicka	199899
rarna	199842
▁känn	199810
▁500	199805
▁45	199804
▁Sc	199652
▁veckans	199650
▁sjunga	199599
▁kass	199511
▁sc	199484
▁lo	199444
▁gård	199424
por	199338
endet	199304
▁Båda	199290
▁hotellet	199285
▁boll	199256
▁Rom	199239
X	199237
stid	199166
▁ram	199078
▁hjärnan	198954
▁huvudvärk	198930
▁Henrik	198920
▁2000	198857
▁design	198721
▁systemet	198719
▁söndags	198709
▁färdigt	198367
jor	198348
oni	198303
▁fulla	198253
▁rösta	198106
▁glöm	198030
▁tuff	197815
ES	197705
▁undantag	197601
▁acceptera	197551
nades	197514
▁my	197489
▁mord	197409
fri	197351
▁beslutet	197308
kande	197253
kn	197133
enn	197105
▁släkte	197031
▁blick	197006
istan	196976
▁ljuset	196952
▁stunder	196925
ille	196904
▁sonen	196880
▁sj	196871
▁människorna	196662
▁enklare	196637
unda	196614
▁vardagen	196544
▁ler	196541
▁stänga	196514
▁kämpar	196500
▁Flera	196397
▁raka	196385
▁Hill	196380
▁farligt	196322
▁Fram	196309
▁flyttat	196266
dagar	196250
▁rätten	196246
▁sambo	196219
▁liga	196169
▁trans	196106
▁strand	195976
▁od	195853
▁trädgården	195734
ote	195691
▁vänt	195684
▁ru	195622
▁görs	195602
hl	195538
▁max	195428
▁lova	195301
▁följd	195227
▁närhet	195224
▁blom	195224
▁Ändå	195173
▁fyllde	195116
▁boende	194996
▁ärlig	194938
arbete	194800
▁missat	194778
▁finner	194708
▁resurser	194522
▁lagar	194452
TA	194433
▁Tro	194409
▁göteborg	194396
vid	194367
▁kök	194361
▁stäm	194282
▁gjord	194228
▁djup	194205
brott	194115
▁Ida	194112
▁skrattar	194101
▁måndags	194047
▁tränade	194039
▁­	194034
ure	193997
ish	193929
▁taket	193790
▁Börjar	193786
▁Pl	193785
▁jobbiga	193766
▁kaos	193692
▁bå	193554
▁mör	193541
▁pu	193502
▁timma	193480
▁Emil	193309
minister	193287
50	193281
råd	193202
▁hoppar	193200
▁seriöst	193125
▁förklarar	192906
▁svaret	192903
▁vaknat	192891
▁fixar	192886
enten	192844
stat	192731
▁fack	192730
▁mus	192587
▁187	192578
▁Park	192578
ue	192457
▁ab	192448
▁oj	192437
port	192437
▁räknas	192333
▁Johanna	192206
▁Stor	192102
ral	192093
▁kasta	192080
▁kvällarna	192049
uff	192045
▁eventuellt	192014
▁duktiga	191956
▁inter	191913
▁ansikte	191888
▁Kar	191805
▁gräns	191772
▁Mor	191732
▁Väldigt	191678
▁Oj	191657
▁ris	191634
giv	191630
ama	191438
▁avl	191379
▁von	191376
mel	191356
▁spendera	191347
▁normal	191247
▁Ex	191015
▁Läs	191011
▁ör	190908
▁städer	190899
▁naturligt	190838
▁utomhus	190773
▁dikt	190766
▁lekte	190689
▁Storbritannien	190625
▁vakt	190585
▁Ann	190520
lösa	190489
igen	190467
mo	190419
▁Ben	190404
▁skador	190399
▁grunden	190389
kter	190361
▁Björn	190346
dern	190289
▁minsann	190253
▁Samma	190237
▁trycka	190190
▁snabba	190059
▁konstig	189996
▁debatten	189994
▁gro	189933
▁planen	189875
ÄN	189768
▁syskon	189709
▁ov	189706
▁spänn	189680
▁kris	189608
▁moder	189551
▁tappat	189537
▁kriget	189442
ARE	189430
▁argument	189106
▁Barnen	189100
ären	188825
▁2011	188701
▁besöka	188655
▁negativa	188638
ög	188606
▁sorts	188604
▁organisation	188417
▁student	188234
▁mad	188210
▁ät	188163
iff	188118
▁gymnasiet	188102
▁Em	188067
isera	188028
chen	187937
aka	187923
▁galen	187897
▁Kul	187780
tat	187756
▁sken	187754
▁båten	187653
▁Na	187650
▁villkor	187500
▁bruk	187461
í	187362
▁beskriver	187334
▁32	187310
▁kraftigt	187181
▁texter	187050
▁smärta	187015
▁Me	186882
ilj	186860
ids	186660
gården	186651
ly	186629
▁sekunder	186626
▁ämnen	186595
▁Robert	186577
▁möten	186472
▁Sal	186465
▁Malin	186407
▁återstår	186344
▁förlorade	186301
▁ill	186209
▁minne	186075
▁förtroende	186074
▁Her	186032
▁händelser	186012
▁jakt	185965
bur	185943
▁förstör	185797
▁Hög	185766
▁Max	185753
▁Rätt	185731
▁handel	185650
▁lärde	185627
▁kän	185622
▁Vilka	185561
▁Mil	185536
▁Con	185378
▁KAN	185319
▁sanningen	185241
▁UT	185014
åring	184980
▁förvånad	184867
▁studier	184854
▁NÄR	184848
▁stressad	184736
▁nyheter	184729
▁motor	184674
▁klaga	184666
ningarnas	184518
▁hamna	184482
▁personliga	184464
▁tråkiga	184449
▁maken	184256
edda	184231
flugor	184119
▁minnas	183971
▁Europeiska	183889
▁himlen	183883
▁kläderna	183865
▁rapport	183769
▁publik	183769
▁kron	183703
skapet	183562
▁ställt	183482
▁bakgrund	183455
▁fär	183375
sd	183243
▁osäker	183206
▁SM	183204
▁politiken	183196
▁vir	183170
gat	183137
iven	183114
▁perfekta	183046
▁anledningen	183001
▁värst	182947
▁medveten	182943
▁hjärt	182929
▁iordning	182897
▁dök	182709
▁middagen	182693
▁matt	182590
stan	182580
▁bytt	182546
▁lyssnade	182520
lund	182509
▁Amanda	182472
▁lu	182422
▁offentliga	182340
▁flicka	182338
▁Nilsson	182278
▁GP	182115
▁hals	182108
▁utgör	182073
do	182035
▁gjorts	182028
▁sallad	182026
▁fång	182025
▁dörr	181985
▁sid	181716
▁sakna	181711
▁Larsson	181668
rätten	181630
▁bytte	181627
ij	181597
▁saknas	181462
▁HAN	181351
▁best	181275
▁frågorna	181264
▁gatan	181211
äde	181186
▁karriär	181172
▁uppfattning	181141
anter	181084
▁hemmet	181034
▁rena	180901
▁funderat	180867
▁bud	180865
▁Söder	180813
▁grader	180810
TER	180752
▁fy	180751
▁bitar	180737
▁nödvändigt	180575
▁bröllop	180554
▁naglar	180537
▁publiken	180537
AND	180481
▁Ge	180450
▁skid	180442
▁sta	180423
▁tyg	180411
▁jämt	180375
ENS	180310
▁tillväxt	180151
▁närvarande	180110
ligas	180061
▁lille	180034
▁histor	180027
▁förbättra	179968
gruppen	179957
sättningen	179929
▁styra	179847
imer	179827
mande	179822
▁plast	179791
▁militär	179627
▁pat	179607
▁släkten	179601
▁fix	179554
IG	179499
▁framtida	179433
▁dokument	179431
▁ges	179413
▁Mal	179370
▁berör	179367
▁släppte	179361
▁människors	179327
▁su	179318
▁70	179273
▁Mannen	179265
▁kyckling	178992
EM	178985
arm	178934
▁ham	178878
▁ekonomisk	178837
▁tyckt	178810
▁samla	178739
vik	178671
err	178603
▁förutsättningar	178593
▁måst	178562
▁fängelse	178525
▁Ham	178475
▁x	178432
▁upplever	178397
▁humor	178289
▁dubbel	178253
gl	178237
▁verksamheten	178206
▁fyll	178201
kort	178191
slaget	178172
ägg	178074
▁näsan	178037
ätta	177955
▁motstånd	177919
▁dragit	177897
▁lektionen	177863
▁rull	177789
▁kanon	177768
ängen	177760
▁fi	177745
▁undra	177722
▁rejäl	177705
▁ekonomin	177690
▁skalbaggsart	177689
▁lillebror	177663
ova	177651
▁följt	177643
▁rapporter	177488
▁ryska	177478
▁Pappa	177466
iel	177458
▁måndagen	177428
▁UPP	177421
▁förlåt	177402
▁läkaren	177386
▁So	177381
▁berätt	177346
▁väska	177309
▁somnar	177297
▁närmast	177181
▁Tv	177165
▁‘	177140
yp	177095
▁Van	177074
▁falla	177048
ED	177047
▁shoppa	177034
▁karaktär	176986
▁beställa	176966
▁inta	176913
▁långsamt	176840
▁lektioner	176818
▁2003	176809
▁vunnit	176706
▁go	176682
▁tårta	176670
▁vagnen	176569
▁stu	176505
▁vä	176477
▁delta	176467
▁des	176461
rog	176461
omb	176439
▁onödigt	176371
dens	176345
▁ret	176287
mus	176280
▁premiär	176186
▁busklandskap	176161
tro	176154
▁syfte	176144
dell	176110
dags	176086
.00	176016
gör	175880
▁Sand	175723
▁tidiga	175702
änder	175689
▁delvis	175672
▁betalar	175631
skon	175487
▁hinder	175370
▁Alex	175367
▁MIG	175353
▁Grekland	175353
▁Gar	175301
▁ämne	175284
▁upplevelse	175269
▁erfarenheter	175251
▁blanda	175243
▁läxor	175236
▁märks	175136
iro	175113
gel	175097
▁foto	175083
▁intresserade	175083
▁planet	175063
▁fågel	175055
ägare	174991
DA	174880
▁dygn	174872
▁Tänker	174790
fs	174786
▁Mus	174769
▁riskerar	174732
▁sakerna	174651
isar	174640
edd	174615
▁likt	174597
mannen	174427
▁Livet	174418
SK	174385
ologi	174384
▁dansa	174361
▁föräldrarna	174348
▁säljer	174292
▁Ga	174285
året	174206
▁teater	174196
▁rök	174169
nd	174134
▁insats	174011
▁äkta	173991
▁Mats	173956
zz	173796
▁oftare	173784
▁socialdemokrat	173764
▁pension	173701
▁Dan	173548
▁sjunger	173500
▁väntan	173496
ial	173451
▁irriterad	173439
▁sår	173384
▁34	173377
ise	173319
▁Jaja	173268
bit	173161
klass	173154
▁mn	173102
▁väx	173095
llerna	173091
▁spanska	173003
nare	172989
▁lovet	172979
▁Ännu	172962
▁ämnet	172867
▁Vär	172856
▁uppåt	172682
▁hjälpt	172675
▁tidning	172664
▁omfattande	172660
▁80	172624
cher	172612
▁förlora	172586
▁väntas	172585
▁släpper	172548
ley	172524
▁hr	172491
▁AB	172457
▁växter	172395
▁William	172374
▁olja	172348
▁byxor	172318
▁angående	172293
▁My	172252
▁åh	172217
▁ful	172202
blad	172182
▁ökad	172167
▁dal	172081
▁amerikansk	171971
▁erbjuda	171923
▁slagit	171915
▁Bor	171907
▁Irak	171870
▁2012	171831
äns	171796
▁Mat	171742
ester	171736
▁insektsart	171734
▁klarat	171707
▁partier	171692
atet	171666
▁förändra	171622
▁Därefter	171588
▁sag	171553
▁bekant	171549
▁barnens	171532
▁Dag	171472
▁Solen	171418
åk	171416
▁2002	171309
rummet	171140
▁förkyld	171133
▁svär	171082
▁männen	171041
pi	171023
▁upptäckte	171012
▁besvär	171004
▁passet	170991
▁Lägg	170968
ycket	170904
▁café	170809
▁pluggat	170778
▁trygg	170769
bra	170746
▁nätterna	170730
una	170719
▁killarna	170696
▁Vart	170656
▁överhuvudtaget	170557
olk	170556
ih	170544
ceae	170384
▁tok	170227
gas	170146
juk	170129
ningars	170021
gård	169942
ställning	169916
▁sköter	169873
▁yr	169869
bor	169863
▁skuld	169859
▁back	169843
▁186	169825
▁hjär	169777
▁Fin	169724
▁Sten	169593
alm	169550
▁galopp	169512
▁tappade	169505
▁36	169492
öte	169410
▁grät	169401
▁jäm	169357
▁planerar	169284
fta	169193
issa	169167
▁praktik	169160
▁skick	168973
▁kortare	168913
▁dött	168881
▁detalj	168829
hets	168818
▁fön	168790
▁Såg	168751
▁Örebro	168730
▁konstaterar	168727
cent	168712
ANDE	168687
▁lövskog	168676
▁final	168667
▁cancer	168658
älla	168608
▁skydda	168598
▁Tidigare	168524
▁tjänster	168522
▁söderut	168450
▁lätta	168448
uten	168448
▁motion	168429
▁spring	168422
▁hemifrån	168398
▁undrade	168376
▁bandet	168185
elserna	168072
äcken	168028
▁utrymme	167895
▁fullständigt	167820
▁träff	167795
▁förändras	167697
oj	167629
▁funktion	167587
▁avstånd	167566
▁driva	167513
▁diskussion	167417
▁resor	167408
▁tillbaks	167394
▁norrut	167382
▁stunden	167366
isa	167234
bruk	167216
▁församling	167162
▁skickade	167127
stra	167105
TE	166898
▁skäm	166896
▁fö	166889
▁webb	166829
▁enskilda	166783
▁timmars	166727
nats	166671
▁fakta	166631
▁armar	166629
▁ter	166579
▁MIN	166544
UN	166430
gående	166428
▁utmaning	166418
▁bomb	166377
▁Red	166359
arbet	166353
▁tjäna	166305
▁gal	166285
▁intryck	166254
▁diverse	166212
▁Gjorde	166206
▁medborgare	166198
▁bur	166186
ämt	166167
▁linje	166057
yss	166052
ÖR	165963
▁kallad	165945
äss	165894
▁ga	165866
▁projektet	165859
▁Te	165804
▁konstatera	165803
▁emellan	165787
bolaget	165780
rats	165746
▁makten	165685
▁Skåne	165673
▁togs	165662
▁gällde	165628
▁Val	165618
män	165613
ips	165529
▁Håkan	165481
▁ägare	165457
fin	165450
▁Hittade	165442
▁teck	165424
▁beröm	165370
▁attack	165350
▁eld	165288
▁lig	165244
▁Tel	165185
årige	165165
jär	165162
▁tjugo	165151
skt	165131
▁bal	165086
ima	165075
▁rullar	165014
bert	164861
▁gemensamt	164861
▁sena	164741
▁driver	164627
▁typen	164610
▁skapat	164597
▁ström	164375
▁formen	164331
▁missade	164318
örerna	164303
▁skriker	164272
▁karl	164261
▁situationer	164258
▁md	164255
▁yrkes	164239
▁Nor	164140
ligheter	164105
ār	164033
▁tävla	164029
▁Kh	164013
▁äd	163734
▁kna	163716
▁scenen	163699
oppen	163685
▁talman	163653
▁foten	163602
▁inb	163568
▁kommuner	163475
▁verket	163471
▁studie	163470
slagen	163442
▁port	163426
▁klimat	163286
▁schemat	163248
▁letar	163238
▁aktiviteter	163170
ire	163145
▁Land	163105
▁halvtimme	163052
▁Robin	163031
▁hette	162984
▁der	162794
▁priser	162683
visa	162615
▁allas	162601
ori	162587
▁hallen	162552
▁missa	162537
▁2001	162470
▁drabbas	162377
lare	162300
ocken	162277
▁förtjänar	162264
▁lovat	162189
▁byn	162077
▁Tom	162057
▁Dr	162055
▁it	161999
▁handlat	161993
vs	161946
▁varav	161941
▁bidra	161866
▁firade	161840
▁leg	161812
▁talade	161775
delar	161730
▁trygghet	161726
▁Gillar	161687
ris	161650
▁personalen	161616
▁aktie	161558
▁påstå	161541
▁gäster	161534
▁park	161475
▁skiv	161465
▁leker	161457
▁knapp	161417
▁fun	161407
▁nyfiken	161399
▁lyser	161385
▁bollen	161331
▁gräsmarker	161289
▁storm	161279
andra	161267
▁tätt	161247
▁uts	161238
▁Alltid	161230
▁tittat	161220
▁dottern	161172
▁menade	161159
▁Åkte	161153
▁Fa	161133
▁Lisa	161107
lägg	161092
▁emellertid	161083
eten	160998
ump	160989
▁förekommer	160986
eder	160912
▁märkligt	160882
▁Barn	160858
▁dumt	160782
kast	160776
▁tyck	160772
▁demokrati	160762
▁set	160762
ärer	160725
▁gjorda	160688
▁socken	160680
▁gångs	160573
▁sköt	160551
▁Pol	160541
fil	160536
idan	160513
▁trän	160424
lats	160422
▁strid	160403
▁löst	160387
▁kollegor	160308
▁övertygad	160266
gatan	160214
▁kristna	160211
▁industri	160190
▁dyrt	160104
ive	160099
▁No	160069
▁ann	160044
jar	160019
▁Gl	160004
▁Lär	159973
▁Ville	159969
▁tappar	159875
▁tempo	159870
▁äl	159819
rör	159707
our	159628
▁peppar	159626
US	159488
▁växte	159376
sy	159243
▁föddes	159184
▁dy	159139
▁följande	159094
▁Simon	159077
▁skrek	159050
▁problemen	159018
PP	158936
▁suger	158844
▁brittiska	158764
▁kapital	158722
▁hyfsat	158708
▁co	158672
▁färre	158597
▁öronen	158538
▁koka	158459
▁Karlsson	158437
▁Stora	158415
les	158321
▁Sven	158287
▁intress	158221
▁kärleken	158218
▁ytan	158212
▁fråg	158178
▁kun	158161
▁vatt	158148
▁mamman	158131
▁Vin	158091
▁vågade	158049
▁böckerna	158039
▁tradition	158034
▁hänsyn	158026
▁efterhand	158005
▁Point	157973
sidan	157933
▁övningar	157902
▁femte	157754
▁torr	157743
▁fasta	157688
▁viktigare	157596
▁asså	157505
▁ytterst	157499
▁Sofia	157440
▁inomhus	157413
▁torsdags	157375
▁tät	157362
▁Qu	157149
▁33	157131
▁försiktigt	157121
▁Sista	157043
▁jätt	156995
ionens	156945
bi	156919
▁låga	156916
iella	156864
▁38	156854
▁hjärna	156837
▁betal	156818
▁grönsaker	156814
▁Michael	156803
▁skillnaden	156761
▁Indien	156625
▁utseende	156602
▁avsluta	156589
▁kam	156584
▁dygnet	156567
▁intressen	156527
pas	156381
▁tänder	156304
▁våg	156249
▁papp	156239
▁råder	156239
▁189	156167
set	156160
itz	156111
▁90	156098
▁tummarna	156040
▁gränser	155997
▁försvinna	155989
vat	155966
▁hemåt	155934
▁Förlåt	155874
års	155860
▁Polisen	155857
▁rädsla	155824
▁lyck	155734
▁Po	155672
värd	155663
IV	155622
▁allmänhet	155576
00-	155561
går	155543
▁fyllt	155519
▁roligaste	155499
▁Nog	155409
▁förväntningar	155408
▁stugan	155370
▁Åt	155310
▁skiner	155299
▁huden	155294
▁förklarade	155246
▁inf	155233
▁Tim	155209
▁bråk	155016
inge	154993
▁Linda	154954
▁luktar	154905
▁förskolan	154889
▁rekord	154860
▁has	154854
▁damm	154823
ald	154798
▁vägrar	154790
▁star	154763
▁mottag	154673
▁Pe	154642
ård	154626
▁litteratur	154619
▁lock	154572
▁stads	154483
▁kniv	154477
▁Tid	154454
▁främ	154432
▁inslag	154424
▁stabil	154399
ID	154364
▁rörelse	154364
▁förlorat	154331
▁Fredag	154322
▁skiljer	154317
▁sal	154307
▁process	154298
▁bett	154283
▁gul	154238
▁förslaget	154221
endes	154221
jo	154117
▁somras	154105
▁utbr	154068
▁skett	153989
▁läg	153964
▁startar	153933
▁dras	153899
▁enorm	153896
elr	153834
▁ten	153781
▁Nästan	153762
▁hall	153606
▁fräsch	153571
▁fann	153557
▁effektiv	153543
▁nyhet	153511
▁Ind	153404
▁lågt	153386
▁märkte	153378
▁Behöver	153354
▁speciella	153341
▁avs	153307
▁tydliga	153279
▁nar	153255
▁miljön	153201
▁EM	153143
kall	153075
▁vana	152950
▁album	152949
▁glatt	152922
▁Bro	152722
che	152643
▁ekonomiskt	152635
▁energ	152594
▁HA	152568
cer	152544
ops	152519
medel	152497
▁pe	152470
oth	152432
▁tufft	152419
▁Brasilien	152371
boll	152271
▁uppehåll	152219
▁såsom	152213
▁Väst	152212
ikat	152201
▁golv	152200
▁agera	152084
▁rock	152047
vård	152036
▁Dam	151952
kning	151941
▁torsdagen	151927
ikerna	151818
▁utred	151800
▁förklaring	151751
stånd	151750
▁väskan	151745
program	151741
▁Hall	151677
▁mörkret	151657
▁påstår	151547
▁Tra	151536
▁balkongen	151472
▁samling	151337
▁troligtvis	151320
▁sjöng	151279
▁kund	151274
▁symbol	151240
▁sola	151219
▁smal	151216
ox	151175
▁blad	151168
▁Harry	151164
▁backen	151155
▁gammalt	151144
▁jacka	151107
▁struktur	151064
▁trädgård	151014
▁gar	151000
▁muskler	150981
▁Klockan	150981
▁rätts	150964
▁smitt	150960
▁hållit	150955
▁tidningar	150876
▁Frida	150840
▁återupp	150804
▁Alexander	150771
▁Ver	150740
▁provet	150737
▁möjlig	150680
▁godnatt	150657
komm	150647
▁verka	150617
RO	150603
▁Ko	150514
we	150465
▁plockade	150253
▁rot	150234
▁Mu	150216
▁butiker	150206
eringar	150174
▁öpp	150145
▁friska	150143
▁silver	150139
▁kollega	150132
▁denne	150122
▁Köpte	150105
styr	150084
▁typer	150064
▁gas	149947
▁gissa	149896
▁parlamentet	149835
▁orkat	149833
▁ytter	149818
▁varor	149684
▁norska	149668
rig	149634
▁Bur	149620
▁dyr	149609
▁bege	149601
▁ursprung	149572
▁sval	149568
▁beg	149560
▁Önskar	149545
▁räk	149427
▁kvällar	149395
elt	149360
▁välj	149295
▁budskap	149286
▁kommunal	149268
▁fula	149239
▁Speciellt	149192
ach	149180
▁Gra	149177
▁hockey	149154
▁stav	149107
ition	149104
▁veck	149094
▁nämn	148982
▁oh	148978
▁radio	148977
▁korv	148915
▁Lo	148880
▁uppenbarligen	148865
▁Da	148856
agg	148771
garna	148625
▁Längtar	148544
▁pan	148528
▁und	148495
▁förlust	148461
▁kullar	148422
▁rådet	148419
barn	148377
▁mysiga	148376
▁gårdagens	148365
hal	148355
▁svenskt	148346
▁vinden	148324
▁real	148314
▁verktyg	148313
▁HÄR	148284
▁Kände	148260
ärna	148223
▁tår	148223
▁ku	148177
eng	148151
cha	148150
▁förkylning	148144
▁Olsson	148107
▁grönt	148094
▁Mikael	148082
▁kinesiska	148072
▁posten	148053
▁siffror	148053
▁Hemma	148003
▁lett	147993
▁mjöl	147975
▁vak	147908
▁Lag	147896
▁Svensson	147836
eda	147824
▁Afghanistan	147821
▁löser	147698
▁185	147676
ith	147667
sättning	147667
ior	147583
fors	147544
osa	147536
ón	147434
AM	147397
▁nätter	147387
urt	147300
▁syd	147273
▁Sta	147202
▁idiot	147164
▁visas	147150
▁Tanken	147141
▁levde	147116
▁box	147062
OL	147061
▁kval	147056
rades	147054
▁öron	147038
▁bed	146994
▁semestern	146949
ånga	146934
ager	146932
▁span	146899
ikan	146820
▁Också	146791
▁tappa	146733
▁pre	146728
au	146701
kam	146686
▁moln	146646
▁behövt	146580
▁hushåll	146520
djur	146488
▁skräck	146480
▁sed	146478
▁sö	146428
▁roman	146389
▁marker	146368
▁nånting	146343
▁berättat	146332
▁vägg	146309
▁ag	146281
▁grav	146270
▁ledningen	146223
▁döden	146206
unds	146185
▁länderna	146165
▁uppger	146164
▁förbereda	146079
delen	146012
▁Varit	145996
▁käkade	145978
▁pappas	145960
äpp	145956
▁Japan	145943
▁’	145924
▁lill	145923
▁svamp	145853
▁garderob	145809
ane	145781
▁saknat	145775
▁tålamod	145775
▁klev	145766
▁foton	145740
nens	145699
▁Anton	145671
▁pres	145670
▁sök	145654
▁anfall	145597
▁Eva	145593
▁pers	145394
▁Kunde	145376
▁förhand	145371
▁Ru	145364
▁måsten	145299
▁häls	145229
LL	145214
▁utgång	145120
▁riksdagen	145096
▁sticker	145070
▁skjuta	145056
▁Kat	145043
ene	144978
lut	144964
▁boka	144942
▁konkurrens	144924
▁pojke	144853
naderna	144848
▁personlig	144838
gs	144835
samhet	144742
▁uppskattar	144733
jut	144708
▁ledning	144695
▁händelse	144598
▁tän	144549
▁Håller	144527
▁tänderna	144488
▁rensa	144464
▁arbetade	144456
▁engagemang	144448
press	144438
▁eu	144419
ograf	144402
▁Ger	144398
▁beredd	144369
▁ensamma	144359
▁regnar	144233
ifrån	144208
skott	144183
gå	144181
▁rubriken	144120
▁spelas	144033
▁ledigt	143971
▁ite	143970
▁moderna	143958
▁Go	143916
▁ögat	143891
▁Umeå	143794
▁allmän	143772
▁elev	143767
▁närmar	143672
arbetet	143662
▁Turkiet	143659
▁fly	143589
sla	143563
▁ägna	143520
▁gemensam	143479
▁Mount	143423
nads	143356
▁firar	143334
▁fäll	143331
▁innebära	143305
▁påminner	143269
▁tall	143221
▁konstnär	143191
▁partner	143188
▁off	143163
▁krafter	143125
▁syrran	143079
uro	143060
▁service	143001
▁eltt	142982
▁Usch	142971
ocka	142929
▁skam	142905
▁bero	142901
▁Fan	142894
ädd	142870
▁katastrof	142864
▁pekar	142853
▁Sim	142843
▁tända	142839
▁intr	142834
▁300	142795
▁fatt	142793
▁samvete	142755
▁gråter	142721
uts	142642
▁plagg	142616
▁tisdagen	142559
besök	142539
▁behövdes	142530
▁fikade	142502
▁Dags	142497
▁kyrka	142407
▁klock	142301
30	142156
▁varas	142098
▁döds	142093
▁Karin	142033
▁48	141986
▁känts	141927
enhet	141894
▁37	141862
▁Ek	141860
▁flickor	141796
▁sökte	141795
▁röster	141758
igas	141739
▁rast	141729
▁Marcus	141725
▁lyckad	141680
fer	141652
ationerna	141651
▁onsdagen	141613
asts	141586
▁testat	141569
▁skjut	141549
NING	141495
▁hamnat	141481
▁stel	141451
▁Sov	141443
▁vel	141432
▁armen	141428
▁favoriter	141416
▁räcka	141386
kare	141372
▁Kn	141360
▁omgiv	141298
▁genomföra	141289
▁serier	141262
satta	141257
▁främsta	141253
ums	141169
▁skiten	141166
ången	141076
▁negativt	141068
▁lunchen	141025
orten	140984
-3	140972
▁SVT	140941
▁ång	140899
▁hejdå	140894
▁dät	140854
▁kliva	140851
▁kvällens	140765
▁lider	140714
▁locka	140698
▁Los	140696
▁cit	140547
▁saknade	140525
▁stekelart	140520
;	140506
▁fysiskt	140492
▁loppet	140456
▁fakt	140448
▁märk	140437
▁spräng	140365
▁minskar	140341
otten	140298
▁uppför	140245
▁Far	140182
▁beteende	140045
▁mät	140033
▁billigare	140013
▁förståelse	139954
rin	139943
ulle	139936
▁Reg	139919
▁känsl	139841
▁dagligen	139826
▁ry	139816
lige	139798
▁gitarr	139759
fatt	139750
▁ärenden	139741
▁Lilla	139703
ppade	139695
▁varsin	139674
▁höja	139664
frågor	139631
▁Reinfeldt	139563
▁Mig	139552
▁språket	139552
▁populär	139511
▁rika	139501
▁tipsa	139433
▁avslut	139412
▁sug	139345
▁relationer	139326
landet	139311
MA	139278
▁app	139275
▁vardagsrummet	139267
â	139241
▁utöver	139174
liv	139162
▁delade	139151
▁Lill	139136
olen	139122
▁lösningar	139087
dem	139003
▁byggt	138995
▁less	138934
▁1999	138886
inerna	138838
▁kontor	138825
▁fäst	138813
▁sannolikt	138809
▁undersökning	138805
▁vikten	138787
▁smaka	138734
▁tema	138694
ight	138689
▁njöt	138667
▁danska	138644
ipa	138635
▁onsdags	138576
▁Ins	138559
▁genomsnitt	138523
▁tisdags	138492
▁ovanför	138468
▁drömmer	138462
hol	138416
▁insett	138354
ands	138343
▁sökt	138257
rådet	138239
▁sommarlov	138209
▁troll	138187
▁deltog	138175
▁%	138170
▁byter	138167
bord	138148
▁Tiden	138142
▁42	138132
▁konstiga	138059
▁offer	138026
▁arbetat	138024
▁besökare	138003
▁ögonblick	137911
▁märke	137902
terade	137853
▁inställning	137852
erska	137827
▁fylld	137764
▁Ac	137762
▁Alice	137742
▁Bal	137725
▁dialog	137719
.30	137668
▁lands	137460
▁längtat	137428
▁funder	137412
▁Kal	137371
▁insatser	137332
▁39	137300
företag	137279
▁hov	137267
▁tackar	137164
▁Trodde	137156
▁ved	137087
▁överv	137075
▁ugnen	137003
GA	136918
▁krist	136918
▁hämtar	136912
▁gos	136902
ema	136866
amen	136864
▁värda	136835
fritt	136808
ional	136793
▁cykl	136789
▁säkerhets	136745
▁föremål	136723
▁skapade	136697
▁Ganska	136694
ckat	136653
▁skatte	136650
▁mosaik	136638
▁smakar	136631
▁cyklade	136600
▁Thailand	136598
äcka	136585
▁spän	136536
▁Plan	136504
▁skrik	136450
▁nyttigt	136428
oo	136397
▁således	136291
på	136283
ligtvis	136280
▁vik	136274
LIGT	136214
▁Guds	136174
▁LITE	136149
▁kursen	136143
▁ansvaret	136142
lem	136131
▁religion	136122
▁doft	136091
lev	136091
▁brister	136074
▁DN	136070
▁korrekt	136024
▁inkomst	136014
▁villa	136008
▁öm	135950
äda	135899
▁tum	135896
▁östra	135879
▁missar	135799
▁Mest	135784
slut	135769
llen	135731
▁kvinnorna	135714
öts	135697
itter	135693
▁Ell	135636
▁Volvo	135635
▁torka	135597
▁pil	135557
stol	135549
▁Tan	135537
▁nöd	135504
▁Bay	135497
ric	135460
▁Sandra	135451
▁kampen	135381
▁regeringens	135358
LA	135109
bygg	135091
banan	135079
▁had	135066
▁stick	135063
▁Sy	135057
▁värk	135041
▁halvår	135013
▁snack	134975
▁kläd	134963
▁vårat	134954
▁kvitt	134924
ae	134919
oppa	134914
▁Problemet	134905
ota	134877
sav	134827
har	134827
film	134786
▁andre	134764
▁Lika	134758
▁enorma	134726
anc	134695
▁öst	134693
▁offentlig	134675
▁onda	134660
▁andrag	134609
▁Kolla	134601
sätta	134588
▁vänskap	134584
▁väcka	134577
▁börj	134565
▁1,1	134550
▁dis	134506
▁Gustav	134491
▁utsikt	134414
örd	134410
▁försv	134391
rop	134372
▁bakåt	134347
40	134343
änt	134262
▁Aldrig	134222
▁råkade	134213
▁skorna	134165
▁sats	134141
▁myndigheter	134128
dade	134092
▁Vil	134059
▁savannskog	134051
öda	133959
▁uppenbart	133941
▁ac	133931
▁naglarna	133920
skär	133917
▁färd	133914
ART	133911
▁tunn	133895
▁häll	133891
▁myst	133887
▁blåser	133722
cy	133710
▁säll	133696
▁försäljning	133671
▁pluggar	133665
▁beskriv	133655
▁utrikes	133636
▁hemsk	133630
▁skickar	133607
mera	133596
mässigt	133589
▁Havet	133526
▁Fem	133524
▁låtsas	133509
kläder	133342
▁skedde	133303
diga	133297
▁personligen	133275
▁ine	133257
lö	133247
▁signal	133242
ativ	133230
▁moster	133227
▁Lu	133223
▁data	133212
ó	133204
▁uppnå	133182
▁hin	133130
▁växtart	133120
▁Skolan	133052
▁uppstår	133021
▁Mark	132951
kla	132940
enden	132885
▁slä	132881
skol	132861
▁bedöm	132839
▁professor	132838
▁sky	132831
ette	132781
▁bidrar	132763
.000	132745
öp	132743
▁kombination	132733
▁soff	132724
▁kvinn	132677
väx	132662
▁jättekul	132644
illar	132641
▁kast	132626
▁Norr	132619
▁kyrk	132599
▁hyres	132543
▁upprätt	132535
▁förh	132524
gift	132487
▁formul	132486
▁persiska	132410
▁möjligen	132380
rit	132377
▁njut	132360
▁inköp	132339
▁Ur	132327
icks	132299
sol	132276
▁duschat	132237
dels	132234
▁Dels	132230
▁slutligen	132184
▁analys	132184
▁fånga	132167
▁tjänar	132148
▁grus	132126
▁flyger	132094
▁47	132093
▁fungerade	132085
▁studenten	132075
▁Medan	132002
▁Sjukt	131961
igh	131940
▁kill	131922
området	131907
▁grädde	131866
▁cool	131841
ini	131770
▁unge	131743
▁bön	131738
▁DÄR	131726
▁västra	131701
▁erbjuder	131695
▁Adam	131643
▁ansåg	131605
20	131583
▁produktion	131552
▁pal	131500
sken	131482
▁skal	131467
värt	131406
▁varannan	131368
▁dn	131363
▁befolkningen	131360
▁individ	131352
▁bart	131285
▁Marie	131243
ministern	131226
▁skar	131211
imm	131206
▁datum	131158
▁läskigt	131151
▁Lena	131140
▁Deras	131111
▁städ	131072
▁majoritet	131068
▁Hal	131040
▁syssel	131030
fot	130993
anten	130978
▁råkar	130950
▁företagen	130940
▁75	130921
▁Borås	130865
▁innebar	130799
▁2013	130781
▁Liv	130748
▁gre	130731
▁likadant	130697
▁brukade	130692
▁hemska	130663
▁myser	130652
▁smäll	130625
ment	130613
▁österut	130591
▁skym	130590
▁grundläggande	130539
▁städsegrön	130522
▁användning	130522
▁mjuka	130492
▁kylan	130450
▁Funderar	130440
▁blivande	130417
UR	130280
▁Ad	130279
▁extrem	130252
▁tävlingar	130251
▁slänger	130249
▁Ty	130235
ssons	130197
▁Haft	130190
▁sprungit	130189
▁snitt	130164
▁periodiskt	130155
▁Bet	130154
ullen	130116
▁hälsade	130071
alle	130039
▁Ly	129964
▁koppla	129963
▁Emelie	129930
▁utsatt	129926
▁Undrar	129911
▁månaderna	129886
▁allmänna	129858
UT	129820
▁hårdare	129668
▁djupa	129655
▁Kvällen	129590
GEN	129583
sätt	129567
öden	129538
▁rom	129534
▁Mattias	129500
▁möbler	129498
▁hörn	129483
▁bete	129475
följ	129434
▁spenderat	129383
▁källa	129373
pol	129373
fallet	129371
▁skål	129361
▁avslutade	129323
resa	129275
▁träningspass	129241
▁återkommer	129146
que	129134
dare	129127
▁västerut	129101
▁kakor	129090
▁hävdar	128999
göra	128993
▁unionen	128981
▁sprida	128924
▁George	128912
▁ångrar	128889
omm	128835
▁mel	128831
▁con	128828
▁ek	128817
fart	128793
itets	128786
bro	128752
▁Bill	128728
igg	128696
▁strålande	128638
▁idén	128633
▁Maja	128629
▁anmäl	128499
▁Do	128493
▁ljust	128493
jur	128469
▁aktivitet	128462
▁tusan	128434
▁rättighet	128428
▁regerings	128423
jobb	128392
▁special	128252
ots	128241
▁transport	128205
▁stud	128201
sid	128199
▁borgerliga	128175
isering	128169
▁artikeln	128144
▁brud	128124
▁position	128107
bör	128095
▁bostads	128047
OS	128041
▁fritid	128035
▁Högsta	127903
▁goa	127891
▁lans	127878
▁individer	127873
▁organ	127873
▁Gå	127850
▁Ag	127807
▁kostnader	127790
▁lovade	127770
splan	127764
▁svett	127588
▁självförtroende	127563
▁berättelse	127561
▁Satt	127497
▁Jaha	127486
▁tekniska	127478
▁rulla	127466
▁konstant	127458
▁domstol	127450
▁stall	127423
dor	127406
inga	127405
▁Typ	127392
▁isen	127342
▁tröst	127308
stas	127306
▁helhet	127249
▁Cl	127249
▁rider	127230
▁steget	127221
▁vardags	127221
fel	127213
mare	127113
▁förälder	127081
ägen	127043
▁Fran	127028
kör	127013
▁chips	127000
▁gifta	126977
▁fukt	126973
▁häromdagen	126937
staden	126904
▁billigt	126843
▁uppmärksam	126822
kul	126802
▁negativ	126618
▁pojkar	126613
▁stackars	126573
laget	126573
▁kärn	126550
▁City	126471
ر	126456
▁utredning	126448
▁initiativ	126437
▁täck	126434
▁mö	126428
▁blivna	126366
▁konsekvenser	126362
▁överleva	126325
▁förhör	126263
▁flyga	126237
▁gula	126215
▁bröt	126178
▁udde	126174
▁kart	126128
▁Kam	126114
▁täcket	126076
iteter	126027
▁skiva	125931
▁atn	125930
▁mask	125923
▁bakgrunden	125890
▁sprid	125845
▁public	125836
platser	125829
▁häl	125795
mär	125793
▁Borg	125738
FÖR	125719
▁träffades	125716
▁beställt	125689
▁milj	125651
▁Ban	125645
▁lagade	125587
▁skiter	125559
derade	125515
▁dugg	125510
▁block	125510
▁armarna	125448
▁tu	125417
▁Jenny	125337
▁rutiner	125189
▁DÅ	125167
ungen	125146
iges	125131
▁Få	125119
tering	125114
▁Rik	125013
▁Bästa	125002
▁upplevt	124949
▁mal	124923
▁Filmen	124896
to	124892
ickar	124878
▁spelarna	124857
ingens	124852
▁faktiska	124826
▁funka	124813
▁snackade	124796
▁sammans	124775
▁verkliga	124759
enser	124739
äls	124706
▁förhåll	124696
▁druckit	124555
▁räknat	124532
eden	124488
▁betalt	124317
▁parker	124297
▁stig	124271
pis	124262
▁ordna	124226
▁hun	124225
▁uttrycka	124223
▁mak	124221
▁jämföra	124207
ike	124171
▁Bu	124164
▁Res	124124
▁videon	124120
▁flög	124120
ordet	124047
▁vice	124035
▁socialt	124034
urs	124006
▁nr	123990
▁KL	123962
▁1998	123950
▁effektivt	123944
sc	123931
▁samtid	123918
▁utnyttja	123912
skola	123890
▁chock	123887
ela	123877
▁Eric	123807
▁lockar	123799
▁blivnas	123795
▁slängde	123779
ordning	123777
eds	123770
▁Sj	123756
sak	123742
▁sprut	123706
uva	123654
ände	123643
▁kunskaper	123635
add	123623
▁pann	123588
▁43	123586
▁letade	123577
udd	123527
itar	123441
▁filosof	123407
riv	123383
ologiska	123349
▁Las	123329
äckt	123281
politik	123279
▁last	123243
▁SV	123235
atus	123204
▁levt	123175
▁smaken	123153
▁ersättning	123132
▁frans	123120
▁öar	123106
▁Öster	123103
▁schema	123068
▁yta	123043
▁rekommenderar	123007
▁präg	122973
▁65	122936
▁segt	122892
▁barndom	122855
▁frukosten	122832
gt	122796
▁patienter	122771
-19	122759
▁avgöra	122735
▁pär	122725
tion	122723
▁beställ	122654
rag	122653
▁sanning	122639
▁blogginlägg	122625
▁partierna	122619
▁Ant	122603
ank	122568
bad	122537
▁räckte	122536
▁Dra	122532
esk	122486
▁fattiga	122437
▁Ofta	122430
▁sämsta	122419
mann	122416
▁omgivning	122404
▁trycker	122337
▁frid	122331
skvällen	122323
▁köns	122233
▁To	122218
▁Afrika	122180
▁SIG	122174
etta	122171
▁1,5	122169
▁utmaningar	122155
elle	122152
▁rinner	122142
▁sem	122118
č	122037
▁Ab	122024
▁status	122024
▁pall	122022
▁motsvarande	122015
▁katter	122013
▁dyra	121955
▁kvinnliga	121939
▁bestod	121916
▁400	121870
▁bryter	121773
▁terror	121772
▁Kim	121766
▁Gre	121764
▁Col	121747
▁gråt	121740
▁förbannad	121720
▁Syd	121652
DEN	121643
▁nyckel	121631
▁skrika	121624
▁relat	121604
▁punkter	121604
▁skylla	121563
▁Eriksson	121561
▁tvekan	121539
▁kons	121534
▁44	121501
▁studenter	121482
ath	121459
▁Oscar	121413
yra	121410
▁skämt	121304
▁katten	121284
▁överdr	121219
▁Christian	121214
ländska	121192
▁utt	121166
▁finalen	121039
▁ak	121012
aria	120993
▁skadade	120991
gångar	120954
▁järn	120950
▁besökte	120932
▁Holm	120913
▁kapitel	120906
▁promenader	120862
▁inklusive	120850
▁Super	120843
▁beställde	120819
bba	120809
▁dst	120782
ulen	120715
▁etn	120699
▁rus	120690
▁praktiskt	120648
ÅR	120606
▁produc	120587
ep	120582
▁mums	120539
▁Förhoppningsvis	120465
▁Mad	120411
▁fn	120408
▁We	120404
▁skil	120391
made	120369
▁kropps	120368
▁omedelbart	120347
▁minus	120320
ckar	120289
▁författaren	120284
▁FR	120283
ios	120266
▁sub	120235
▁sil	120187
▁sköta	120187
▁upptäcka	120172
fte	120163
▁snar	120128
▁badade	120121
▁tvinga	120076
▁Bes	120067
▁äldsta	120065
mot	120062
▁blandade	120050
▁Bilden	120019
▁mell	120012
ännen	119974
▁samlade	119919
ställa	119917
▁vården	119900
inner	119897
▁Li	119887
▁kant	119864
▁sel	119834
▁författ	119833
ifier	119793
▁smärtan	119789
tv	119764
▁Linköping	119733
▁utländska	119719
drig	119715
▁aktuella	119678
▁olik	119665
▁gröt	119638
▁Su	119584
lek	119582
▁Lång	119578
▁aktivt	119556
▁th	119469
▁verklig	119463
ano	119449
▁borg	119431
asa	119427
läg	119423
▁Anledningen	119404
▁Huvud	119397
▁Köpenhamn	119393
▁jelg	119379
▁grått	119377
sled	119376
▁funderade	119345
▁Bol	119315
▁Pal	119311
▁Kalmar	119273
▁rest	119256
▁detsamma	119250
▁ekonom	119244
▁kontrakt	119238
▁lyfter	119162
▁rö	119159
▁omsorg	119154
▁soffa	119128
gin	119121
▁hyll	119104
▁vilar	119100
▁Ir	119092
kän	119086
▁klas	119079
▁lekt	119039
▁ettt	119033
köping	118977
▁psyk	118969
▁blicken	118927
▁öga	118902
▁fynd	118853
▁Ram	118780
rak	118778
atan	118776
▁hoppats	118744
▁allihopa	118697
▁minnes	118696
▁flickan	118688
▁statistik	118667
▁djuren	118659
▁rutin	118602
lav	118578
ikern	118558
▁out	118550
▁Boken	118548
▁finare	118546
världen	118540
▁väd	118536
▁hum	118532
▁Häll	118483
skl	118471
sö	118435
▁heta	118412
▁mött	118408
▁skolans	118401
▁ack	118383
▁trav	118359
000	118357
slös	118332
▁hj	118312
köp	118290
▁Hand	118287
▁intensiv	118264
bilder	118232
▁vall	118230
▁släng	118221
▁Bild	118192
▁tomten	118177
issar	118156
▁41	118146
ile	118138
▁fra	118135
▁registr	118111
▁Led	118063
▁perioder	118056
▁46	118039
▁färdiga	118033
ningss	118016
▁forskare	118012
rs	117979
▁sänka	117973
▁olje	117944
▁allts	117933
▁konflikt	117931
▁testade	117929
lt	117921
▁välkomna	117883
▁organisationer	117864
▁internationell	117854
▁fattade	117839
▁gräv	117833
ity	117787
li	117786
▁drömma	117765
nä	117732
▁piggare	117728
▁givna	117702
▁störst	117697
▁adress	117682
jus	117658
▁planerade	117609
▁SvD	117588
▁DU	117527
gan	117524
▁Berlin	117512
ARNA	117498
▁dop	117480
▁konsert	117449
▁ÄN	117438
klubb	117407
ration	117343
▁främmande	117330
formen	117321
▁advent	117321
▁Moa	117310
▁lugnare	117269
▁2014	117258
▁stadens	117256
▁öva	117229
▁garderoben	117228
▁stött	117218
▁usch	117216
▁Kung	117196
▁Resten	117195
▁Hen	117189
uell	117181
▁bloggare	117160
▁bekväm	117159
▁Dom	117112
▁innehållet	117105
▁Våra	117072
▁golf	117057
grund	117054
▁dryg	117027
▁isol	117020
▁banken	117000
handel	116964
▁dubbelt	116941
älv	116938
▁processen	116936
öra	116933
▁kanal	116886
▁vagn	116870
▁fus	116847
▁läkar	116845
ämp	116843
▁tär	116840
▁ledande	116830
▁packade	116717
unk	116715
▁oklart	116703
▁gam	116692
▁Oavsett	116676
▁stödja	116672
▁Skriv	116626
▁våras	116590
▁tapp	116572
▁motivation	116570
▁tör	116567
▁misstänkt	116556
▁Bengt	116502
▁svin	116485
ا	116478
▁varmare	116454
▁hängt	116406
▁metod	116400
▁mix	116399
kur	116369
▁slit	116329
keln	116327
▁Hol	116322
▁Saknar	116310
▁Patrik	116274
▁strål	116269
▁naturliga	116263
delning	116216
▁Fär	116200
▁veckas	116195
frågan	116125
▁älsklingen	116122
▁personlighet	116117
▁diskussioner	116112
jas	116085
▁bitter	116041
go	115984
▁lila	115945
▁instrument	115852
▁längtan	115833
talets	115831
▁packat	115817
▁rekommendera	115802
▁föredrag	115777
chefen	115769
▁allvarliga	115738
▁vettigt	115683
▁förlorar	115673
▁Stad	115641
▁beräk	115620
▁träng	115591
▁nacken	115581
fria	115571
▁talas	115537
▁baras	115503
▁tvingades	115473
▁Skol	115466
unden	115427
▁Miss	115411
iell	115403
▁äckligt	115402
bud	115332
fäll	115283
▁kontrollera	115231
▁skickat	115212
oder	115152
▁tysk	115128
äta	115118
▁ho	115115
▁Luleå	115111
ogen	115094
▁förvär	115061
▁sorter	115044
▁Fy	115043
▁fingrarna	115022
▁sop	114996
▁styrelse	114944
▁Blanda	114940
▁Wil	114932
▁lillasyster	114891
▁bru	114853
ides	114847
▁anledningar	114828
▁termin	114816
▁tusentals	114813
dv	114811
▁pappan	114770
▁Brukar	114744
▁hyra	114713
ted	114713
umma	114708
▁förmiddag	114706
▁cykeln	114696
▁delarna	114587
▁invandrare	114571
▁bev	114554
▁tem	114540
CK	114540
▁aja	114510
▁organis	114484
▁snällt	114475
▁version	114474
pin	114470
▁Saab	114377
▁lack	114370
tryck	114357
▁psykolog	114332
▁general	114322
▁slappna	114309
▁lax	114295
▁dun	114277
▁Cal	114267
▁grannar	114252
▁mis	114247
▁objekt	114231
▁skjuts	114230
yer	114217
böcker	114168
▁riks	114137
▁maskin	114126
▁klagar	114110
▁studera	114103
▁reste	114057
▁Can	114055
▁run	114055
▁föredrar	114024
orden	114009
ero	113981
▁ära	113979
sikt	113963
▁trafiken	113926
▁akut	113907
▁pedagog	113887
▁väldig	113868
▁Ulf	113868
▁tagen	113863
▁kastade	113852
▁Niklas	113843
▁JU	113836
▁grepp	113788
steg	113765
▁begär	113742
▁utl	113680
éer	113671
▁blandning	113648
▁49	113606
marknaden	113585
▁anklag	113578
▁1994	113559
▁Borde	113555
▁Sund	113553
▁hittades	113551
bal	113500
▁tron	113484
▁bonus	113450
▁handlingar	113427
gra	113421
▁bana	113391
pris	113391
▁angel	113390
iana	113386
ätter	113343
▁ändras	113335
fisk	113308
andena	113294
▁Jack	113158
▁utsträckning	113143
▁snackar	113101
▁soldater	113093
▁alltet	113078
▁typiskt	113042
▁dalar	113032
▁prins	112987
valet	112967
▁behöv	112964
▁normala	112945
▁Din	112931
▁gårdagen	112875
▁förvand	112871
ere	112861
▁Världens	112845
kraft	112776
▁Internet	112761
▁Linnea	112744
▁Försöker	112667
▁nämna	112666
▁lyft	112662
▁behovet	112617
▁artiklar	112581
▁bras	112540
▁kok	112524
▁rut	112500
▁träningsvärk	112480
▁elit	112459
▁Ebba	112451
▁oväntat	112425
prov	112402
▁hoppades	112396
▁poliser	112372
▁live	112369
sse	112358
skydd	112320
▁Wall	112307
▁förstöra	112296
draget	112269
ld	112242
▁haver	112239
▁sud	112217
▁emellanåt	112177
▁Håll	112171
aken	112145
▁aut	112058
smål	112046
▁skidor	112035
▁singel	112016
▁sjukdomar	111971
kes	111964
▁neder	111943
▁184	111922
▁lyssnat	111864
▁Ros	111857
▁oberoende	111848
visning	111845
▁närma	111842
▁agen	111837
▁Trött	111835
▁las	111815
▁jordgubbar	111811
då	111807
SS	111804
uden	111791
▁Ikea	111764
▁skrämmande	111752
gjort	111730
▁rån	111681
▁fotbolls	111666
▁skruv	111639
▁somnat	111637
▁festen	111625
▁önskade	111595
▁Klart	111577
satte	111576
▁filt	111550
oden	111549
oms	111520
▁fysiska	111511
sters	111496
atta	111483
▁tjocka	111482
▁körkort	111482
▁Eng	111423
▁Sig	111381
etts	111381
gon	111359
▁elekt	111353
▁böj	111350
▁släppt	111339
▁färga	111316
▁jättes	111265
pon	111260
▁sött	111256
▁pra	111255
▁past	111249
▁At	111248
▁host	111240
▁avsikt	111239
▁fris	111225
▁Gunnar	111178
▁sovrummet	111166
▁löne	111126
▁rak	111124
ÄM	111066
CH	110979
▁nice	110942
▁yttre	110926
▁krisen	110921
▁Matt	110912
▁standard	110906
▁bostäder	110872
▁synnerhet	110840
skog	110819
▁Schweiz	110778
onn	110760
▁smärt	110759
▁politikerna	110682
▁jättemycket	110678
▁tacos	110651
▁tårarna	110648
lagt	110641
▁äm	110640
▁nätverk	110632
▁kompetens	110612
ippa	110594
▁avslöj	110589
▁pens	110578
ockar	110572
▁längden	110554
▁användes	110546
š	110520
▁fal	110493
▁aktiva	110487
▁läpparna	110450
▁dumma	110448
▁förbätt	110433
▁välkommen	110410
star	110390
ningsvis	110382
▁funderingar	110375
▁Kändes	110363
▁livets	110353
▁jämn	110350
▁lott	110276
ktes	110260
▁kollektiv	110260
cis	110258
▁blyg	110230
▁satsar	110223
▁väckte	110222
▁möts	110219
strand	110207
▁halvöar	110188
serien	110149
▁flertal	110145
▁godaste	110132
è	110127
▁Asså	110121
▁kosta	110105
▁dekor	110088
▁Cy	110079
▁Helgen	110056
▁intresset	110033
alitet	110031
agt	110028
▁länk	110021
jön	110020
▁operation	109991
▁ordningen	109978
▁1995	109936
▁begav	109900
▁Obama	109895
▁Egypten	109891
▁bullar	109875
mö	109869
▁smycken	109861
▁värden	109854
▁målar	109840
▁totala	109838
onia	109775
▁muslimer	109768
▁Gunung	109728
▁läkemedel	109700
▁Rör	109637
blå	109629
▁poolen	109615
▁klätt	109614
▁naz	109588
rav	109565
ografi	109559
▁hor	109543
▁läggs	109527
unna	109495
▁ljusa	109491
▁rollen	109487
▁1997	109482
FF	109468
cus	109415
▁knäpp	109372
▁skriven	109345
▁plåt	109335
▁minskat	109328
▁eventuella	109240
atur	109221
▁him	109167
▁taxi	109096
▁metoder	109094
▁helger	109081
kär	109055
▁Orkar	109034
rel	109022
▁biten	108950
▁etc	108905
ake	108876
▁Tomas	108837
▁tvungna	108823
▁gäll	108819
▁inge	108762
▁nation	108759
▁LO	108738
▁TR	108736
▁granska	108732
▁anställ	108731
▁skådespel	108729
▁beskrev	108727
▁Ob	108699
▁smidigt	108672
▁ikapp	108670
▁reagerar	108669
▁kontroller	108662
atis	108594
▁avgör	108588
oster	108563
▁DAG	108501
schef	108462
▁vinnare	108435
burg	108389
vo	108378
iver	108363
▁id	108315
▁begrepp	108304
ift	108303
skatt	108289
▁Rock	108190
▁flickvän	108127
▁gnäll	108110
hav	108107
▁tvn	108093
▁Västerås	108059
▁misst	108053
▁civil	108015
▁sma	108001
▁Hed	107964
▁målade	107954
eran	107948
gre	107891
▁sko	107885
▁ljusare	107875
▁ställs	107804
▁psykiskt	107797
▁parken	107793
▁hu	107765
▁pet	107764
▁förv	107738
▁Olof	107736
▁chefen	107714
▁lad	107703
▁filmerna	107703
▁stämning	107689
du	107671
▁Frölunda	107662
▁giv	107660
atiska	107655
▁vå	107636
▁båd	107567
▁1996	107567
▁myndighet	107548
▁kvartalet	107547
▁Skall	107539
▁Di	107534
▁hamn	107480
.-	107458
lle	107435
▁melod	107428
▁Mag	107421
▁receptet	107413
▁spets	107384
nal	107368
boken	107364
etiskt	107355
ل	107350
▁upptäckt	107348
förbundet	107344
bäck	107325
▁genomför	107319
IL	107288
istr	107284
▁TI	107270
▁ALLT	107175
utom	107151
bas	107148
▁dagars	107136
vers	107135
index	107135
▁dyka	107129
▁otur	107109
▁Läng	107064
▁Oskar	107035
▁charm	106982
▁uppgiften	106940
▁ytt	106921
bu	106908
▁ÖVER	106890
▁mandat	106874
▁våldtäkt	106821
otta	106810
ills	106805
▁inrikt	106782
▁kläm	106776
▁mats	106730
▁personerna	106709
▁Inom	106705
dal	106698
▁dist	106693
▁höstas	106687
▁Jacob	106685
▁Tillsammans	106683
▁hålls	106673
oppar	106640
▁förstär	106637
▁minister	106635
▁släpptes	106626
oa	106622
▁sock	106610
▁Perfekt	106569
▁Plötsligt	106562
▁Krist	106554
▁arranger	106552
▁Euro	106544
▁cm	106537
stöd	106487
▁Gro	106483
teck	106436
fe	106423
▁mej	106400
▁orsak	106398
▁alltets	106392
kaka	106365
▁SO	106350
▁Väster	106338
▁ryck	106331
▁optim	106323
▁framsteg	106317
▁kä	106291
▁helgerna	106259
▁mörker	106131
ه	106108
ee	106105
▁uppmunt	106071
▁hyr	106046
▁möttes	106042
igs	106022
▁inflytande	106011
▁tråd	106008
▁Imorse	105996
▁väldiga	105958
ORT	105907
▁bokat	105898
▁härifrån	105893
▁vanligtvis	105889
iti	105853
▁färsk	105832
▁og	105830
▁läraren	105815
▁kryss	105795
▁utsatta	105779
▁profil	105771
▁tillåter	105762
▁åtal	105748
▁sovrum	105723
▁tvång	105670
hål	105663
▁benet	105656
▁hemm	105642
▁upph	105641
▁organisationen	105635
▁timmen	105618
▁gräset	105607
▁efterrätt	105599
iot	105592
▁yt	105580
▁ledamot	105567
▁väggarna	105562
▁ve	105525
▁Japp	105511
▁Iallafall	105472
▁sträcker	105457
▁ALLA	105455
▁sambon	105453
▁myndigheterna	105438
▁arbeten	105431
▁mammor	105403
▁spenderade	105390
ussen	105380
▁pojken	105374
spelare	105358
▁antag	105354
▁Vädret	105349
▁chanser	105336
▁flaska	105329
▁kusiner	105319
▁kräva	105317
iser	105299
▁55	105235
.1	105209
▁skådespelare	105180
▁provat	105166
▁kanten	105131
▁käll	105126
▁Mac	105098
▁turen	105097
iets	105082
▁spelades	105063
▁överraskning	104992
▁Bil	104975
▁SE	104967
ones	104940
▁Inne	104913
▁kos	104907
▁medför	104899
▁toaletten	104893
▁skum	104889
LIG	104880
▁riksdag	104878
▁ep	104848
iserade	104842
▁etabl	104833
▁fortare	104793
▁jäv	104792
▁sidorna	104779
▁hjärtan	104762
▁hä	104746
CKA	104734
▁Pat	104705
▁Hell	104703
▁längd	104686
iller	104651
▁tomma	104648
▁Därmed	104638
▁närings	104628
▁statliga	104589
▁funkade	104578
▁enhet	104567
cken	104562
öja	104547
▁bruna	104532
▁Aftonbladet	104517
▁innanför	104492
▁reglerna	104484
car	104482
▁est	104465
sjuk	104429
▁gemenskap	104386
▁vide	104356
▁citron	104345
väl	104328
▁ponny	104312
▁evighet	104312
cia	104309
ole	104289
▁aktier	104279
▁Bak	104273
önt	104262
▁Djurgården	104240
▁strategi	104218
▁distrikt	104208
pad	104148
▁shorts	104072
raf	103987
▁otrolig	103985
▁granne	103972
▁önskat	103958
▁mos	103928
amt	103924
▁blöt	103912
▁Plus	103896
▁väck	103891
▁bubb	103878
▁läsning	103835
▁:-)	103832
nivå	103831
▁upplevelser	103768
▁självmord	103746
▁Lina	103736
▁bekymmer	103731
▁biljetter	103698
ANS	103682
oka	103673
▁drabbade	103665
▁vägarna	103644
▁kry	103636
ÄTT	103623
▁RE	103620
▁Arbets	103579
▁konstaterade	103554
fest	103531
länd	103510
▁sund	103488
▁axlar	103482
▁Ah	103476
▁fat	103473
▁AIK	103465
▁Helsingborg	103457
▁ordentlig	103455
▁Fyra	103438
▁Västra	103438
äger	103433
▁anpassa	103418
▁förtjust	103413
▁änd	103379
▁gill	103377
▁Nåja	103375
▁förm	103368
oga	103355
uellt	103304
▁tell	103297
esta	103291
▁bätt	103288
▁BRA	103286
▁snubb	103271
▁150	103266
bordet	103265
▁Louis	103145
▁vägrade	103144
▁löv	103141
▁någ	103114
▁avbr	103086
▁larm	103070
▁SEN	103066
▁Spel	103053
▁usa	103032
▁Kor	103016
skriv	102988
▁justa	102954
▁grovt	102952
▁badrummet	102951
▁modeller	102934
rom	102931
öna	102927
▁dos	102920
derar	102907
▁låtit	102888
▁online	102876
▁billiga	102864
▁förhållanden	102852
rott	102809
▁plåg	102798
grupper	102786
tem	102754
▁sålde	102749
ters	102716
▁korr	102709
▁morgondagen	102685
▁stressa	102678
ilt	102668
▁blomma	102667
▁BARA	102612
▁järnväg	102609
spro	102606
▁Viktor	102567
▁grejen	102549
▁förutsätt	102546
▁allmänheten	102525
▁invån	102524
▁Ho	102518
▁kärleks	102511
▁skräp	102509
▁bakade	102486
▁Halmstad	102486
▁titeln	102481
▁bloggade	102473
▁bem	102470
gäng	102467
▁Fred	102430
▁världskriget	102425
▁Bilder	102395
▁ombord	102386
▁instagram	102321
ulla	102314
▁grattis	102305
▁kaka	102259
▁turk	102226
▁klassiska	102219
▁West	102206
▁skinn	102165
▁frågat	102154
▁not	102145
bandet	102130
-6	102128
▁fastnade	102111
▁Fort	102074
▁idol	102071
▁oroa	102026
anske	102022
▁kontoret	101982
▁påse	101966
▁slåss	101956
▁inträffade	101941
gick	101940
▁blåste	101929
▁upplev	101913
▁orsaken	101907
▁Synd	101894
▁frysa	101872
▁jämna	101872
▁Hugo	101792
▁kommunala	101763
▁begrav	101737
▁försvunnit	101732
tter	101722
onde	101712
▁vänd	101694
▁vuxit	101690
▁Verkligen	101679
▁:(	101638
▁accep	101576
▁fotade	101565
▁Såhär	101565
▁knät	101562
kost	101531
still	101528
▁byggnad	101514
▁styrelsen	101493
▁målat	101479
▁Cheshmeh	101418
▁Människor	101415
▁rörde	101401
▁lapp	101399
▁stiga	101368
▁skör	101367
▁ungar	101356
▁hitt	101341
▁hett	101332
▁bekanta	101288
▁bakat	101279
▁Loma	101267
▁nådde	101266
▁björ	101260
▁förstas	101260
▁stänger	101251
▁Maj	101241
▁grov	101225
▁tål	101222
▁lyckliga	101198
▁stärka	101190
▁Akt	101152
ERNA	101135
▁Hus	101103
förande	101103
▁försäm	101091
▁skönhet	101074
▁trapp	101057
▁kombin	101047
▁förväg	101003
▁Skr	100959
▁egenskaper	100953
▁bröstet	100946
▁enstaka	100902
▁il	100890
▁sträck	100868
igheterna	100857
▁påverkas	100849
▁landslag	100838
▁bef	100833
▁fordon	100820
▁fryser	100804
▁Svensk	100800
▁ert	100794
▁sätts	100785
▁meddelade	100785
▁hämtat	100752
js	100747
▁öde	100728
▁SL	100719
▁brän	100711
▁rost	100703
▁klänningar	100656
▁ål	100648
▁Kö	100630
▁teori	100616
▁helas	100604
no	100577
▁SJ	100558
▁lägen	100558
▁förändrats	100558
▁slappa	100540
enta	100526
▁häftigt	100474
▁sna	100454
mad	100446
rot	100444
▁myr	100401
▁läck	100389
▁bråttom	100377
▁slott	100361
orts	100354
pte	100317
▁kastar	100292
▁redig	100272
▁ego	100266
▁Ör	100257
oppet	100247
▁sånger	100246
.3	100235
isch	100228
atten	100226
▁givet	100217
▁önskan	100211
▁ingång	100200
ATT	100195
▁1-0	100193
▁döma	100189
▁Axel	100171
▁1800-	100158
▁Polen	100109
▁Hu	100088
▁Må	100085
10	100075
▁pasta	100060
▁Stud	100058
▁utföra	100057
▁historiska	100032
▁stäng	99998
▁flygplan	99978
▁föreslår	99970
ilja	99963
DAG	99963
▁Kort	99954
▁gänget	99942
▁datorer	99918
åren	99916
▁Sar	99908
väder	99898
▁startat	99885
▁längesen	99860
rakt	99832
▁Klicka	99813
▁volym	99808
▁inblandade	99799
▁1,2	99794
ski	99794
▁försvara	99746
vatten	99744
ycken	99731
▁väger	99717
inger	99708
▁rit	99699
▁värm	99681
cho	99675
▁betyda	99648
▁Kun	99645
delse	99641
uella	99618
öjd	99594
amin	99575
teg	99574
▁komna	99542
▁cyklar	99532
tern	99512
▁gentemot	99494
▁advokat	99478
▁pröv	99469
▁vandra	99467
▁veckors	99427
▁journal	99419
▁öv	99398
▁klänningen	99386
▁försvars	99372
▁presentera	99336
▁Österrike	99324
agn	99315
▁smakade	99310
▁omgivningen	99304
▁Id	99283
▁minuten	99273
urg	99262
▁manus	99253
ivna	99248
nars	99244
▁klump	99236
ION	99205
▁snor	99202
▁vol	99189
tast	99184
▁52	99158
▁temat	99145
andets	99129
▁VILL	99118
ästa	99118
skra	99089
vetenskap	99073
▁försen	99072
▁olyck	99057
▁bita	99050
▁sämst	99043
▁särskilda	99039
▁människans	99035
▁demokratiska	99029
änner	99028
▁Säger	99011
▁saft	98979
▁händelsen	98954
▁Matilda	98946
▁1992	98939
▁EFTER	98936
▁kanel	98922
▁landskap	98918
▁promen	98904
▁införa	98880
▁reaktion	98852
▁städade	98826
▁präst	98823
▁minnet	98820
▁TA	98810
▁Syrien	98793
▁Sex	98768
ilda	98762
▁fantasi	98752
▁provade	98708
▁fördelar	98696
▁finska	98692
▁Gott	98654
▁leksaker	98635
gad	98604
▁ond	98576
▁personligt	98568
▁nederbörd	98560
▁jetg	98537
▁dyrare	98524
▁stängde	98523
▁plockat	98504
▁skogs	98496
språk	98476
▁cent	98428
person	98426
▁lung	98417
▁pin	98413
▁nöj	98362
▁förbund	98348
ställningen	98344
▁galna	98337
▁provinsen	98336
▁Fler	98331
▁traditionella	98329
▁FRÅN	98318
▁jä	98312
▁hållbar	98305
▁doktor	98295
▁blås	98295
▁utbildningen	98280
ild	98244
▁Godmorgon	98238
▁Sundsvall	98221
▁närmsta	98205
äva	98201
öta	98194
▁ledighet	98183
lopp	98166
▁italienska	98144
delningen	98126
▁tyder	98119
▁regna	98105
▁synas	98076
▁Nat	98068
innan	98061
▁Åter	98061
▁handboll	98058
▁Ellen	98054
▁kroppar	98047
▁itu	98041
▁mamm	98041
▁HON	98029
▁MYCKET	97987
▁samhälls	97982
▁human	97970
▁torg	97941
▁byggdes	97941
trän	97935
UM	97916
▁67	97895
▁fenomen	97869
▁sjönk	97833
▁Årets	97814
▁förmån	97798
▁väcker	97787
▁konkurr	97770
må	97765
sma	97762
▁Tyckte	97760
▁samtalet	97755
▁jordbruk	97746
▁variant	97746
▁löp	97729
▁fallit	97709
▁drabbats	97674
▁kommunikation	97670
▁parlament	97670
▁regl	97662
▁Visserligen	97642
▁prick	97621
▁gångna	97618
▁ersätt	97616
▁Polit	97595
▁plockar	97535
system	97529
ssam	97512
▁axel	97511
▁klocka	97506
▁Sjö	97492
▁SP	97490
▁planering	97476
▁bron	97462
▁liknar	97444
▁torra	97429
rid	97400
▁anpass	97351
▁femin	97344
rationen	97324
▁förste	97319
▁fingrar	97306
▁Glöm	97302
▁blek	97294
▁hälsar	97254
▁Hör	97253
▁värderingar	97226
▁brinner	97212
▁Förstår	97175
▁stek	97161
▁religiösa	97158
▁rader	97149
TS	97114
▁make	97109
lagen	97108
aris	97099
priset	97088
▁hagen	97070
▁lök	97064
▁fattat	97041
▁journalist	97035
▁Dar	97027
▁snus	97024
▁dansade	97005
▁Hann	96982
▁ofruktbar	96962
▁nat	96957
▁tekniken	96937
▁Skär	96900
▁Kalle	96884
▁protester	96852
tals	96819
▁gladare	96817
▁James	96804
▁mas	96800
ivitet	96787
▁analyser	96772
▁ändrade	96770
ale	96716
hi	96710
▁Ljung	96623
▁någorlunda	96617
steklar	96599
.2	96583
▁vännerna	96580
▁töm	96576
lov	96564
▁slö	96550
way	96547
inne	96544
järn	96526
▁Resultatet	96505
▁fattas	96490
▁läppar	96487
▁Gävle	96464
▁1993	96459
▁läm	96437
älj	96413
▁Hy	96407
ush	96396
▁förvar	96394
▁Bel	96375
▁Arbet	96375
vakt	96336
hall	96334
use	96320
▁kommes	96317
▁prest	96289
▁rym	96279
▁rörelser	96265
morgon	96234
äget	96232
▁häkt	96225
▁bestäm	96223
ÄL	96211
gav	96197
▁läggas	96192
▁matcherna	96160
▁letat	96155
▁nedanför	96130
▁frisyr	96125
ÄLL	96112
nam	96110
▁befann	96102
▁hallon	96099
▁Ström	96096
anser	96095
▁Mellan	96075
▁gälla	96068
industrin	96066
▁uppskatta	96061
▁Jean	96053
▁Särskilt	96003
▁Pet	96001
▁fre	95992
▁kristen	95981
essa	95978
▁rösten	95935
▁rapporterar	95922
elsens	95912
▁kommunerna	95887
▁djupare	95874
▁kontakter	95870
start	95857
ställd	95843
vara	95840
▁biblioteket	95835
▁syftar	95827
▁ELLER	95822
▁Vis	95814
▁fåglar	95794
▁ligg	95779
▁Nils	95737
angen	95719
▁klippte	95708
▁Slut	95699
▁tjuv	95693
▁finnes	95684
▁Fot	95669
ologisk	95648
▁blin	95628
ygga	95541
umm	95536
komst	95527
▁förf	95512
▁skade	95487
▁ante	95484
▁protest	95473
▁sann	95470
▁fiska	95468
▁byggde	95462
▁medvetet	95458
▁spegeln	95408
nel	95406
formationer	95403
▁själen	95389
▁order	95380
▁fotografera	95351
domen	95341
▁fastighet	95340
▁övning	95327
▁redovis	95323
uth	95310
▁Mc	95282
▁stånd	95267
hel	95256
▁komnas	95246
▁skåp	95242
▁KOM	95238
▁grip	95230
▁spåret	95228
▁medvetna	95196
▁läsk	95190
▁distans	95187
▁häm	95166
ummet	95113
▁Des	95101
olv	95084
LLA	95059
▁krång	95050
▁människ	95014
▁svårigheter	95001
▁tillför	94947
onger	94942
▁förvisso	94932
▁bensin	94903
ställt	94899
▁äga	94892
ange	94891
▁Isa	94880
▁ändrat	94863
problem	94856
▁trappan	94800
▁förtjän	94764
iellt	94758
▁sprider	94736
▁Karlstad	94714
▁känslig	94714
inar	94705
▁journalister	94698
▁glasögon	94694
▁kontra	94693
osten	94690
▁medarbetare	94668
▁Justin	94666
▁Gamla	94665
▁fortsätt	94651
▁..	94642
▁Is	94631
enskap	94592
oper	94578
▁finansier	94574
▁Linus	94566
▁hållas	94547
gått	94474
▁timmarna	94455
▁station	94438
▁riva	94435
jande	94427
lapp	94426
vit	94406
▁blåbär	94382
▁BR	94376
▁sympat	94365
▁Malm	94353
▁Norrköping	94343
▁Son	94339
sida	94334
▁lärarna	94334
▁Fina	94273
▁Je	94264
kanten	94263
▁Spr	94258
▁degen	94243
▁farten	94230
partiet	94226
▁Ericsson	94211
emang	94206
▁exemplar	94198
häll	94190
▁kurser	94181
▁priserna	94173
▁simma	94168
▁halt	94054
färg	94051
▁energin	94036
vr	94031
▁Richard	94030
punkt	94009
▁platta	93979
▁priorit	93954
▁funnit	93936
▁Sil	93935
mes	93909
läggning	93902
▁72	93872
ø	93865
▁fungerande	93849
▁Konst	93835
▁reflekt	93818
▁kylen	93813
▁identitet	93799
ÅN	93782
▁famn	93774
▁kolhydrater	93765
▁berättelsen	93761
kap	93724
▁*	93722
rich	93673
▁PL	93671
resan	93669
änga	93668
▁pyssla	93660
▁Frank	93659
▁mär	93607
▁damer	93586
▁nöja	93575
▁höj	93573
▁institut	93572
▁hosta	93564
▁sliten	93544
ifestivalen	93538
sättningar	93530
▁kämpat	93506
▁närvaro	93491
▁Kongo	93488
▁mestadels	93441
▁183	93433
-4	93425
▁Pan	93416
▁inspirerande	93410
kats	93405
elia	93404
▁spy	93392
▁skaffat	93367
▁beslutade	93324
▁diplom	93322
▁Barcelona	93303
▁livsmedel	93300
▁kg	93287
rä	93275
▁särskild	93268
▁bla	93252
▁berättelser	93246
ylla	93232
▁skadad	93197
ringen	93180
sor	93162
▁stam	93157
▁Star	93145
▁inn	93136
▁hemlighet	93125
▁uppr	93121
▁bull	93111
▁51	93110
▁sket	93096
▁ringt	93061
▁invest	93050
STA	93041
etiska	93031
▁mi	92997
ute	92995
▁vetat	92993
▁Mål	92991
▁renover	92988
▁längta	92985
▁lj	92983
▁havs	92972
bla	92942
▁snett	92939
ader	92936
▁inst	92910
▁förk	92899
▁domin	92896
▁behövas	92874
▁delas	92859
▁180	92859
▁Tal	92837
▁kyla	92836
▁fult	92825
ternas	92815
upen	92814
▁linne	92775
▁omvärlden	92758
▁skivor	92750
▁skillnader	92749
iserar	92738
▁pir	92733
näs	92693
ili	92691
▁grymma	92687
▁Sma	92674
▁rapporten	92670
▁pel	92665
▁omgång	92663
▁80-	92660
▁utö	92657
▁Cor	92636
▁avslöja	92626
▁56	92618
lings	92617
▁turist	92595
▁drömmen	92594
▁rim	92568
▁Tommy	92553
▁starten	92549
▁planerna	92542
▁Annika	92528
▁göm	92491
▁samlas	92491
imat	92449
etn	92436
▁effekter	92435
iw	92435
hög	92431
▁stängt	92416
▁infl	92384
▁ått	92369
▁sjutton	92351
▁klippt	92341
jän	92291
▁mörd	92288
▁Helena	92280
▁blandat	92273
▁OCKSÅ	92270
▁slump	92267
innare	92260
▁förväntar	92189
▁Oslo	92183
slösa	92176
esa	92165
▁hemmaplan	92160
stolen	92151
over	92136
▁departementet	92088
▁uppväxt	92085
▁betydande	92057
▁pröva	92054
▁kla	92047
▁motståndare	92040
▁spons	92021
▁alltmer	91993
derat	91962
▁datan	91957
▁tuffa	91953
gent	91927
▁meddela	91892
▁Hopp	91865
▁skrift	91862
▁mellanrum	91844
▁hoppet	91829
nde	91817
▁70-	91817
ongen	91777
▁expert	91771
hy	91727
▁kräm	91725
▁tiderna	91705
milj	91663
▁1991	91660
▁därpå	91657
▁utställning	91642
▁folks	91639
▁info	91638
▁utgår	91605
▁ansvarig	91544
asin	91511
▁artister	91470
▁komme	91459
▁diska	91440
uel	91429
▁ökning	91423
▁protein	91416
▁sorgligt	91412
▁lidande	91403
▁likaså	91401
▁fullkomligt	91381
-5	91375
▁Låter	91374
karen	91370
▁modellen	91354
▁räddning	91349
▁tros	91283
stor	91269
▁sägas	91254
▁övergrepp	91254
olin	91211
▁finn	91189
▁tig	91163
▁Jessica	91155
▁margin	91151
▁garanterat	91141
▁Måndag	91117
▁lyss	91115
▁utspel	91089
▁amma	91051
▁sjukvård	91049
▁konkret	91046
▁norm	91040
▁företrädare	91009
▁delstaten	91003
▁ent	90999
▁vag	90954
▁vux	90949
▁Bir	90935
kopp	90925
▁serv	90924
▁1990	90922
▁rumpan	90884
▁upptäcker	90883
▁Linn	90870
▁bransch	90854
▁lastbil	90852
▁pop	90846
▁deg	90832
aterna	90827
mens	90820
ordningen	90820
dy	90810
ement	90740
▁pun	90738
▁skoldag	90737
▁inner	90731
▁låda	90722
▁tidens	90714
ension	90681
▁KOMMER	90677
▁pinsamt	90676
▁fortfar	90664
▁Trän	90638
▁stär	90631
▁Lennart	90615
ork	90602
back	90594
▁splitt	90585
▁kjol	90573
▁arbetsmarknaden	90555
▁sla	90537
sna	90524
ycke	90522
▁FL	90512
▁insikt	90507
orit	90482
▁resultaten	90467
▁uppdaterar	90465
▁majoriteten	90450
▁Svar	90411
▁Bella	90387
▁pannan	90386
ikar	90372
▁stående	90344
▁sålt	90344
▁Google	90323
ney	90321
▁generellt	90315
▁Inter	90301
▁Jätt	90300
▁greps	90288
häst	90273
▁inredning	90265
▁kortet	90263
ionella	90239
itta	90236
▁utredningen	90235
▁skolorna	90230
erry	90228
ymer	90226
▁gren	90219
sområdet	90213
här	90211
▁stämningen	90210
handeln	90203
▁nivån	90197
▁Bush	90190
▁Björ	90127
▁Mär	90127
▁rann	90119
ose	90080
▁mid	90065
▁Gen	90054
▁humöret	90038
dring	90034
▁deltagare	90014
▁stoppar	90004
▁car	90000
▁femton	89979
äller	89963
▁anhöriga	89926
▁ägde	89916
▁SD	89915
IST	89894
▁Fre	89874
▁läger	89839
▁Djur	89819
▁bildades	89782
▁skallen	89782
▁stål	89772
byggnad	89752
▁heltid	89698
▁rättare	89696
▁förre	89693
▁sträcka	89690
bilar	89670
▁Mona	89667
jat	89657
▁Zlatan	89640
▁lår	89614
ält	89605
▁jämförelse	89599
▁Antalet	89598
▁AR	89593
▁nomin	89579
▁nödvändiga	89575
▁Vän	89561
▁unik	89554
▁samlat	89507
▁Hos	89489
so	89487
▁Lördag	89485
▁prylar	89468
banken	89459
verksamhet	89456
▁vant	89447
▁bränn	89424
▁lim	89418
parlamentet	89416
▁20-	89413
▁grill	89395
▁kramar	89394
▁föda	89382
▁läns	89379
▁sluttar	89373
▁kyl	89369
▁badrum	89363
▁debut	89359
▁Rasmus	89354
▁Sanna	89353
▁existerar	89328
▁avst	89324
▁sänd	89306
▁finger	89301
▁bebisen	89294
▁önskemål	89291
ient	89288
▁kredit	89278
▁befolkning	89246
iger	89243
▁tänkta	89217
▁Cla	89186
fred	89175
▁hemsidan	89172
ned	89145
▁tydligare	89121
▁Pär	89117
▁sexuella	89117
▁tysta	89103
▁VAD	89090
-0	89080
▁förhindra	89079
▁unders	89075
▁ente	89072
▁ilska	89054
▁region	89054
▁underhåll	89054
dt	89053
▁faktisk	89042
▁automatiskt	89005
▁ansträng	88965
▁annans	88956
▁misshand	88953
▁appar	88937
▁Små	88936
▁farliga	88931
▁hoppat	88914
▁prakt	88909
▁frysen	88893
▁tillåt	88881
ftet	88867
و	88866
styrelsen	88826
stå	88813
▁FÅ	88792
andr	88720
▁lagat	88700
▁galler	88674
▁hjäl	88666
stedt	88655
▁regelbundet	88654
▁växande	88650
▁pojk	88649
▁godkänt	88643
▁Victor	88626
▁riksdags	88622
▁militära	88613
bul	88599
HET	88598
▁Dahl	88596
▁Åker	88587
▁konstrukt	88585
▁Ul	88584
▁fransk	88570
▁ljudet	88530
▁gläd	88528
▁duger	88521
▁unna	88515
▁unika	88510
▁käkat	88509
vikt	88499
ico	88498
▁vas	88481
▁tröjan	88481
▁köks	88477
rätter	88465
▁Liksom	88462
▁dryck	88449
▁svaga	88408
▁mellanmål	88408
▁lösningen	88382
hr	88378
brist	88338
▁qu	88319
skade	88312
örs	88259
▁flygplatsen	88247
▁stimul	88232
ked	88230
▁Mid	88210
värda	88205
▁utsläpp	88186
▁fiskar	88182
▁förbud	88165
▁altanen	88163
▁träden	88162
▁lac	88155
vig	88150
▁skatter	88144
▁trivas	88129
▁fastnar	88112
▁envis	88096
▁flyter	88088
▁kallat	88088
varande	88085
▁Gran	88063
▁släktingar	88060
ströms	88030
▁stuga	88021
▁chilla	87990
▁förbannat	87968
▁export	87959
▁skivan	87948
▁54	87943
▁fartyg	87934
▁Plats	87927
▁påminna	87918
▁fördes	87917
▁arbetsgivare	87909
▁blott	87891
▁kungen	87890
▁gris	87889
▁Cha	87884
▁andel	87868
▁Com	87862
▁kämpade	87859
▁faktorer	87826
▁efterfrågan	87814
utan	87800
▁Part	87792
▁räd	87791
▁huruvida	87789
▁lägenheter	87784
hålla	87776
▁skynda	87764
▁GR	87752
▁försäkring	87750
▁rabatt	87747
▁baksidan	87741
gjord	87739
▁sän	87736
▁rep	87732
▁köttet	87730
▁tjat	87700
sång	87698
▁Glad	87681
▁Cat	87674
bol	87662
▁varande	87648
▁vaccin	87645
▁Ter	87632
▁snurrar	87609
▁Leif	87606
▁Hejsan	87595
▁kommunens	87583
▁liter	87580
igast	87575
orerna	87564
▁Ord	87562
▁grän	87552
▁sort	87547
lovet	87542
emi	87536
vägar	87479
▁kaffet	87440
▁stört	87433
▁arv	87419
nets	87417
▁utrustning	87407
änger	87403
▁intensivt	87392
▁försiktig	87390
▁absoluta	87367
▁framgår	87353
▁Äl	87331
▁republiken	87328
domar	87319
▁tvär	87313
di	87260
▁Fal	87254
▁August	87226
skväll	87215
▁stiger	87200
▁Bygg	87198
▁Åsa	87188
▁mejl	87187
dragen	87185
▁diskussionen	87183
demokraternas	87179
▁tillvaron	87174
▁gator	87169
▁internationellt	87168
▁placer	87139
ändska	87135
▁Ry	87111
▁besökt	87093
ikens	87092
▁Pla	87086
▁Fil	87047
▁Grön	87040
▁kreativ	87039
▁hindra	87033
▁återvända	87023
▁58	86996
▁samlar	86991
▁fritids	86981
fekt	86976
▁vackraste	86963
▁Regeringen	86952
▁kommenterar	86948
▁Kron	86940
▁koncentr	86935
▁utvecklats	86928
▁Fortfarande	86926
färd	86908
rna	86905
▁praktiska	86863
iktig	86863
▁bedömning	86847
iktigt	86844
▁Direkt	86839
▁uttalande	86776
▁fattig	86765
▁beslutat	86743
▁stjärnor	86727
▁väggar	86688
läng	86660
▁Pass	86659
▁strö	86635
skans	86617
▁källor	86614
▁show	86611
▁generation	86607
▁hörnet	86601
▁vitlök	86599
▁Olivia	86594
▁Tall	86583
▁länkar	86577
▁billig	86567
▁utr	86565
15	86562
rt	86549
▁hed	86536
▁länken	86533
▁integr	86515
▁kondition	86514
▁separ	86508
▁Hatar	86503
▁sus	86498
▁biljett	86489
▁forum	86473
emanget	86472
hund	86472
▁Europas	86462
▁Inför	86453
▁avsnittet	86445
▁känslorna	86442
▁föreläsning	86438
▁arbetsplats	86423
▁mängden	86400
sspel	86392
▁Ring	86392
ställda	86390
▁Söndag	86381
▁förd	86374
▁förväntas	86371
▁giss	86366
▁krävde	86344
▁tryckte	86339
▁passerat	86331
▁varann	86324
▁moral	86307
.5	86299
▁koncentrera	86291
▁Jon	86253
▁påpekar	86253
ställningar	86228
▁lokaler	86210
IGT	86188
▁Jönköping	86181
▁föreningen	86178
▁ass	86169
▁åldern	86156
▁hjärtans	86156
▁trygga	86148
▁inuti	86141
▁Olle	86136
dre	86132
▁Eu	86123
▁bom	86113
flyg	86073
▁Natur	86072
▁möbl	86059
▁tunna	86039
▁kraftig	86018
▁vanligaste	86012
▁nor	86010
▁utman	85994
▁Vara	85973
bana	85968
VER	85966
rigt	85950
▁Gotland	85945
▁Ku	85916
▁kryper	85913
▁mörkare	85904
▁osk	85900
cel	85894
OT	85894
▁90-	85888
▁mans	85884
▁ungdoms	85881
▁skylt	85875
splats	85863
odes	85853
▁Öst	85838
yst	85812
föra	85803
▁tripp	85801
▁mur	85789
ony	85767
▁myste	85763
▁menings	85751
▁burk	85738
▁Oftast	85724
▁bänk	85720
▁center	85697
▁Bosnien	85695
hu	85661
vera	85654
▁Johannes	85646
▁bägge	85637
▁ingredienser	85618
▁dörrar	85581
▁rått	85580
▁blickar	85575
▁skapas	85557
▁brotts	85543
▁let	85542
▁PR	85528
fråga	85499
19	85449
▁balkong	85448
▁behandlas	85444
▁räck	85433
▁väskor	85425
▁hehe	85422
▁flykt	85421
▁HUR	85418
▁kostnad	85413
out	85401
▁sked	85397
▁insidan	85385
äcker	85363
▁dä	85347
▁bre	85344
▁rita	85326
fören	85316
▁svenskarna	85314
ENT	85311
edag	85287
▁tvivel	85271
▁kust	85268
▁beter	85268
omy	85261
länder	85258
län	85244
maren	85212
▁30-	85207
▁bag	85192
▁herrar	85192
▁vännen	85185
ffe	85184
▁löpning	85175
stig	85161
▁familjens	85143
▁munt	85142
▁nämnde	85141
▁oav	85136
▁byggnader	85134
▁sommarlovet	85127
▁vetenskap	85112
▁annanstans	85109
▁fastän	85105
emot	85083
▁lut	85081
▁rimligt	85078
▁vanilj	85077
▁pannkakor	85074
ogs	85073
▁fans	85072
▁tant	85048
▁Minns	85043
▁skäms	85036
▁HADE	85035
▁upptagen	85021
▁ridit	85006
▁irriterande	84984
namn	84983
ford	84981
▁figur	84969
▁rastlös	84919
▁hast	84895
låt	84892
▁betrakt	84853
stäm	84838
▁valp	84826
▁Antingen	84825
llt	84809
aket	84790
▁mediciner	84788
tex	84782
▁riket	84768
IF	84758
▁tendens	84748
ensk	84746
ï	84732
▁paketet	84719
▁forsknings	84718
▁populära	84717
samling	84712
stående	84710
▁Don	84704
▁utform	84694
▁innehöll	84682
▁Felicia	84681
▁dubb	84677
▁udda	84674
▁konsument	84647
▁hjärn	84635
▁Lotta	84624
▁bestående	84611
▁loppis	84602
▁store	84599
▁Tj	84583
skal	84576
▁53	84562
▁arabiska	84557
▁Dal	84554
▁Vårt	84546
▁resulterade	84538
▁Camp	84529
▁spär	84521
▁ving	84516
▁mä	84513
oda	84509
▁utveck	84509
▁kiss	84505
▁gräva	84497
eva	84484
▁Molly	84480
▁svull	84463
▁investeringar	84462
▁sammanlagt	84434
▁°	84418
▁timmes	84407
tten	84397
agare	84387
▁illamående	84386
▁Cas	84386
▁appl	84378
▁Micke	84373
ode	84372
fon	84371
▁gästerna	84337
▁Kommun	84327
but	84311
▁däck	84292
▁slaget	84285
▁slutändan	84284
bell	84273
▁samhällets	84262
▁Puss	84260
▁säkerligen	84258
▁ingå	84255
▁ken	84254
ugh	84238
▁Strax	84228
▁grilla	84209
▁succé	84201
▁kap	84191
ledare	84164
▁fol	84152
SL	84151
▁tänkas	84148
▁rullade	84124
▁lar	84118
iks	84104
▁kapit	84102
▁new	84087
▁betänkande	84082
▁Gustaf	84074
▁hölls	84062
▁stjärn	84049
▁åk	84020
▁borsta	84018
▁kärnkraft	84011
ÄG	84002
VA	83994
▁Rh	83987
ativa	83956
▁informationen	83956
▁allvarlig	83952
▁olycka	83947
▁flyt	83945
▁inform	83933
pråk	83930
▁sistone	83921
▁tennis	83916
▁bibliotek	83915
▁rosor	83914
byg	83914
▁talang	83899
▁föreställa	83886
▁allians	83871
▁reformer	83868
▁pågående	83868
borgs	83864
lighetens	83845
▁skickas	83843
▁skrivna	83833
▁mäd	83822
▁artist	83813
▁Bre	83813
▁skadades	83813
ht	83808
▁server	83806
disk	83801
▁förväntat	83800
ament	83796
▁sömnen	83791
▁kunderna	83772
▁jaga	83759
▁tröjor	83756
▁risker	83751
▁upply	83744
▁laddar	83735
ämn	83718
▁kallades	83716
▁gj	83713
spelet	83713
▁Twitter	83708
fi	83677
▁bu	83663
▁nerv	83662
▁heder	83660
▁dopp	83657
▁tvättat	83653
▁Växjö	83634
▁62	83621
▁globala	83595
nor	83588
teras	83579
▁blått	83571
▁Bättre	83568
▁terr	83540
vist	83530
▁färgerna	83520
▁Met	83518
▁tvingade	83512
given	83476
▁gångerna	83470
▁avsk	83460
ånd	83460
▁gömma	83406
zon	83401
▁cl	83387
▁Handel	83379
▁rättvis	83378
hn	83365
rikt	83350
läge	83342
▁ambulans	83339
▁flykting	83332
▁Enda	83317
▁åtgär	83282
▁Hund	83278
▁maskiner	83261
▁tillägg	83251
▁dubbla	83246
ycka	83242
anth	83234
ffekt	83216
▁pul	83207
▁reagera	83156
branschen	83153
▁imponerad	83128
▁smula	83125
▁segern	83110
inas	83105
▁savann	83091
▁konflikter	83082
▁jan	83080
▁vänja	83060
▁fält	83059
▁värmer	83058
▁tackade	83054
▁flest	83043
▁överl	83037
▁låtarna	83034
▁halvlek	83028
▁barnets	83024
▁tank	83021
▁smälta	83010
▁narkotika	83006
männen	82996
▁ängel	82984
▁Christer	82983
lå	82959
gade	82954
▁högtid	82943
▁Rosen	82940
▁Chile	82924
▁historier	82922
▁lyckat	82882
▁kyss	82870
▁Nik	82865
▁alt	82843
▁förmågan	82842
▁lagstiftning	82806
▁försk	82801
▁Va	82791
▁kil	82784
▁spegel	82781
▁sälj	82741
▁spänning	82726
▁ideal	82713
▁IDAG	82707
lit	82694
▁rapp	82692
▁ändrar	82683
▁pluggade	82670
▁öppnat	82669
▁tävlar	82664
▁sven	82664
ki	82660
▁manliga	82643
▁soci	82639
▁krogen	82632
▁städning	82621
nät	82621
▁avslutar	82614
▁begreppet	82614
▁KUN	82604
▁tagna	82601
▁Lätt	82600
▁bin	82597
zy	82572
område	82566
▁bilda	82550
unnit	82536
▁Ola	82522
serna	82504
rän	82467
▁stenar	82426
▁kassan	82370
▁avslutades	82361
▁meddelande	82355
▁nivåer	82325
▁As	82306
▁Väg	82288
▁frig	82282
▁evigt	82270
▁uppgifterna	82251
▁Utöver	82250
▁skrivet	82244
▁War	82222
▁diagnos	82211
▁skra	82198
▁röstade	82166
▁minskade	82153
▁coolt	82152
75	82150
▁cell	82141
▁tillfälligt	82140
▁sorters	82139
▁regnade	82125
▁jaja	82122
▁kunnande	82118
▁PRO	82108
▁feta	82103
äckte	82087
ättning	82065
▁hatt	82065
jör	82053
▁Kultur	82047
▁grannen	82042
▁Christ	82040
▁sås	82020
▁Hum	82007
uld	82005
▁sanna	81980
▁mult	81936
sland	81935
köpings	81916
gär	81904
▁önsk	81887
▁paret	81876
▁Im	81874
▁lämnas	81870
histor	81859
▁glädjen	81848
▁helgens	81805
▁50-	81798
▁stans	81784
▁sar	81781
▁vinster	81779
▁härom	81774
opa	81772
▁upprörd	81769
▁Mår	81760
filmer	81756
▁förlossningen	81743
▁1,3	81740
▁Carlsson	81731
▁gall	81730
▁Gal	81729
▁UNDER	81725
▁löner	81700
▁mobb	81691
▁pepp	81680
olt	81679
▁okända	81658
▁andetag	81657
▁attityd	81651
▁uppfyll	81651
▁mäta	81642
▁pappers	81632
▁förtr	81627
▁branschen	81607
▁Kör	81596
▁utgå	81576
▁IFK	81539
▁anna	81531
kommit	81530
▁värma	81518
▁macka	81501
egr	81488
▁behåll	81488
äste	81479
▁fotbollen	81467
fältet	81461
▁litar	81458
▁skift	81435
▁drömde	81413
▁avslutning	81402
▁kvinnors	81400
▁beteck	81394
▁olyckan	81383
12	81383
när	81380
jun	81350
eman	81350
imin	81333
öns	81329
▁domen	81323
▁kraven	81296
▁Skriver	81289
▁muskel	81279
bus	81273
win	81265
STE	81245
▁mens	81240
▁ungarna	81237
▁smarta	81220
▁stolen	81217
vor	81213
▁fe	81202
▁besöker	81200
rika	81200
▁Port	81198
▁Grattis	81192
▁Tydligen	81192
▁röka	81159
ges	81118
▁Ungefär	81115
▁600	81113
▁elak	81110
▁fj	81083
▁slita	81066
yggen	81051
seende	81049
GER	81023
▁torrt	81021
trar	81018
▁inledde	81002
▁informer	80995
terat	80974
▁skrivande	80957
▁polisens	80953
växt	80945
▁tänkande	80943
▁Jens	80940
▁förde	80927
▁prognos	80905
old	80891
andens	80876
▁Stan	80874
stjänst	80869
▁färska	80866
▁pressa	80865
▁Ren	80852
äsk	80847
ledning	80844
▁köpet	80840
▁vilda	80826
▁högra	80822
▁förvirrad	80815
vi	80789
▁Följ	80788
▁försäljningen	80787
ze	80748
▁skjuter	80728
▁Tillsätt	80726
▁betraktas	80718
äckar	80717
▁Bli	80685
▁jordbruks	80682
▁hag	80680
kol	80672
andel	80645
uga	80625
▁viset	80610
▁längsta	80607
āh	80595
▁jäkligt	80592
emat	80575
▁fir	80571
▁Tobias	80563
▁Rid	80551
pla	80499
▁droger	80496
ign	80495
iam	80480
▁afton	80477
▁restaurangen	80476
▁allan	80466
ickan	80463
sex	80459
▁omständigheter	80445
▁Mars	80429
▁fastnat	80422
edan	80397
▁näs	80392
nska	80391
ble	80380
makt	80355
park	80353
▁Titta	80342
båt	80337
▁surf	80332
▁sköts	80321
▁undersöka	80275
▁Nic	80273
▁konto	80267
ever	80246
▁aa	80236
▁väljarna	80224
▁tystnad	80223
ynd	80208
▁samarbeta	80204
ō	80188
▁ÅR	80180
gern	80164
ävar	80151
arten	80144
▁officiella	80138
▁kontakten	80120
▁vågat	80094
▁stjärna	80091
▁lyckan	80068
vården	80038
ädda	80035
▁uppdateringen	80033
▁gubben	80031
utet	80024
▁frånvaro	80004
▁trend	80000
jänst	79994
▁utflykt	79982
▁60-	79978
▁skritt	79976
▁vågen	79973
▁snyggare	79969
▁ägnar	79963
zo	79952
stem	79939
▁utbildnings	79936
▁behandla	79915
opsis	79911
▁sens	79909
▁Phil	79883
▁utlov	79882
▁förläng	79877
▁onödiga	79871
krets	79869
▁lur	79864
▁roller	79858
ocket	79856
▁Sjuk	79847
iper	79833
▁titel	79824
▁dammsug	79822
▁yoghurt	79819
ärn	79817
▁promenera	79770
▁allor	79768
▁Gam	79749
alj	79744
▁duschade	79736
▁Pri	79724
▁aren	79721
▁sammanhanget	79683
AK	79673
▁slarv	79653
▁misstänkta	79647
▁godare	79619
▁kir	79619
▁albumet	79616
▁klok	79610
spolitik	79610
▁Jakob	79606
▁120	79604
▁hamnen	79599
▁blåst	79575
▁gem	79566
▁meningar	79554
▁baraste	79553
▁männ	79547
ls	79530
а	79529
kra	79517
▁nyttig	79517
▁smala	79511
▁lyfte	79500
▁fångar	79497
fält	79496
anka	79495
terar	79490
▁äck	79479
▁MER	79452
öken	79447
▁stämma	79442
korna	79438
▁komplex	79413
▁trötthet	79408
erings	79408
▁inställd	79387
▁trag	79384
▁fors	79380
sledamot	79373
▁väljare	79363
▁uppl	79362
departementet	79342
▁BE	79331
sons	79328
hallen	79323
byxor	79315
vent	79311
▁presenterade	79292
▁irte	79287
aner	79281
▁presidenten	79276
▁skräm	79272
▁israel	79272
▁kompletter	79267
▁Tills	79257
jäll	79256
▁mjukt	79246
▁torget	79220
▁måsta	79217
▁förel	79217
▁arbetslöshet	79212
oe	79210
▁klokt	79203
assa	79200
▁synpunkter	79196
▁föregående	79188
▁Bad	79156
▁naken	79142
▁FÅR	79141
▁fysisk	79120
▁Fanny	79099
▁badat	79050
▁Jobb	79049
olf	79045
ross	79043
▁snur	79039
▁brå	79009
▁kostnaderna	79004
ystem	78997
▁mum	78996
▁byggas	78995
▁smeten	78963
▁dro	78951
ific	78949
▁centimeter	78935
ågen	78931
▁berget	78920
rus	78880
▁Svårt	78864
▁Jesper	78857
▁stationen	78855
▁rättvisa	78854
▁city	78854
▁National	78838
▁mata	78833
▁Sant	78825
▁målen	78813
▁oroliga	78798
▁Jas	78787
▁skilj	78770
▁pressmeddelande	78764
▁transporter	78740
▁dödades	78713
▁reduc	78703
▁mott	78697
amer	78688
bered	78685
▁uppman	78683
▁toa	78683
▁bot	78682
▁Herregud	78678
▁varierad	78657
▁ån	78644
▁fro	78637
▁föräl	78624
▁gyn	78617
▁välkom	78614
▁klättra	78606
▁Totalt	78596
▁mössa	78594
▁lades	78582
ident	78578
inder	78571
▁VARA	78565
▁väckt	78561
▁krama	78560
ales	78539
▁armband	78513
▁Härligt	78502
▁fisken	78497
▁tandläkaren	78496
▁triv	78489
▁aktuellt	78487
▁Värld	78458
▁sminka	78456
▁patient	78453
▁pack	78451
▁tvåa	78447
roll	78443
▁dryga	78440
▁skur	78433
▁vät	78430
ani	78427
▁fixas	78406
ylt	78367
▁jobben	78357
▁Ställ	78338
▁förflytt	78306
▁välfärd	78296
▁mentalt	78286
▁uppenbar	78279
kant	78270
▁arrang	78266
▁mitts	78264
enterna	78256
jerna	78241
▁League	78225
ätten	78217
▁Colombia	78210
kro	78202
▁beskedet	78188
▁behandlar	78182
icus	78178
▁Liseberg	78171
70	78158
▁stränder	78156
▁uppf	78151
utveckling	78143
djursart	78140
▁likadan	78136
▁restauranger	78119
▁hämt	78116
pers	78115
▁blix	78109
öll	78091
maskin	78081
▁europa	78066
▁66	78030
▁satts	78026
▁använts	78025
vä	77996
▁diet	77991
▁passande	77986
▁målvakt	77966
án	77948
▁assist	77944
▁mattan	77939
▁föds	77935
▁sym	77922
▁jämställdhet	77917
▁omfattar	77891
▁tämligen	77888
▁begränsad	77876
▁Ass	77873
▁avtalet	77847
▁shoppade	77846
krit	77843
▁pred	77838
▁sågs	77837
▁döm	77837
▁musikal	77795
▁tax	77792
▁Gol	77775
uppen	77734
▁axeln	77726
ående	77724
▁varat	77705
jord	77703
▁allihop	77699
▁68	77691
▁samarbetet	77688
▁spekul	77659
▁repar	77656
sett	77655
cept	77648
eringarna	77646
trött	77631
▁skilja	77630
▁krasch	77625
own	77608
värde	77605
fal	77587
▁okänd	77580
▁Hittills	77577
▁lind	77558
▁sprit	77549
▁ordinarie	77549
ydd	77535
former	77489
▁dressyr	77486
▁sparar	77484
▁knep	77483
▁tillvaro	77478
▁speci	77470
ämning	77465
▁gruv	77459
▁rumpa	77457
▁civila	77450
▁tyngre	77437
▁kliver	77436
▁bukter	77430
▁arbetslösa	77426
▁lyckligt	77413
▁Kram	77399
natt	77398
▁krä	77395
▁Blom	77391
▁sammanfatt	77376
▁föres	77371
▁Lev	77361
▁underlag	77345
bru	77341
▁Coll	77336
▁skepp	77326
▁misstänker	77284
▁syftet	77278
▁reakt	77270
▁förnuft	77188
▁moment	77184
ival	77178
▁Bi	77178
OK	77167
▁tass	77166
esson	77155
▁tvätten	77154
▁Marocko	77154
▁Kent	77151
▁beskrivs	77134
usten	77115
rest	77106
▁administrativ	77104
▁inspirerad	77093
▁lug	77092
▁missbruk	77089
▁aktuell	77083
▁bloggandet	77072
▁johan	77067
▁fortsättningen	77056
▁Massa	77053
▁förtryck	77035
oten	77030
▁fikat	77030
▁givande	77017
▁bollar	77004
▁påbörj	76999
▁därav	76999
▁cir	76990
produkt	76970
āl	76966
▁nov	76963
DR	76960
odd	76956
▁Lasse	76954
brän	76952
▁182	76939
ms	76939
▁läxa	76936
▁tummen	76933
blom	76928
▁möjligheterna	76908
▁desig	76888
▁rat	76870
▁ingenstans	76864
▁ägaren	76859
ÖN	76831
▁tipp	76830
atisk	76829
▁uppfölj	76824
▁rens	76817
▁citat	76808
▁fyllda	76807
▁ingick	76805
ji	76803
▁kikade	76800
▁mätare	76784
innen	76773
▁tol	76750
▁tagits	76743
▁hets	76742
▁koppar	76741
▁aningen	76737
▁Framför	76737
ärerna	76736
▁konkreta	76734
skam	76732
▁nav	76728
▁publicera	76723
▁IF	76721
▁mittens	76719
)	76712
ledaren	76703
▁hustru	76697
jade	76660
▁tillfäll	76656
▁aktörer	76648
▁Black	76647
▁lida	76646
verkets	76610
ér	76567
▁konferens	76565
▁dåvarande	76551
ustr	76551
▁Ven	76547
▁skrivs	76537
jud	76535
▁ersätta	76519
▁Riks	76498
▁Sak	76495
narna	76494
ocker	76492
ansar	76485
▁Sjön	76455
loppet	76455
▁skadar	76450
▁fräscht	76444
▁förny	76431
▁Dröm	76424
▁landade	76409
bilen	76388
SE	76387
▁fjäll	76386
▁63	76383
▁drömt	76371
▁lysande	76337
▁Louise	76319
▁sura	76295
▁ishockey	76286
▁Kän	76278
▁miljard	76252
▁pend	76212
▁terminen	76198
▁häv	76194
▁1989	76169
▁Mia	76149
▁Kro	76147
▁värdet	76146
ölja	76141
▁livsstil	76133
▁måltid	76132
▁mog	76130
stiden	76128
▁förutsättning	76128
ffär	76124
▁skän	76119
▁klad	76100
oli	76096
▁fungerat	76087
ssystem	76076
ecka	76076
▁59	76062
▁diskuterar	76060
sekonom	76053
▁fröken	76036
▁get	76020
▁SN	76013
▁piss	76004
sås	75994
▁stannat	75993
▁skötte	75989
▁flick	75977
▁Charles	75974
▁glitt	75960
▁apelsin	75924
deln	75906
cen	75894
▁förklar	75878
▁gatorna	75870
▁ensamhet	75858
▁hop	75847
▁kontin	75844
▁dölja	75839
▁deltar	75838
▁brors	75814
utbildning	75805
▁kommission	75794
▁Lycka	75793
▁skala	75793
▁solsken	75785
▁skära	75780
▁smyg	75777
▁Elsa	75773
betal	75753
acker	75745
riga	75741
▁Helsingfors	75740
arv	75701
▁Fel	75700
▁jättefin	75700
▁fasen	75688
▁avled	75676
▁dän	75674
▁Air	75673
▁Victoria	75671
▁hundratals	75670
▁Naturligtvis	75639
▁Ans	75628
▁klick	75606
▁partiets	75603
▁söm	75595
▁jur	75595
▁allors	75590
▁1900-	75585
▁nånstans	75583
▁allorna	75580
▁blåsa	75580
okal	75577
hamn	75576
▁äktenskap	75562
▁blond	75562
yter	75540
gräns	75522
.0	75520
erier	75518
▁dansar	75498
▁produktionen	75475
▁·	75470
▁fars	75429
räd	75425
▁bare	75424
▁Brun	75420
▁metall	75412
▁kommen	75402
lingarna	75397
säker	75372
▁hn	75360
bröd	75360
▁sattes	75338
kh	75334
▁talet	75314
▁skilda	75307
▁1-1	75276
▁verkligt	75266
▁gifte	75260
▁temperatur	75233
▁överdrivet	75229
▁kikar	75170
▁lådan	75166
▁soligt	75147
sätter	75145
▁viljan	75133
▁allans	75109
politiken	75097
ffa	75094
skassan	75064
▁överför	75059
ologin	75046
▁kollekt	75034
▁System	75020
▁ridning	75016
▁backar	75011
stre	75003
▁obehagligt	75002
▁Center	74998
▁havets	74998
▁Mån	74994
ängt	74990
ito	74970
▁Nytt	74958
▁kampanj	74956
▁diskuteras	74942
▁synes	74917
▁SAM	74905
▁ös	74903
▁dec	74895
tell	74891
▁bevar	74869
▁179	74853
▁UN	74853
frukt	74835
▁pigga	74835
▁livrädd	74825
▁1990-	74810
▁handlingen	74800
åda	74763
▁utslag	74753
▁kross	74747
▁bid	74747
▁deklar	74731
▁Hag	74729
▁Sist	74713
bilden	74711
▁inhand	74704
▁Vidare	74700
Z	74698
▁fam	74668
▁råg	74660
asy	74646
▁grabbarna	74645
▁bloggande	74643
▁herregud	74632
▁II	74630
▁Efteråt	74629
▁passion	74605
▁industr	74600
äx	74599
▁nordiska	74599
▁Jennifer	74599
stjänsten	74598
▁fing	74595
BL	74589
▁värder	74585
▁virus	74579
▁näsa	74572
▁SKULLE	74569
▁källaren	74562
▁rem	74561
▁krimin	74560
itionen	74546
▁kontrollen	74530
▁gärnings	74529
▁sek	74526
▁täcke	74522
▁bilarna	74514
ule	74509
▁engel	74508
veckan	74503
▁kraftiga	74499
▁universitetet	74490
▁inläggen	74490
▁river	74476
ender	74475
▁erkänner	74463
▁framgångar	74463
bon	74462
▁anar	74454
gg	74452
fterna	74432
▁Cam	74426
▁skärpa	74422
▁2,5	74415
▁yoga	74414
▁linjen	74414
▁allornas	74413
▁sänk	74411
▁dansen	74404
onom	74395
▁Bok	74392
▁läkt	74384
sats	74364
alia	74344
skill	74319
▁Fe	74319
stads	74319
▁Ukraina	74316
▁svarat	74307
▁vild	74289
▁pla	74288
▁prof	74284
▁rel	74284
▁tillb	74266
▁Argentina	74266
▁kritisk	74242
▁partiled	74233
▁Elias	74232
▁dömdes	74228
▁varan	74223
▁nagellack	74222
▁Rad	74207
▁väga	74203
▁vinsten	74186
▁dagliga	74178
▁Sommar	74174
▁pressen	74173
▁tyng	74148
▁premiärminister	74148
▁örat	74130
▁öra	74129
▁Kv	74123
▁berodde	74122
con	74121
▁beredda	74105
▁NY	74103
▁tomat	74099
▁tillfreds	74096
▁sliter	74086
skjut	74070
öjt	74037
▁hävda	74033
▁proffs	74032
▁skakade	74028
▁spindelart	74021
▁kloka	74012
▁undersö	74008
▁ident	74005
▁medi	74001
▁arter	73990
▁tillsätt	73988
skil	73978
▁björn	73971
▁Melod	73960
▁officiellt	73959
▁Lid	73946
äff	73935
▁barastes	73899
▁skad	73893
▁misshandel	73886
▁ledar	73884
▁husen	73874
▁Avslut	73866
▁Snacka	73863
▁Väntar	73818
ikation	73817
▁falska	73801
fråg	73793
▁Ella	73791
tjän	73787
▁SMHI	73786
▁Leon	73765
klädd	73763
▁krit	73761
istik	73711
bbe	73703
▁team	73697
▁800	73697
▁päls	73688
rof	73684
▁offentligt	73684
▁besvikelse	73682
demokrater	73672
träd	73668
▁svampart	73658
oler	73637
slet	73625
stam	73614
omyia	73601
▁Georg	73592
▁profess	73577
▁inbjud	73576
▁pojkarna	73564
▁massage	73560
skad	73538
▁Mr	73523
▁kat	73470
▁nätt	73456
▁utmär	73428
ú	73427
▁Liam	73419
▁kapa	73401
▁Mont	73374
enheter	73371
▁öns	73349
18	73342
▁checka	73340
▁OR	73340
▁baby	73335
▁ägnat	73329
▁gat	73327
▁trakt	73303
▁Matte	73295
▁lådor	73283
ting	73274
▁nyans	73242
▁svenskan	73229
saker	73224
▁förlag	73201
stein	73200
▁Bilderna	73199
▁musklerna	73186
▁bädd	73180
▁Känslan	73168
aska	73165
▁soppa	73161
▁bliv	73158
▁Södra	73135
▁föret	73135
järnen	73118
ces	73116
▁Ytterligare	73113
▁lutar	73108
bland	73103
▁pizz	73098
▁återkomma	73091
iler	73088
▁64	73085
▁annons	73083
▁nåd	73079
etisk	73079
▁snara	73068
▁klär	73063
▁gångens	73058
▁vilt	73045
skri	73043
▁tun	73040
▁Wik	73017
▁bästis	73011
uch	72996
▁kritiken	72993
▁73	72993
▁festival	72992
▁bevisa	72989
▁Lägger	72983
▁bajs	72971
iop	72967
känsla	72957
rans	72940
▁agerar	72938
asen	72935
▁anställd	72934
▁spö	72921
▁69	72911
▁löjligt	72888
▁sittande	72887
▁toppar	72880
▁sinne	72874
▁rykten	72867
▁Nova	72867
▁myt	72860
▁uppn	72834
ickade	72830
▁Musik	72826
▁ana	72803
▁troligt	72801
▁prioritera	72794
▁löften	72788
▁Kall	72781
▁Kjell	72763
▁Washington	72755
▁Filip	72753
▁ug	72752
▁Norra	72752
▁tillbringa	72717
sens	72700
▁variera	72696
rist	72694
▁misslyckas	72681
▁Hö	72674
▁ansökan	72668
▁provoc	72650
▁drama	72644
▁Kevin	72641
▁Ten	72607
▁nötter	72606
▁satta	72595
▁intä	72587
-7	72584
▁nuet	72580
▁tilldel	72579
▁barnvakt	72579
orget	72564
▁bäste	72559
▁valuta	72558
▁agerande	72552
risk	72551
esten	72549
▁inleddes	72549
▁medborgarna	72546
▁äppel	72524
OD	72512
▁gung	72499
▁fås	72499
post	72498
▁breda	72495
▁iPhone	72489
ölj	72481
▁Lar	72467
▁TID	72463
▁överklag	72462
unga	72454
▁sön	72454
KER	72449
iset	72447
▁sysselsättning	72442
▁Aïn	72428
▁Pontus	72427
partiets	72424
troll	72420
▁shit	72397
▁stryk	72386
▁synen	72382
▁föräldra	72369
▁satsning	72365
ört	72351
▁cup	72342
äft	72337
▁Träffade	72337
▁Häl	72331
opter	72313
▁midnatt	72300
▁förening	72292
▁varar	72292
▁egenskap	72292
▁samarbet	72284
▁prim	72279
▁dej	72259
ydlig	72253
▁finansiella	72232
▁familje	72223
▁cy	72189
▁skuggan	72179
▁nuförtiden	72178
bjud	72160
▁grekiska	72152
jol	72148
▁Ke	72134
▁turister	72126
ÄST	72115
▁uppdraget	72089
papper	72077
▁uppsats	72073
cin	72059
▁förväntan	72054
▁besöket	72046
▁list	72038
▁On	72027
sport	72019
▁fåtal	72017
▁sing	72005
värk	71986
▁ångra	71975
odde	71975
▁Sel	71970
eth	71955
▁SIN	71948
▁smet	71941
▁förebild	71923
▁demonstr	71922
▁brett	71913
IA	71897
▁varierar	71896
▁marknadsför	71889
▁nödvändig	71878
▁1988	71878
▁ungdomarna	71855
▁Samt	71813
▁porträtt	71812
▁Juholt	71792
vända	71784
▁gissar	71776
sprogram	71776
▁fokuserar	71767
ligastes	71752
▁flyktingar	71741
▁hamburgare	71730
▁dessvärre	71719
▁doften	71702
▁sjätte	71688
▁Ox	71671
▁skyldig	71650
▁BÖRJ	71645
▁drick	71628
▁VET	71627
▁mol	71610
inter	71596
▁eras	71591
▁Kärlek	71582
▁reserv	71556
▁säljs	71540
▁vika	71516
ellen	71495
▁BL	71494
▁Sem	71480
▁uppfost	71472
▁Roger	71459
otter	71451
▁uppfattas	71429
▁saga	71426
▁Emilia	71425
▁handeln	71417
ng	71417
▁fant	71414
▁stolta	71408
ålen	71395
▁Målet	71392
▁Agnes	71381
▁instrukt	71352
▁statsminister	71318
olit	71310
▁deltagarna	71303
▁Skövde	71285
▁stry	71242
▁placera	71241
▁varandras	71241
sjö	71240
▁dramat	71239
icke	71233
▁strateg	71231
▁halvan	71218
▁barrskog	71217
▁accepterar	71205
äts	71201
▁gla	71175
▁musiker	71170
▁Tän	71160
▁farlig	71157
▁blind	71154
▁filma	71150
▁mental	71116
▁grillade	71114
▁orange	71112
▁brevid	71102
▁trupp	71089
▁doktorn	71083
▁Sw	71083
▁givit	71072
▁axlarna	71071
livet	71063
▁Otroligt	71062
▁demokrat	71061
▁fiske	71055
▁Tja	71048
▁Moderaterna	71047
▁promenaden	71041
▁skä	71029
▁Asien	71027
guld	71021
▁toalett	71020
▁bussar	71012
▁bitti	71012
▁överst	71007
▁imponerande	71003
▁Henry	70999
▁kostade	70998
▁•	70996
allt	70987
▁ah	70979
▁eran	70977
▁uttal	70977
▁museum	70974
▁rasism	70960
hället	70957
rations	70955
kommer	70952
▁Petter	70943
otte	70940
▁japanska	70937
▁skin	70926
▁hindrar	70906
vitt	70902
▁ask	70900
▁Algeriet	70899
möte	70893
▁Sna	70881
änkta	70874
▁fortsatta	70847
slan	70840
▁snör	70839
mod	70835
cens	70834
▁öre	70834
öljer	70833
▁FA	70832
▁trycket	70826
fan	70815
telsen	70809
ården	70808
lorna	70796
▁etik	70792
▁River	70782
▁kond	70776
▁svåraste	70754
▁Leo	70746
offer	70740
ansson	70736
SKA	70720
lik	70713
▁hå	70710
▁Givetvis	70706
▁anord	70705
▁nyfikna	70704
▁spor	70699
terad	70691
aks	70687
▁sjunker	70671
▁Alfred	70664
▁tillver	70643
sal	70626
▁lokalen	70622
▁Kōh	70618
▁produkten	70603
mon	70600
▁stock	70598
alten	70594
▁Nyheter	70593
▁öppnas	70588
▁febr	70584
ollen	70584
▁övert	70582
▁strider	70574
éns	70572
▁Punta	70566
▁Irland	70554
▁emma	70552
▁jävlar	70537
▁bränna	70520
änkt	70516
▁kli	70498
▁funktioner	70495
▁mekan	70493
▁kräft	70490
▁anmäla	70476
itu	70474
▁inombords	70465
▁fond	70464
hen	70456
xa	70454
▁utbud	70448
▁nationell	70446
▁ball	70410
▁upptäck	70403
▁Ljus	70398
▁tjänsten	70389
▁gullig	70382
▁skel	70380
ILL	70379
▁stoppade	70373
▁friidrott	70369
ن	70360
▁siffrorna	70350
▁årsskiftet	70328
▁Kur	70327
▁reson	70326
▁kunden	70322
▁cola	70319
▁ky	70314
▁tryggt	70311
▁riskera	70292
▁åg	70288
▁säk	70275
▁sveriges	70266
▁hylla	70261
▁studerade	70255
▁förmedla	70254
▁tolka	70253
▁feg	70235
▁Grand	70230
▁fån	70225
vänd	70220
▁Blå	70210
ele	70197
▁avslutas	70196
م	70182
▁svaren	70169
▁bröder	70162
▁erbjud	70158
▁tycktes	70157
▁Angel	70151
▁af	70111
▁Cup	70110
morgonen	70105
▁banker	70100
▁garn	70081
▁granen	70075
▁dröjer	70071
▁plöts	70065
▁hacka	70044
▁kreativa	70032
▁firas	70031
une	70019
▁huv	70009
▁camp	70006
▁klin	70002
▁kakan	69986
▁plat	69983
▁förhandlingar	69976
▁kritis	69975
▁klubbar	69961
▁märken	69960
▁graviditeten	69935
yndigheten	69923
▁smält	69922
▁landsting	69913
▁underhållande	69907
▁Ok	69906
▁flygplats	69904
▁Markus	69902
▁fingret	69887
▁Andre	69883
ringar	69881
▁eventuell	69878
▁näring	69831
▁byggs	69827
äckande	69817
ی	69814
▁utvilad	69806
sman	69790
orp	69780
▁chefer	69775
bete	69772
▁rea	69711
▁FRAM	69683
▁elv	69669
▁ledamöter	69664
▁Förmodligen	69664
▁laddat	69663
ega	69658
▁spå	69652
▁ax	69642
▁marknads	69641
▁tavlor	69632
illo	69624
▁operationen	69613
▁saknad	69612
▁hantverk	69600
zer	69594
▁uppt	69588
stod	69586
lo	69583
▁klassisk	69576
▁otro	69574
▁sty	69568
▁Dig	69568
▁idrotten	69566
▁Lug	69555
▁Jäm	69539
sområde	69539
musik	69534
ötter	69524
▁sjukdomen	69519
▁Tet	69515
▁utrust	69503
▁honung	69499
▁Förr	69471
▁medierna	69449
▁foster	69444
▁Södertälje	69442
fir	69410
▁beskrivning	69399
▁backa	69394
▁lyder	69387
▁servera	69377
▁drev	69376
usch	69375
▁trev	69365
▁konvent	69364
▁prom	69353
▁kvällsmat	69347
▁äcklig	69341
▁flitigt	69312
maste	69309
▁NI	69300
▁säm	69295
▁drabbades	69295
▁fla	69295
▁förvänta	69292
▁populärt	69273
evis	69267
▁57	69248
▁Stina	69243
stil	69239
▁1984	69238
▁nack	69237
▁byggnaden	69235
spolitiken	69231
kal	69203
▁spenderades	69198
▁Själva	69193
▁10-	69187
▁villan	69177
▁Expressen	69163
▁engelsk	69162
iket	69161
▁Charlie	69159
▁fantas	69156
▁drift	69150
▁Försvar	69149
systemet	69139
▁Beh	69131
▁fläsk	69111
▁återf	69109
▁ursprungligen	69107
ç	69105
▁Bas	69088
gu	69077
▁jackan	69065
▁omgångar	69064
▁muslimska	69059
▁leverera	69058
▁ramen	69052
▁ringar	69045
ligast	69041
▁skrevs	69036
▁Bäst	69025
▁Astrid	69024
vall	69021
▁snarast	69020
▁tillbehör	69008
▁KR	69002
▁tvingar	68999
▁Vas	68992
▁Joseph	68990
▁Dat	68982
▁brunt	68979
▁vack	68965
spår	68955
▁orken	68950
▁isar	68937
▁oroar	68934
▁Radio	68924
ugga	68913
▁Oh	68892
▁lav	68885
▁inrätt	68883
▁1,4	68878
▁Fru	68877
▁Wilma	68871
öka	68868
▁utställningen	68864
hop	68861
▁månaders	68855
▁prover	68849
▁storas	68845
▁tingsrätt	68842
▁röstar	68836
ission	68829
▁ändring	68827
sko	68804
iaceae	68793
vade	68787
box	68785
▁Svens	68781
▁designen	68773
▁föreställ	68773
▁dagbok	68772
60	68759
▁ap	68748
▁Camilla	68735
MM	68734
pekt	68734
värld	68728
▁uttrycker	68727
▁arbetsgiv	68726
▁svettas	68724
snitt	68717
enska	68713
▁msd	68702
▁party	68693
▁85	68691
ssen	68670
13	68662
urar	68659
▁Fråg	68658
VM	68657
mm	68645
bror	68636
▁Stat	68633
▁BLIR	68632
▁strumpor	68632
▁viktigast	68614
▁barnbarn	68611
yo	68610
▁1980	68608
▁mackor	68606
▁delat	68603
stav	68601
icin	68584
▁täcker	68577
ni	68561
ynta	68558
▁systrar	68550
▁Bab	68529
ital	68523
▁presenteras	68518
▁sommarens	68516
▁försäkrings	68513
▁britt	68505
▁nämnt	68502
▁innehålla	68495
▁skärmen	68495
▁grä	68476
▁anta	68468
▁kritiska	68455
▁upplevde	68451
▁faster	68437
▁matta	68436
▁Dor	68433
hållning	68428
kö	68407
▁passerar	68405
▁landa	68400
immer	68388
▁lant	68384
▁innebandy	68380
gjorda	68380
▁minim	68377
▁Förresten	68372
▁blommorna	68370
ikationer	68366
▁seriös	68365
mos	68354
▁bokstäver	68334
▁umgicks	68329
▁akadem	68306
▁bon	68304
▁ansvariga	68284
▁rinna	68279
ansvar	68278
▁testar	68269
vens	68268
▁gubbe	68254
BA	68241
ligan	68225
skottet	68224
▁belö	68220
▁rekommend	68213
▁inspel	68206
▁kvälls	68203
▁Asp	68201
▁skydds	68194
etar	68193
ison	68161
▁rand	68137
▁sättas	68131
▁spänd	68124
▁Band	68123
▁andan	68116
jäl	68114
▁LI	68110
▁övre	68103
80	68040
▁digitala	68031
▁befäl	68021
vel	68016
▁anda	68008
▁märka	68000
▁hotar	67984
holmen	67980
▁orsaker	67958
▁festa	67958
drarna	67940
▁fördr	67940
stud	67936
lu	67933
▁kvinno	67916
▁Börja	67908
cul	67899
essen	67869
ante	67861
▁domstolen	67858
▁KON	67853
förmedlingen	67842
▁HEL	67831
intress	67809
bank	67806
▁Kajsa	67791
▁skytt	67785
▁träningar	67784
amn	67784
klipp	67774
byggnaden	67772
▁bikini	67762
▁försent	67750
▁blog	67749
▁skita	67738
▁exist	67735
▁Kväll	67723
▁uppgick	67721
ktor	67719
▁avdelning	67715
givare	67708
▁knut	67702
▁syss	67696
▁täcka	67694
▁ALL	67693
▁beräknas	67683
▁blött	67677
▁klädd	67665
▁putt	67664
katt	67650
bolagen	67648
bitar	67647
▁ock	67642
▁BIL	67618
▁lugnet	67607
▁överraskande	67601
▁Isak	67580
▁gillat	67554
▁frisör	67549
giften	67548
▁Kvinnan	67544
ängd	67528
▁bestå	67517
▁storebror	67511
▁experter	67506
gifter	67500
äkten	67496
▁självklar	67491
▁ven	67490
▁1986	67470
årsåldern	67458
▁båtar	67443
▁ramlade	67439
hälle	67437
▁byte	67423
föreningen	67417
▁kommissionens	67417
▁utebl	67415
uer	67411
▁älskat	67403
▁vett	67369
▁flickorna	67358
▁ryss	67357
▁Röda	67342
sut	67324
▁Tony	67305
▁chockad	67304
anterna	67298
▁Sånt	67293
▁inc	67275
▁fickan	67272
▁lampor	67265
▁krona	67248
rars	67248
▁aggress	67242
▁fattigdom	67241
▁1,6	67240
▁demokratin	67236
▁lukt	67225
▁förhoppningar	67215
ATS	67211
▁bildar	67197
nummer	67193
▁garanter	67186
yta	67160
▁anonym	67159
▁marin	67149
▁Nåväl	67146
▁direkta	67139
räck	67137
▁fallen	67135
stationen	67115
punkten	67113
▁dropp	67109
fabr	67088
▁överraskad	67086
iktiga	67083
▁700	67074
▁Pers	67064
ismens	67043
▁drabbar	67020
entet	67017
▁käk	67006
medlem	66995
▁sign	66976
▁utgifter	66972
▁märkliga	66968
▁ljuger	66961
ians	66958
syn	66950
▁löper	66939
▁konsekvenserna	66927
▁frivilligt	66921
▁arbetare	66917
▁stressigt	66895
▁tyckas	66883
▁NÅGON	66877
▁arbetslösheten	66871
▁1987	66870
▁förbundskapten	66866
▁Joel	66862
▁påpeka	66862
▁Helst	66853
▁husse	66824
▁åstadkomma	66821
ines	66815
▁konkurs	66807
▁ran	66798
▁uppstod	66792
▁holl	66775
▁äpple	66774
▁Kroatien	66773
▁samm	66761
▁pool	66755
ekon	66754
▁spenderar	66751
▁skrattat	66744
skolor	66740
▁flytten	66739
▁ph	66727
regler	66722
▁svärmor	66722
▁syntes	66720
▁Mountain	66714
smän	66703
▁nattflyn	66703
▁tält	66691
▁Låg	66674
kriv	66669
programmet	66666
▁Förut	66662
ätet	66661
▁vänstra	66645
▁Stig	66642
▁rymd	66637
▁gifter	66627
▁Hammarby	66625
▁elaka	66609
▁vetenskapliga	66604
▁släpps	66599
▁GÅ	66596
▁granskning	66583
irg	66578
▁Klara	66545
igastes	66534
serie	66529
▁univers	66521
▁Wilhelm	66520
▁Utr	66516
marknad	66510
▁Rio	66507
▁börjades	66504
▁repet	66496
ungar	66496
▁alternativet	66495
ekonom	66474
▁klyft	66472
▁mardröm	66465
▁2015	66461
dagens	66459
▁utskottet	66423
▁Annie	66421
länderna	66414
▁blåa	66412
▁jordens	66403
14	66382
▁hugg	66379
▁europeisk	66367
▁Syr	66365
▁permanent	66353
görande	66350
▁Sydkorea	66339
▁sve	66338
▁förskola	66330
▁avslapp	66313
▁IT	66306
▁onödan	66303
▁Veckan	66300
▁muse	66289
▁tröttnat	66287
▁40-	66272
11	66265
▁ångesten	66247
mästare	66241
rätta	66232
▁gulligt	66229
▁yrke	66228
ukar	66225
▁folkets	66209
▁jättet	66209
▁tempot	66207
▁skäll	66207
▁psykiat	66205
▁ropade	66204
nis	66193
▁Sydafrika	66186
▁Smith	66182
▁spontant	66181
▁flyget	66180
▁arbetslös	66166
▁satan	66150
▁pyssel	66141
▁museet	66121
▁Ā	66117
▁Tag	66102
▁förvalt	66099
▁slum	66096
▁undr	66095
▁pallar	66092
▁uppmanar	66092
▁betalat	66088
▁vandrar	66086
▁mästare	66072
▁Ner	66069
▁tveksam	66061
▁brydde	66061
▁mäst	66058
▁vardagsrum	66055
▁meddel	66052
▁tolkning	66043
▁Flyg	66028
ede	66026
▁Ev	66024
▁alliansen	66009
ämnen	66006
▁tillgänglig	66006
▁usel	65998
▁Tekn	65997
▁sänkt	65993
▁färgade	65976
▁Skit	65963
▁beseg	65937
handling	65924
▁klapp	65917
▁Verkar	65912
▁hävdade	65894
▁lämpligt	65887
▁upphov	65875
▁inriktning	65867
▁mkt	65858
▁King	65856
▁arkitekt	65852
▁samhällen	65848
arbetare	65846
UL	65840
stens	65836
▁Sofie	65835
icia	65832
tart	65829
▁behand	65828
▁nämner	65823
▁sushi	65793
kraften	65789
▁förekom	65786
▁Mas	65764
komna	65763
▁halsband	65760
▁överväg	65755
ston	65748
▁Moskva	65747
▁kans	65746
eriet	65745
ljus	65720
▁motivationen	65720
nast	65703
klassen	65700
skare	65699
klädda	65655
▁NHL	65646
▁ligan	65646
▁2000-	65633
agd	65629
▁Joakim	65602
byggd	65593
▁ärendet	65591
▁omgången	65584
▁motsvarar	65582
▁älsk	65576
▁Köp	65573
rass	65562
▁Central	65555
▁strikt	65546
fru	65545
▁Lyck	65545
▁förflutna	65521
▁bortom	65515
▁ropar	65515
▁alternativt	65515
åga	65497
▁bä	65497
▁kop	65493
▁omvand	65490
▁ledaren	65472
ru	65467
▁Kol	65457
▁olympiska	65448
▁Santa	65441
▁bjud	65435
▁HEM	65434
▁någons	65433
▁sagts	65430
▁svampar	65402
uggar	65400
▁långpromenad	65383
▁drinkar	65381
▁medlemsstaterna	65371
▁oppositionen	65371
▁äpplen	65360
▁Lager	65359
▁250	65358
▁koms	65358
▁återkommande	65353
▁Småland	65351
öten	65347
▁poängen	65341
spolisen	65341
visar	65330
teringen	65325
▁Dalarna	65319
ado	65316
▁hälso	65311
ligheterna	65301
▁självklara	65300
▁moderaterna	65299
vädret	65294
cess	65254
förklar	65246
▁skogar	65241
▁Drog	65239
ionellt	65235
▁kunnandes	65222
▁vistas	65216
▁rutt	65213
▁Cecilia	65199
▁kuddar	65198
▁behandlingen	65195
garen	65183
▁mordet	65173
▁glans	65172
▁täv	65171
▁invig	65170
mötet	65135
▁Körde	65131
▁fik	65125
▁romant	65111
▁räknade	65108
▁långhorningar	65098
▁förens	65092
▁frys	65090
▁vätska	65090
▁statens	65085
▁tyngd	65080
▁råkat	65075
▁villor	65074
▁överflöd	65074
▁Mör	65068
▁börsen	65064
▁jämnt	65058
▁jättel	65055
▁trettio	65052
▁pyjamas	65043
▁utspelar	65042
▁Kollade	65041
byt	65040
▁coola	65025
▁ida	65015
ils	65011
▁annonser	65002
▁hastighet	65002
▁skatten	64984
▁miljöer	64980
▁återgå	64979
▁skugga	64977
ovic	64965
▁grillat	64962
▁Instagram	64960
hjäl	64950
▁konsten	64942
acken	64937
assen	64936
▁signaler	64935
▁docka	64927
▁reform	64919
▁bjudit	64915
yns	64910
anal	64906
▁hol	64903
▁KV	64903
ordförande	64903
jöl	64902
atiskt	64900
▁Cir	64898
▁hyllan	64883
▁appen	64875
▁1971	64865
▁DEL	64863
▁ovanpå	64858
▁hm	64837
▁statistiken	64824
organisationen	64799
▁parfym	64799
telse	64796
▁stolar	64793
juka	64791
▁vari	64783
▁Bryssel	64780
årt	64755
▁Madrid	64740
▁goog	64740
▁smörgås	64732
▁yttersta	64718
▁vers	64716
rarnas	64699
▁skaka	64699
▁börjas	64699
▁Ute	64697
▁TÄN	64695
▁Pen	64683
▁kommentarerna	64677
ual	64676
▁biograf	64674
▁Maken	64667
▁Kvar	64660
▁frös	64636
▁miner	64627
▁Green	64615
▁2-0	64600
▁ansikt	64597
▁svagt	64594
▁jakten	64586
▁sjukvården	64581
▁Mir	64579
organ	64560
▁höjer	64558
spart	64550
▁ende	64548
▁solade	64546
▁Fråga	64540
▁Bank	64538
▁materialet	64536
▁peka	64531
▁firat	64526
ESS	64522
orus	64520
IGA	64514
ftar	64496
▁tit	64494
▁massvis	64486
▁frakt	64480
▁gåva	64479
öjda	64455
skorna	64452
▁hell	64426
▁känsliga	64423
▁solig	64375
▁kick	64374
▁sat	64356
▁älskad	64350
strid	64346
▁leds	64343
ummer	64325
▁hjul	64322
▁Fri	64311
▁mänsklig	64296
▁hårfärg	64282
▁2-1	64275
▁äran	64270
ô	64266
▁friheten	64261
▁partiledare	64254
▁Slutade	64242
spar	64225
▁ursprungliga	64219
EST	64211
mt	64201
▁fjäril	64195
▁Jimmy	64190
▁tillhörde	64180
▁verksamheter	64158
▁vist	64135
▁smuts	64125
▁farbror	64124
ffären	64109
▁Kir	64100
▁Holland	64099
▁blommar	64098
ror	64091
▁utåt	64078
▁Lovisa	64073
▁kandidat	64071
ssätt	64068
▁tillåta	64068
▁strul	64064
UND	64058
FT	64054
ryck	64054
▁Nina	64054
öpp	64053
▁MOT	64045
▁refer	64044
▁lättnad	64039
▁erbjudande	64038
▁bankerna	64014
▁intervjuer	64009
▁1980-	64007
backen	64000
latt	63997
▁läsaren	63994
▁Nån	63990
▁VÄR	63990
elig	63987
▁Män	63977
▁förmod	63972
jt	63967
▁Pu	63961
givna	63951
▁sekt	63949
rafik	63936
▁bos	63936
▁påverkan	63931
▁tallrik	63923
mör	63921
▁paj	63900
▁Josef	63890
värder	63874
▁rätter	63845
stern	63829
▁Lad	63827
▁South	63821
▁fav	63815
▁rättegång	63811
▁rulle	63797
▁nedåt	63795
▁lura	63790
polit	63785
▁erbjöd	63780
▁graviditet	63774
▁rättigheterna	63765
▁Dess	63752
▁isär	63746
▁psykiska	63745
▁brorsan	63743
▁avklarad	63740
▁Snälla	63734
▁omständ	63728
änkande	63722
▁parkering	63708
vill	63703
vår	63698
ämningen	63693
öld	63693
▁ox	63687
▁stilen	63672
▁umgåtts	63663
▁bokade	63662
elen	63660
trafiken	63659
▁bergstopp	63655
▁Portugal	63653
▁ping	63638
hjul	63632
▁jazz	63622
tagit	63599
▁rörelsen	63588
▁Big	63582
▁inklu	63566
fol	63561
▁kvinnlig	63557
▁Torsdag	63557
▁tränaren	63548
▁cer	63536
▁represent	63528
▁höns	63526
▁Tje	63525
▁bolagen	63524
▁1970-	63522
▁tonåring	63519
▁spindel	63519
▁ints	63497
▁företagets	63469
▁blandar	63467
▁företagare	63461
▁kvalité	63454
▁måndagar	63453
▁lagts	63444
▁tönt	63440
▁EL	63433
▁avsp	63431
istor	63427
▁möt	63421
▁pump	63421
▁framh	63404
jet	63403
▁—	63402
▁vrå	63400
▁summa	63398
onal	63395
▁liggande	63394
tekn	63392
PA	63381
▁trångt	63378
▁origin	63376
raget	63375
▁Allting	63368
stans	63366
familj	63365
▁ansikten	63349
▁kontakta	63348
▁begravning	63343
my	63320
▁Sab	63309
▁anmälan	63307
▁avskyr	63304
▁hemliga	63282
▁potential	63272
visade	63251
koll	63251
▁utmaningen	63247
▁tomater	63228
▁Jätte	63213
▁area	63208
▁tabletter	63188
bildning	63186
▁heldag	63181
▁RUNT	63174
▁fött	63164
märken	63159
▁betyd	63158
▁undersökningen	63115
▁GÅR	63107
tagna	63102
▁Vall	63100
▁kanaler	63086
▁överlag	63080
▁JA	63076
▁hotade	63069
▁självför	63066
▁Sha	63063
▁Cast	63055
edig	63033
▁väld	63031
▁relationen	63030
▁varianter	63030
▁shoppat	63015
▁forskar	63015
▁Il	63015
fen	63000
▁kryp	63000
jev	62995
▁osäkra	62989
▁Räk	62986
▁elektron	62977
▁omöjlig	62967
▁kompon	62961
öter	62959
▁konserten	62954
ningsför	62951
anas	62939
▁vårdcentralen	62934
ão	62932
shirt	62932
▁aff	62917
▁producera	62912
▁gosa	62912
▁glim	62908
▁sega	62902
efter	62899
▁visades	62896
urer	62894
▁sannolikhet	62888
▁aukt	62884
ickor	62881
▁frus	62866
▁garantera	62858
▁stöder	62845
▁Felix	62818
▁74	62818
▁BLI	62805
▁stater	62799
▁bab	62796
▁kanada	62796
▁hands	62791
▁vida	62782
test	62780
▁bjöds	62778
▁beslöt	62775
▁hållning	62772
▁uppdaterat	62768
▁lånade	62761
▁revis	62760
bidrag	62758
▁bänken	62757
mid	62752
fakt	62749
▁malmö	62748
▁tugg	62743
▁Medel	62738
▁peng	62727
ETS	62726
företaget	62725
▁stigit	62719
rinningsområde	62719
▁Full	62716
▁1979	62712
▁Faktiskt	62682
▁Río	62677
▁konflikten	62669
strukt	62666
▁78	62664
▁Lov	62659
▁badet	62652
▁reaktioner	62652
▁starkaste	62651
▁pussel	62647
▁invandring	62646
▁tvättar	62640
▁armén	62618
▁avgifter	62600
▁tycke	62599
▁utbrott	62599
▁ök	62594
innes	62590
▁asyl	62562
▁rese	62557
säg	62550
▁sjunka	62536
▁flod	62534
▁Alva	62531
▁sned	62531
▁industrin	62520
▁sistnämnda	62516
▁kyrkans	62515
▁MÅSTE	62503
baka	62499
▁ade	62493
▁Försökte	62493
▁Gustafsson	62489
▁pig	62488
▁rädslan	62487
▁bidragit	62478
▁framstår	62471
▁uppgav	62468
▁matlagning	62462
▁slitna	62450
▁välkomnar	62449
elin	62448
arn	62444
▁1985	62441
JE	62437
▁Kra	62437
byggda	62432
äten	62427
▁förfölj	62424
▁casino	62424
▁Kroppen	62413
itteratur	62408
▁Oliver	62398
▁rötter	62397
▁Will	62385
▁kaff	62383
▁förhandlingarna	62377
▁landat	62360
▁höstens	62351
▁ställas	62347
▁mässan	62315
▁gardiner	62277
▁kämp	62277
▁tredjedel	62256
▁israeliska	62256
▁Dagarna	62255
▁underteck	62245
▁regi	62236
▁drivs	62229
träff	62221
usentals	62220
ISK	62219
frihet	62217
ALL	62207
▁Bort	62207
ي	62206
shem	62204
▁bedöma	62201
▁opt	62199
unge	62199
▁videos	62198
▁action	62185
▁suck	62184
▁Stra	62177
demokrat	62169
eld	62162
▁knäna	62152
▁NÅGOT	62140
▁bekämpa	62138
hö	62137
▁akuten	62135
▁utmana	62134
45	62124
▁mynt	62120
▁ränte	62113
▁Saker	62110
▁utsidan	62108
middagen	62098
▁Kap	62093
riska	62086
▁Vita	62082
revs	62082
▁svettig	62072
▁förbered	62070
▁don	62068
nig	62045
▁Bell	62042
ania	62035
pot	62031
evär	62009
▁nye	62006
▁besatt	61992
▁medlemmarna	61986
▁struntar	61985
▁klickar	61966
skas	61958
▁löj	61944
▁tjänstemän	61933
▁smälter	61928
bev	61921
mask	61920
▁varg	61892
▁Jord	61888
▁underlätta	61884
▁Otto	61877
▁yng	61864
änkningar	61861
▁tråk	61860
▁kvalific	61860
fång	61837
16	61835
▁ärende	61833
▁IM	61826
▁vision	61818
▁FIN	61806
bron	61806
▁Ou	61783
▁surt	61775
▁jack	61773
▁släpp	61768
nos	61767
▁skött	61761
▁yngsta	61761
▁popcorn	61742
stuga	61721
▁Står	61719
▁koncept	61718
▁Mol	61715
▁exploder	61712
▁los	61705
höll	61689
▁tavla	61682
▁Arlanda	61676
▁domare	61658
▁befri	61657
▁skämmas	61653
▁födda	61640
zi	61638
▁slogs	61629
▁avläg	61604
▁varandes	61603
▁rykte	61601
▁medvet	61600
stitut	61590
stopp	61590
ägna	61583
förs	61568
▁fastna	61566
▁regnat	61564
skrivna	61559
▁betydde	61552
▁rutan	61545
pra	61535
▁helvetet	61530
▁bestämd	61529
▁förknipp	61527
▁Mart	61527
blogg	61512
▁delav	61509
▁tillägga	61503
▁gata	61489
▁löfte	61466
▁identifier	61447
▁Form	61445
finalen	61439
heim	61438
▁slant	61437
ERA	61410
▁ständiga	61405
▁radion	61401
▁gulliga	61397
▁fog	61388
▁rubrik	61386
▁lättaste	61385
bef	61379
real	61377
▁Familjen	61373
iserat	61335
▁redovisning	61333
äsongen	61332
▁opposition	61331
▁värker	61326
▁check	61325
▁Faktum	61324
turen	61322
ssjuk	61322
▁flit	61320
▁diskuterade	61319
▁mänskligheten	61315
▁Bör	61310
▁märklig	61309
▁North	61304
ingo	61300
▁förbl	61284
ledningen	61272
KAR	61271
▁sans	61268
ê	61265
rock	61260
Kinshasa	61259
▁Åke	61253
.4	61252
benen	61246
▁tjus	61245
träning	61239
fund	61234
häng	61230
▁undersökningar	61227
▁ifrågasätta	61212
▁Ing	61194
uma	61183
▁Polis	61161
▁tjänste	61150
liggande	61149
▁existens	61148
pal	61147
deg	61145
dret	61142
DES	61138
▁kladdkaka	61130
▁landslaget	61130
fton	61126
▁upprepade	61122
▁Sebastian	61113
▁flott	61112
▁gråa	61110
▁spisen	61103
▁lärar	61101
line	61097
▁ryttare	61087
▁hata	61084
▁tillgängliga	61083
▁karaktärer	61063
▁arab	61060
ics	61049
▁latin	61048
sbygg	61048
▁format	61043
album	61025
▁skon	61021
aa	61018
▁hom	61004
▁spontan	60991
▁ljuga	60987
▁tvingats	60978
▁brittisk	60977
ställande	60976
▁stötta	60967
ood	60963
▁ratt	60963
▁lusten	60958
▁kriminal	60953
▁slottet	60952
▁blixt	60946
ärare	60946
▁maka	60933
▁attrakt	60932
▁arenan	60926
▁kapacitet	60920
▁we	60918
▁Spen	60905
alisering	60893
ötet	60890
järvi	60887
▁element	60879
▁månads	60879
▁bö	60871
▁effekten	60870
▁varmaste	60860
▁väv	60856
▁Kungsbacka	60854
▁rektor	60850
▁friskt	60830
skraft	60826
råk	60814
▁Jansson	60808
åget	60805
▁ledsna	60794
▁bidrog	60787
▁utfor	60777
tim	60754
▁evigheter	60746
▁sjukskriv	60731
enda	60727
▁Inatt	60720
▁fräscha	60713
illade	60700
byte	60692
IM	60667
▁träningskläder	60658
▁Test	60656
heterna	60649
öder	60648
▁påst	60642
håller	60631
▁desperat	60629
▁spark	60629
▁korg	60618
ografiska	60606
ando	60602
hang	60601
äver	60599
▁love	60595
▁1976	60592
middag	60586
▁Bon	60579
skort	60577
▁Clara	60576
▁motsatsen	60566
ängde	60550
▁Pettersson	60548
▁utrikesminister	60544
▁iron	60543
▁sökande	60510
▁klist	60493
▁platserna	60484
▁op	60481
▁irrit	60481
▁stödet	60480
▁Bod	60472
▁tryckt	60470
bek	60470
▁introduc	60470
▁huvudstad	60466
övning	60464
▁föreslog	60458
▁försörj	60457
namnet	60454
▁char	60451
▁däribland	60449
▁föran	60446
▁handels	60443
▁klasser	60437
▁gär	60434
ome	60428
▁duga	60426
rens	60418
ikten	60412
▁tokig	60398
äderna	60395
▁medalj	60386
▁likadana	60381
▁klappar	60378
hard	60368
▁fredagar	60364
spers	60359
▁Somnade	60354
▁93	60352
▁äckliga	60351
▁grannarna	60346
▁kus	60343
▁trod	60340
▁bakt	60339
▁Therese	60335
▁Vikt	60330
▁marknadsföring	60330
▁Sådana	60329
olas	60307
▁lampa	60306
iers	60286
jes	60273
▁tillväxten	60268
▁slås	60261
▁gavs	60245
▁kylskåpet	60240
▁avdelningen	60226
▁hemlig	60220
▁Fol	60204
▁älg	60195
▁mut	60191
▁åtgärd	60161
▁1982	60154
▁Större	60145
ämna	60143
▁uppror	60126
artade	60121
▁VÄL	60113
▁Albin	60104
kligen	60101
▁kröp	60100
▁Personligen	60100
▁intervjun	60100
▁onekligen	60097
▁försvaret	60097
Q	60078
etto	60078
▁fängsl	60069
▁uppskattat	60068
▁ess	60058
▁over	60048
▁ramla	60039
NS	60035
▁kalorier	60034
▁gubbar	60033
▁bredare	60030
▁passerade	60028
lä	60026
rer	60021
änderna	60016
▁sad	60013
ISKA	60010
atser	60003
▁byg	60002
▁opp	59985
▁presenterar	59970
ssp	59961
▁kulturen	59958
▁alex	59952
▁förälskad	59945
▁söndagar	59943
KL	59942
▁Jg	59941
▁arbetsmarknad	59939
▁TY	59935
idor	59934
▁neutral	59933
▁närm	59931
ådde	59919
sakt	59916
▁avn	59914
▁1974	59910
essan	59896
▁Lucas	59892
▁teor	59891
arin	59888
▁diskuter	59887
▁nykter	59886
▁0-1	59875
▁kas	59868
skat	59862
▁fjärilar	59859
▁speglar	59856
▁städerna	59848
▁magiskt	59845
▁läpp	59841
▁bekvämt	59835
▁monster	59823
▁högtal	59818
▁huvuden	59810
▁spa	59803
▁födelsedagspres	59802
▁rekommen	59800
▁dröja	59797
▁Minst	59793
listan	59791
▁Nå	59781
▁omfatt	59772
▁framgångsrika	59765
▁Bakom	59763
ampa	59760
▁arga	59760
▁Mur	59752
▁kräv	59748
▁tam	59746
▁trotts	59746
sked	59746
▁undervisning	59741
▁påhitt	59740
▁hördes	59740
▁analysera	59739
▁investera	59727
▁ti	59714
kvist	59699
glad	59697
▁efterlängtade	59690
▁dansk	59670
▁nöt	59666
innet	59658
▁handled	59653
▁fysik	59639
mäl	59633
▁Hollywood	59632
▁Endast	59619
spol	59615
▁smul	59594
▁neråt	59594
▁definier	59588
▁bekräftar	59587
▁tenta	59585
▁Stort	59574
▁katterna	59563
ammare	59558
▁bredd	59555
▁scener	59549
▁flagg	59547
▁avstå	59535
▁stift	59533
▁strunta	59529
▁aspekt	59525
urn	59522
▁Arvid	59518
▁Film	59518
rater	59515
bruket	59513
17	59503
▁föreställningen	59501
▁brutit	59486
▁99	59473
▁samarbets	59473
dde	59466
▁havande	59461
▁ägnade	59447
LIGA	59439
▁ansågs	59436
▁propp	59434
▁bristen	59432
▁83	59424
▁Dennis	59419
▁judar	59416
▁löste	59403
▁självkänsla	59402
▁speg	59373
indra	59373
emen	59373
▁ändamål	59371
▁VÄN	59369
▁gult	59368
▁Skellefteå	59345
utred	59341
▁gudom	59340
▁Senaste	59333
NE	59329
▁utsikten	59323
▁Passar	59315
▁sväl	59315
▁psykisk	59303
▁därtill	59300
▁festivalen	59295
▁GÖR	59291
▁Säg	59290
skriven	59276
▁tidnings	59264
▁kunn	59261
äker	59256
▁Bildt	59247
▁Fattar	59243
▁effektiva	59219
jal	59218
ädan	59218
alerna	59203
▁Underbart	59192
▁kommunicera	59190
▁fd	59188
▁Tjeckien	59186
ago	59186
▁bekräftelse	59183
▁revolution	59183
▁säkerheten	59178
▁mes	59163
▁njutit	59157
▁blodet	59154
▁recens	59147
▁anställning	59143
otet	59135
▁maskinen	59130
▁beh	59130
▁klassiker	59127
▁budgeten	59105
▁begåv	59105
▁fördomar	59102
▁sydöstra	59102
▁uttråkad	59100
dena	59096
mak	59088
▁orkidéer	59085
▁självt	59081
▁skoldagen	59074
▁uppfattar	59070
▁kapten	59067
▁uteslut	59059
▁76	59053
▁balansen	59050
▁teknisk	59048
stillstånd	59046
▁äld	59041
▁ridhuset	59028
▁Libyen	59027
▁godkänd	59025
iskas	59017
mal	58999
▁Mys	58997
▁ambition	58994
ë	58991
▁bergen	58980
▁Sur	58978
ävande	58963
▁näringsliv	58958
▁mannens	58951
▁moderat	58942
åning	58938
sig	58929
▁bekym	58905
rah	58879
▁verksam	58871
▁kulturella	58856
▁flyttas	58852
▁skulder	58830
▁rester	58829
▁uppmärksamma	58822
smed	58821
▁Rå	58818
fram	58815
skur	58813
▁stre	58808
skrig	58781
ubben	58778
▁kull	58770
quist	58753
▁nyckeln	58747
ese	58746
▁dagsläget	58745
växten	58743
yx	58740
▁städar	58737
ivit	58735
trakt	58720
▁kem	58718
organisation	58716
esh	58715
sky	58708
▁bars	58691
andan	58688
▁trenden	58671
▁pappret	58670
▁fys	58668
▁säsonger	58662
▁konstitut	58661
▁gest	58660
▁framställ	58654
▁kallare	58640
▁digital	58639
▁avsked	58638
▁pum	58625
▁napp	58624
▁orätt	58617
▁komposit	58604
▁frustrerad	58602
vert	58599
usa	58597
▁Pseud	58584
▁utvecklar	58566
dam	58565
▁överlever	58554
strän	58551
chi	58550
▁86	58546
▁görat	58542
▁Love	58531
▁pur	58530
▁kassa	58530
▁Bou	58505
▁reagerade	58501
klubben	58498
▁cerro	58483
idit	58468
ilia	58426
▁kvinnans	58424
▁Jonsson	58422
▁unikt	58420
▁placerade	58418
märk	58418
▁depression	58412
▁Rapp	58412
▁rycka	58409
▁Albert	58407
ierade	58387
▁störa	58383
bullar	58381
mi	58375
punkter	58373
▁pyss	58368
ökt	58361
▁plugget	58360
▁parter	58359
āgh	58354
▁flexi	58347
▁Komm	58335
▁lampan	58333
▁prote	58327
▁handikapp	58311
▁Libanon	58311
▁människas	58311
▁varu	58310
åten	58309
▁äng	58287
▁bul	58283
trä	58276
▁skärp	58272
▁häp	58269
▁sagda	58252
▁skå	58251
▁tja	58226
▁framgångsrik	58226
▁koldioxid	58211
▁Saint	58206
▁Claes	58205
äre	58201
▁piano	58187
ves	58184
▁GL	58175
▁tidningarna	58173
▁snål	58160
▁tram	58158
ilis	58151
▁självklarhet	58149
▁extrema	58136
handlingar	58134
▁sjunde	58125
▁bråka	58121
▁förövrigt	58107
ockan	58105
▁jätted	58103
▁hyp	58094
▁ringen	58090
▁placering	58080
ward	58076
▁chokladen	58070
▁79	58065
▁flertalet	58065
klaga	58062
▁avslappnad	58053
▁herre	58049
givning	58048
ittén	58047
▁normer	58046
vänt	58045
skul	58035
▁JOBB	58034
▁omfattning	58033
▁produkterna	58020
▁Ap	58017
▁tillgod	58016
pens	58014
▁KÄN	58011
▁tjän	57996
▁prinsessa	57992
▁systers	57975
iang	57968
▁nämnda	57965
▁1970	57964
▁arbetsdag	57960
▁förrgår	57959
▁koppling	57945
▁kolleger	57944
▁våldet	57940
▁prem	57936
▁orättvist	57934
▁ih	57929
▁1983	57929
▁Sahlin	57928
leg	57924
ätts	57915
amat	57909
cket	57907
öde	57892
cker	57886
▁smaker	57881
▁examen	57873
▁grova	57871
▁hande	57865
▁representerar	57863
▁FINNS	57860
▁Syftet	57856
▁återvände	57855
▁ledarskap	57851
▁mall	57846
▁gard	57825
▁1968	57816
▁terräng	57814
▁Philip	57811
▁anslutning	57803
▁enskild	57801
▁skattes	57797
bets	57787
▁kusten	57784
▁prestation	57782
▁matten	57779
▁Sin	57775
▁skrivbord	57771
▁migrän	57769
▁bän	57765
▁äll	57754
▁inspekt	57746
▁presentation	57743
▁com	57738
undersökning	57732
▁värdelös	57731
▁förn	57716
▁mic	57713
▁Bloggen	57708
▁Fotboll	57706
▁fruktans	57694
▁Nyss	57688
platt	57671
ämningar	57670
isse	57669
▁resonemang	57657
▁Wa	57655
▁beställning	57653
▁Caroline	57650
▁Anne	57645
▁Ungern	57644
yser	57634
▁pek	57623
omer	57622
▁Jabal	57613
▁krafterna	57612
▁räddade	57598
▁grottor	57594
▁minor	57591
▁sektorn	57591
etid	57589
▁innerligt	57589
▁blöta	57589
▁specifika	57587
▁klämma	57587
handlingen	57582
isst	57582
▁övar	57576
BB	57574
▁vilodag	57574
försäkring	57570
▁frustration	57568
▁tekn	57563
▁pojkvännen	57559
▁studs	57548
▁Roligt	57543
▁kudden	57541
innande	57528
uropa	57521
▁Angeles	57521
▁parad	57513
▁fåglarna	57506
▁Onsdag	57505
▁tolk	57502
▁förblir	57497
▁Palm	57491
▁föreställning	57470
ländsk	57441
▁lönen	57434
ilus	57434
▁opinion	57434
▁Ingenting	57431
▁bröllopet	57422
▁skakar	57418
kött	57402
▁historiskt	57401
▁underl	57398
esen	57389
▁årens	57382
▁krok	57382
ugan	57377
ñ	57375
orterna	57369
▁Beck	57357
▁förfär	57346
▁plånbok	57339
▁ödmjuk	57336
emon	57323
▁sträng	57323
OG	57293
▁uttala	57285
▁uppskatt	57277
▁nyanser	57269
▁col	57267
▁Samuel	57261
▁inspir	57259
▁byxorna	57255
driv	57253
▁definit	57247
åtts	57234
▁budskapet	57232
yc	57229
▁promenerade	57228
▁angrepp	57212
▁förkylningen	57211
▁tvåhjärtbladig	57184
▁Verk	57167
▁dokumentär	57154
▁rundan	57126
▁branden	57109
▁twitter	57094
väska	57082
▁Peters	57080
▁kriminella	57079
▁veder	57078
▁samlades	57076
▁palestinska	57065
▁Norden	57063
▁meg	57061
eci	57051
▁faktor	57049
▁bh	57043
ibb	57040
visor	57036
▁storasyster	57035
▁infrastruktur	57025
▁efterly	57015
▁principer	57005
▁Shit	57001
▁STOR	56999
▁kvarter	56993
▁tvättade	56991
▁mötas	56981
stin	56974
▁anteck	56966
▁Alingsås	56959
▁nödvändigtvis	56951
▁gles	56949
▁smöret	56939
▁Wester	56936
▁Rädd	56928
▁riktar	56923
īr	56923
▁hug	56922
ologiskt	56920
iseras	56915
▁diam	56912
emiär	56905
▁landar	56898
havet	56897
▁Thor	56893
▁slakt	56892
▁påmin	56892
▁återvän	56885
▁tillåtet	56875
agne	56867
▁tilltal	56853
▁bod	56851
▁inkomster	56850
▁småsaker	56844
▁Tillslut	56824
▁sexuellt	56819
▁slip	56816
▁traditioner	56796
▁dennes	56791
vas	56787
▁bestämda	56776
▁förpack	56765
▁recension	56758
▁Sätt	56758
DEL	56756
sköter	56752
▁1,8	56748
▁träffats	56741
▁Björklund	56740
▁representanter	56740
uppgifter	56739
ämnade	56738
ställe	56729
▁semest	56720
▁Värmland	56704
▁påmind	56704
▁SY	56701
▁Sarah	56698
▁Bul	56683
▁Morgon	56683
▁Saga	56674
▁kyrkor	56668
cet	56666
▁Gissa	56663
▁tin	56658
▁vinet	56649
bis	56648
▁shopp	56643
▁decenn	56639
elg	56639
▁Si	56636
▁Ped	56628
▁intensiva	56620
unkt	56618
▁prestera	56608
▁lake	56607
▁pier	56606
▁bevara	56600
▁blandas	56599
▁iofs	56598
▁SJÄLV	56592
▁sträv	56592
▁gestalt	56586
▁bacon	56576
äster	56561
▁förbättring	56551
▁Lim	56548
▁sjung	56533
skåd	56532
flytt	56531
▁kokos	56525
▁Visste	56524
▁förakt	56521
▁ständig	56521
▁bakar	56507
▁tviv	56498
ūr	56490
▁1978	56487
▁stjäl	56484
naren	56478
ängda	56473
gårds	56467
äter	56466
▁gömmer	56465
▁exklus	56449
▁lovande	56443
▁bildade	56441
▁besluts	56439
▁fortsättning	56432
▁Kristina	56431
splatsen	56426
▁Lö	56420
▁åklagaren	56417
▁Mic	56405
känn	56398
osen	56397
▁utvecklat	56394
▁Öland	56394
▁olyckor	56392
▁mön	56389
▁rys	56387
,	56384
▁tillbringade	56383
▁liber	56377
ez	56374
▁FICK	56372
enny	56371
▁pos	56322
▁elden	56318
▁95	56317
talen	56311
▁helr	56306
▁bildas	56305
delsen	56304
▁kretsar	56303
▁tunnelbanan	56301
lus	56299
▁bestått	56298
▁individuella	56294
▁begära	56284
▁Wh	56276
▁illustr	56261
▁arbetskraft	56260
▁skåd	56246
▁samord	56243
▁kreativitet	56235
▁Tam	56232
▁respons	56226
▁deb	56220
▁kines	56213
tav	56210
▁ansvars	56208
▁flaskan	56205
▁lund	56196
såt	56194
▁1977	56183
ionell	56182
▁berörda	56167
isser	56156
edel	56131
åll	56131
agda	56123
▁numer	56118
▁gråtit	56110
▁konkurrensen	56104
linjen	56098
▁varade	56097
▁1975	56070
▁HELA	56060
▁Juni	56055
▁kostym	56050
▁slock	56034
sproblem	56030
▁nagel	56025
fast	56025
▁Sun	56020
juta	56017
▁magiska	56002
föd	56001
▁nuläget	55991
▁grupperna	55984
▁Jones	55979
▁Janne	55970
▁garaget	55965
▁stadsdel	55963
klam	55961
▁Hercegovina	55958
▁domaren	55951
lagda	55951
▁tillämp	55949
▁biskop	55947
▁mönstret	55935
▁fester	55935
▁IGEN	55931
▁vilat	55926
▁medborg	55914
о	55913
▁1981	55913
▁fod	55912
▁vänn	55911
▁lekar	55911
▁kraften	55907
nytt	55901
▁knäppa	55897
▁mr	55894
▁skrämmer	55887
▁butikerna	55886
▁hiss	55880
▁Quebrada	55868
▁1,7	55866
▁kuk	55860
▁AL	55853
▁halvåret	55853
▁byrå	55850
▁110	55845
▁fältet	55842
▁bristande	55835
▁svens	55833
▁veterinären	55828
▁etta	55827
zar	55822
▁morgondagens	55798
▁passera	55796
klara	55786
▁egendom	55774
▁Belgien	55774
▁otroliga	55759
viken	55750
▁sling	55748
▁batt	55745
lappar	55733
▁görats	55729
▁tve	55725
▁lektionerna	55724
▁företags	55720
▁hava	55718
bom	55710
▁py	55707
▁trum	55696
▁robot	55691
▁smar	55685
▁plånboken	55674
produc	55672
▁tyd	55659
▁ron	55649
bers	55646
▁skägg	55645
▁livstid	55641
▁varats	55638
tagen	55636
▁fascinerande	55630
skande	55616
▁långvar	55613
icken	55611
▁champagne	55590
▁överlycklig	55584
försvar	55584
▁betänkandet	55578
▁semifinal	55577
ate	55574
kommande	55559
24	55543
▁kostnaden	55525
cial	55519
▁Alexandra	55513
▁oron	55512
▁trea	55511
▁Fått	55510
▁Gårdagen	55506
▁knuff	55497
▁Sommaren	55480
▁genre	55478
▁schweiz	55473
▁1967	55473
▁trappa	55472
▁morbror	55469
▁skaff	55468
▁lås	55466
spindlar	55462
▁fotat	55459
▁avgift	55458
▁komplicerat	55456
▁rörande	55454
adel	55452
▁valda	55428
▁Cap	55422
▁tillgångar	55419
▁tvättstugan	55412
▁lögn	55407
▁samb	55405
▁marknader	55400
▁möjligtvis	55399
▁varning	55396
▁passat	55388
▁upplag	55387
▁dödade	55361
rem	55358
▁diktatur	55355
▁meters	55331
▁Peking	55326
▁got	55323
▁1972	55319
rov	55313
inet	55311
▁division	55292
▁Jobbar	55284
▁vansinnigt	55274
▁lam	55269
▁Miljöpartiet	55261
projekt	55243
▁suga	55238
▁individen	55237
▁ändringar	55230
sområden	55222
▁upphör	55219
IKA	55218
▁förkyl	55209
står	55208
▁Lukas	55206
▁uppfatt	55195
▁tröttnar	55194
vårds	55194
▁SA	55194
▁frik	55193
asson	55189
▁finland	55188
▁Mell	55181
▁ÄVEN	55178
▁uttalanden	55160
▁blöd	55156
▁vanligare	55154
▁tungan	55153
▁vilade	55146
▁allsvenskan	55132
▁hunger	55132
ḩ	55127
▁muslim	55126
▁2016	55123
▁främja	55120
▁if	55108
skå	55097
-9	55089
nest	55079
▁Birgitta	55075
▁kryddor	55067
▁resterande	55066
▁morötter	55064
▁pryd	55056
ordon	55056
▁påverkat	55052
▁osäkerhet	55041
▁Mora	55040
▁nill	55039
▁rykt	55033
▁Kost	55032
▁explo	55017
▁kategori	55012
▁pip	55011
▁avslöjar	55011
▁Uddevalla	55005
▁styrkan	55004
▁pekade	54982
▁77	54976
▁solat	54962
▁idioter	54946
د	54944
akar	54942
änker	54939
vt	54938
landa	54930
ergi	54926
▁relevant	54918
▁förmed	54915
▁ås	54905
▁kod	54905
▁snyggaste	54904
▁tatu	54898
▁kartan	54892
▁engagera	54887
▁deprimerad	54887
▁stormen	54877
▁doftar	54871
itor	54866
▁Läste	54861
▁Föräl	54860
färdig	54858
▁årstid	54858
ming	54854
▁solar	54854
▁knas	54844
▁kontrovers	54842
▁forskningen	54836
▁frågestund	54835
▁Person	54830
▁snick	54826
▁rek	54823
▁lockande	54818
▁utgångspunkt	54810
▁spåren	54799
åkning	54795
ASS	54793
▁Nobel	54792
▁välfärden	54788
▁GJ	54783
▁masker	54779
▁universum	54777
samlingen	54772
▁undviker	54769
match	54765
▁Tillbaka	54762
▁kräftdjursart	54750
skning	54747
ståndet	54726
▁eröv	54714
▁jagar	54711
▁alltihop	54707
▁bast	54707
▁forma	54706
▁disken	54706
▁förvåning	54704
oven	54701
▁Numera	54694
▁italien	54682
▁storst	54681
▁såsen	54671
områden	54660
▁nyheterna	54659
▁våt	54652
troller	54649
pres	54647
▁associ	54637
▁kammar	54633
▁representant	54623
▁baren	54611
▁tillbringat	54605
peraturen	54602
▁hängig	54588
odor	54588
▁tej	54583
▁1973	54579
stift	54579
etterna	54566
▁växthus	54564
▁försälj	54563
▁Svart	54563
hat	54561
▁såldes	54560
änka	54556
▁konstru	54551
estad	54549
▁sax	54547
▁romanen	54527
▁falsk	54517
▁vips	54514
▁carl	54513
ända	54509
pus	54502
▁klädde	54502
▁autom	54502
ffer	54499
brand	54485
▁tvärt	54484
▁förberett	54478
vita	54458
ÅG	54450
bbar	54445
▁Britt	54445
▁årliga	54445
▁linjer	54444
▁fiskart	54428
▁torkar	54426
▁legen	54422
▁tillräcklig	54422
gal	54403
▁valdes	54401
▁grädd	54401
parken	54397
▁älv	54391
▁sno	54375
▁blomm	54373
▁elef	54372
▁områdena	54372
▁betalas	54371
smässigt	54370
▁nyårsafton	54369
tog	54362
▁långsiktigt	54362
▁Tri	54361
▁juster	54357
byrån	54340
▁slängt	54337
▁hittas	54330
▁kanin	54325
▁lusse	54323
▁160	54319
▁tidpunkt	54319
▁generationer	54312
drande	54304
UG	54296
▁repris	54281
bre	54279
alismen	54255
▁nyheten	54250
▁Använd	54249
jel	54241
▁galoppen	54240
▁därute	54239
▁konsumenter	54232
▁bety	54226
▁sutt	54222
▁Spar	54220
▁brut	54210
▁Myr	54206
▁Der	54192
▁kunskapen	54190
▁sååå	54188
▁lokalt	54180
▁bevilj	54177
kri	54176
▁godkän	54170
▁jättefint	54170
▁avslutat	54170
▁tårtan	54165
fo	54135
UD	54115
▁knyta	54114
grens	54108
▁ANDRA	54082
▁varier	54077
rang	54067
▁separat	54063
▁betong	54061
bat	54053
▁institutioner	54049
▁Mill	54049
▁Tors	54043
▁nickade	54039
mets	54036
▁kitt	54033
▁Edward	54032
▁regional	54028
▁lyckade	54021
▁skugg	54019
▁strålar	54007
ÄNG	54003
▁glögg	53998
▁engagerade	53995
nämnden	53986
▁oerhör	53981
ycker	53980
ötterna	53980
▁käkar	53978
▁Alliansen	53977
▁sanden	53973
▁tyckts	53971
▁utsätts	53970
æ	53967
▁stressen	53966
▁orten	53965
▁menyn	53961
▁taj	53948
▁bjuden	53944
▁lånat	53939
▁exempl	53930
▁leksak	53915
▁gubb	53913
utr	53907
▁fredagsmys	53907
▁BER	53903
terades	53893
▁anspråk	53890
▁drink	53889
▁glob	53882
▁1-2	53872
▁Trollhättan	53869
gh	53869
stider	53868
▁slutsatser	53867
▁Jörgen	53863
▁Jonathan	53856
▁medicinen	53851
▁aspekter	53843
▁fascin	53841
▁Jocke	53836
▁vattenkällor	53809
▁ramlar	53806
▁trix	53799
25	53796
▁1960-	53792
NAS	53777
▁Olofsson	53776
dukt	53768
▁pågick	53767
▁Mesa	53759
cu	53756
▁femtio	53752
pir	53751
▁Maur	53750
▁ridningen	53734
▁turn	53732
▁lämplig	53731
klart	53727
▁matcha	53719
▁pågått	53709
▁178	53699
▁krets	53691
eli	53688
▁Mary	53687
▁index	53685
▁röj	53681
▁Alldeles	53680
önster	53672
icker	53662
▁rundas	53662
SP	53660
▁Rebecca	53650
▁ekologiska	53632
▁redog	53629
ysning	53626
▁Pot	53626
▁informera	53618
från	53616
▁mu	53614
▁amerikan	53612
bladet	53609
rys	53605
▁förhållandet	53605
▁Sådär	53601
▁nånsin	53587
förslag	53581
målet	53578
▁studio	53577
▁reger	53563
▁Björk	53555
▁bryt	53553
bour	53547
▁impon	53547
▁ll	53531
▁förhoppning	53531
åra	53528
▁gir	53524
▁säljas	53517
▁högstadiet	53516
▁Uppdat	53514
▁Ovan	53493
▁kändis	53486
▁VID	53486
ienter	53486
▁avundsjuk	53476
▁intro	53470
▁Norrland	53466
▁stadigt	53458
▁oändligt	53452
▁staterna	53451
▁infekt	53445
▁ointress	53444
▁legitim	53444
▁Ḩ	53441
▁nervöst	53441
▁Idol	53439
▁Post	53438
▁lak	53436
▁direktiv	53434
▁Maten	53434
▁befintliga	53432
▁förluster	53432
dahl	53430
ägarna	53424
ava	53419
▁avseende	53408
▁konsumtion	53407
▁kombinera	53405
▁ER	53398
▁Hun	53396
▁coach	53392
idi	53392
▁1,9	53389
▁jätteroligt	53382
▁Gun	53381
▁oljan	53378
tala	53375
▁gamle	53371
▁kroppens	53370
▁finnar	53361
▁grundades	53361
juter	53356
▁fönstren	53355
▁gjordas	53352
▁anlände	53347
▁skjorta	53340
▁tales	53337
uven	53334
▁fotografering	53333
▁bund	53330
▁säl	53329
▁Sag	53327
▁baserad	53307
▁aven	53298
oren	53289
▁familjerna	53279
▁begränsa	53276
▁skulpt	53272
▁Hor	53265
▁Bus	53265
▁betalade	53264
▁uppskattade	53263
▁SITT	53249
▁Tisdag	53247
▁glitter	53242
sper	53239
▁uppgång	53236
▁rysk	53236
▁kategorin	53229
▁ignor	53223
▁lösas	53223
▁berömda	53218
▁händ	53217
text	53207
▁föreläsningar	53204
▁saknades	53199
▁Tem	53192
▁föreställningar	53188
▁numret	53187
okat	53186
mars	53180
osn	53178
▁befinna	53172
▁Tråkigt	53171
▁Nov	53163
▁HELT	53160
▁skrivas	53150
ådd	53138
▁laddade	53138
▁nyttiga	53135
▁inledningen	53128
▁ansl	53128
cit	53127
ymp	53117
▁redakt	53116
▁96	53104
▁Real	53104
▁fabr	53103
▁iphone	53102
vagnen	53097
▁Ti	53096
bia	53095
▁leken	53091
▁1969	53090
▁alle	53086
▁MÅNGA	53079
▁TVÅ	53076
▁invester	53076
▁fåg	53073
▁stenhårt	53070
sjön	53068
▁studien	53061
▁gnälla	53049
▁kalaset	53048
▁strömmen	53047
▁Plat	53039
▁bist	53037
▁församlingen	53035
hjälp	53032
▁tatuering	53031
▁Mich	53026
▁Finans	53024
drom	53020
▁erik	53018
▁utn	53007
▁karriären	53006
oca	52994
▁plattan	52988
▁Koll	52986
inv	52982
onerna	52980
holms	52975
▁Natt	52975
▁tiot	52961
▁kav	52960
nämn	52942
▁torde	52937
matt	52929
▁Ingrid	52921
▁skärm	52915
slor	52912
▁Falun	52908
▁avveck	52899
▁förbjudet	52898
▁affärs	52893
▁styrkor	52891
▁71	52882
▁nästintill	52875
▁sminket	52869
glas	52867
▁dödar	52863
▁enklaste	52863
▁Nar	52842
▁avgång	52818
▁logga	52815
▁Cro	52814
▁tran	52813
▁sparat	52789
▁kvaliteten	52788
osp	52784
▁luktade	52781
▁republ	52777
21	52774
▁ungen	52772
vecka	52765
▁packar	52765
▁Tredje	52751
åld	52746
▁underhållning	52730
▁krigs	52722
löshet	52712
▁strå	52708
▁utkik	52707
▁stul	52697
▁besvikna	52692
▁förberedel	52691
fört	52690
▁arbetstid	52689
▁traditionell	52677
▁omhänder	52676
▁Häst	52670
orin	52668
▁världar	52666
bunden	52666
ords	52660
äp	52640
▁närmre	52622
▁besvar	52618
▁invånarna	52610
▁MÅ	52604
▁bädda	52597
▁vittnen	52596
▁krön	52589
▁varumär	52580
▁bränner	52569
obi	52563
BER	52562
▁våningen	52558
höj	52557
sart	52544
▁överlevde	52517
▁tentan	52507
î	52495
ovet	52494
akes	52488
▁inrikes	52479
▁cur	52476
▁United	52472
▁långsam	52460
▁orkidéart	52459
▁rättegången	52445
politiska	52437
▁Såklart	52433
▁kräk	52426
▁salu	52424
▁spelen	52420
▁förvå	52417
ingars	52417
▁Huset	52409
atte	52409
▁logiskt	52407
▁förtviv	52378
▁penning	52372
▁dynam	52364
▁Klipp	52362
amas	52352
▁utvecklade	52350
▁misstänks	52349
▁förhopp	52348
olja	52342
jacka	52339
egat	52321
▁tekniker	52320
▁invän	52311
▁onödig	52309
▁SÄ	52306
▁flytande	52305
▁diskriminering	52303
-8	52293
▁Äter	52292
▁pepparkakor	52287
duktion	52281
▁soft	52281
dex	52276
▁Ena	52276
▁mäster	52275
▁serveras	52274
▁tyckta	52273
▁medit	52271
▁luta	52269
▁Nora	52262
▁motiverad	52261
▁sne	52256
▁skyn	52226
▁svenske	52225
▁mångfald	52225
▁satsningar	52223
resor	52221
▁Fi	52208
kompis	52206
ologen	52194
▁flöt	52188
▁ventil	52184
▁Ander	52179
▁nyhets	52176
▁uppfylla	52170
▁Ana	52164
▁hungriga	52161
▁manipul	52161
▁kare	52155
▁1700-	52151
IC	52151
▁offens	52148
loss	52142
▁bek	52132
▁inifrån	52131
▁Ax	52122
dotter	52122
▁gel	52113
▁sparkar	52103
▁ul	52098
▁ast	52096
▁centralt	52087
▁LÄ	52083
▁skjort	52079
▁Filippa	52076
▁Bloggar	52074
▁vantar	52074
▁bolagets	52065
▁klassrummet	52060
skarna	52060
▁segr	52058
bod	52054
▁bubbel	52053
▁tuffare	52053
känd	52043
▁inkom	52029
▁stabilt	52022
gräs	52019
sstyr	52018
runda	52005
▁trädgårds	52002
▁delakt	52001
blick	52001
sök	52001
▁skeptisk	52000
▁ordnar	51992
▁tekniskt	51992
▁armé	51983
▁skarpt	51975
▁grott	51964
▁Rob	51957
▁inbrott	51955
▁läkarna	51948
▁köttbullar	51938
frikanska	51937
▁kolon	51935
▁bokstavligen	51918
▁långas	51916
▁kärl	51916
▁kūh	51900
▁+	51898
▁versionen	51887
fullmäktige	51885
▁140	51885
struktur	51880
▁länka	51879
▁avdel	51877
▁käns	51875
▁Pra	51875
ower	51865
▁tävlade	51864
öarna	51849
▁ålders	51847
▁KOMM	51845
▁manifest	51842
▁kina	51837
▁uttrycket	51837
▁viner	51831
▁stämde	51825
▁grubb	51822
ättade	51821
▁reflektera	51819
▁tacksamhet	51818
dro	51807
▁anti	51807
▁skulden	51805
▁pytt	51798
▁idrotts	51790
▁vra	51788
▁Back	51783
chus	51783
sle	51780
jung	51777
istans	51775
▁publicerade	51773
grunden	51769
▁skaffar	51767
▁användare	51766
▁damen	51761
▁investering	51753
▁sara	51736
▁framträdande	51729
▁gram	51729
ättningen	51729
▁ursäkta	51724
▁upplevelsen	51718
▁förskräck	51718
▁glider	51717
▁teatern	51713
▁stt	51706
▁GÖTEBORG	51704
▁original	51699
▁bistånd	51699
▁Mellanöstern	51696
ydda	51696
▁BES	51694
rörelsen	51691
ical	51688
▁fäl	51687
▁behär	51684
▁segrar	51682
▁truppen	51681
▁sjunkit	51668
▁vanligen	51666
▁Guld	51665
▁andelen	51663
▁Nordkorea	51658
iment	51652
▁rättvist	51644
▁کوه	51644
▁avrätt	51644
▁Reuters	51638
▁intens	51628
▁vinnaren	51611
▁vindar	51611
▁grin	51611
▁upprör	51610
▁Bjuder	51603
▁utbild	51598
huvudort	51595
▁cigg	51593
▁hälsan	51591
▁wh	51591
cas	51589
▁babb	51587
▁återvänder	51582
▁nämns	51575
resultatet	51558
▁Götaland	51543
sledare	51534
duk	51532
▁kandid	51528
▁kragen	51525
▁Bea	51515
▁are	51513
skost	51504
▁stö	51495
▁sinnes	51493
▁tunt	51490
räk	51483
▁broder	51482
plac	51477
▁Wal	51472
kommen	51454
▁hind	51453
▁föreläs	51453
▁minuters	51450
▁1960	51449
▁sum	51446
ischer	51439
splanen	51437
kret	51437
▁Antagligen	51430
▁GÖRA	51425
▁sugna	51416
▁skyddar	51416
JA	51412
ägaren	51404
▁lyste	51402
▁Angola	51398
▁porr	51395
läggningen	51384
▁André	51378
▁stegen	51375
▁spott	51372
▁jättest	51362
▁hyster	51359
▁muffins	51357
▁inleds	51356
▁höras	51355
▁sysslar	51353
▁mand	51348
▁Tio	51346
▁experiment	51346
ē	51342
▁Trans	51342
▁språ	51341
institut	51339
▁styrde	51336
▁kommunikat	51330
▁Kvinn	51329
▁efterfråg	51327
▁trasig	51324
▁sköld	51320
▁abort	51318
▁Vore	51311
▁Cañ	51310
anger	51307
▁belöning	51301
▁padd	51299
▁besö	51298
äser	51288
▁kritiker	51288
▁vegetar	51288
▁jobbigaste	51286
formation	51276
▁publiceras	51259
▁Gabriel	51247
bak	51240
▁rust	51236
▁modet	51230
ense	51228
▁Dav	51224
▁turneringen	51220
▁tvåan	51206
▁enkl	51203
▁slet	51203
▁Gunilla	51202
▁växel	51196
▁kliar	51194
▁jurid	51194
▁utforska	51189
▁hanterar	51178
▁förbereder	51176
▁rensat	51166
▁etablerade	51153
▁anslut	51145
▁bjudna	51142
▁religiös	51142
tet	51138
▁svalna	51138
OP	51137
helgen	51137
▁namnen	51134
▁VÄ	51131
havare	51127
svenskan	51126
enskaps	51124
▁flaskor	51114
satsen	51113
stru	51112
▁utreda	51109
▁noggrann	51102
ues	51102
stal	51101
▁nöje	51096
▁skadat	51093
▁stret	51091
imen	51091
▁fläck	51086
mät	51078
vag	51076
kalas	51075
▁densamma	51073
sterna	51070
▁näringslivet	51061
▁champ	51061
alisera	51054
▁biter	51051
▁Lille	51043
▁bol	51040
▁stors	51035
rinningsområdet	51033
▁mascara	51022
▁Eskilstuna	51019
vagn	51017
▁unionens	51009
▁familjemedlem	51008
▁smås	51007
▁kak	51004
arskap	51002
▁skarp	51002
▁gränserna	51002
stugan	51001
▁hafts	50996
▁konsekvens	50995
▁sparka	50992
▁Kristus	50984
anskt	50972
▁kudde	50971
▁prester	50967
▁deltag	50961
▁Tex	50959
▁illust	50933
▁power	50932
▁Pratade	50932
▁förbr	50927
yren	50923
▁task	50919
▁uppstå	50915
▁gräsmattan	50913
marnas	50913
▁Hansson	50913
▁evenemang	50909
▁Times	50907
▁kapp	50906
vagnar	50902
kass	50900
eka	50898
▁förlor	50883
▁harmon	50882
▁skrib	50873
▁förbundet	50869
kts	50869
nation	50857
▁Nad	50852
▁dörrarna	50846
▁Hav	50845
▁hostar	50826
▁skul	50815
▁skapades	50813
▁basket	50806
▁bebisar	50805
▁sorgen	50802
▁Gym	50801
▁fördju	50799
rea	50796
▁skåpet	50796
▁Hjäl	50790
▁magisk	50789
▁Vel	50782
hängande	50764
▁befar	50761
▁slutsats	50751
▁mack	50748
▁Rolf	50745
▁rop	50722
▁je	50717
board	50716
▁frisören	50710
yggt	50703
▁sårad	50686
▁urin	50681
▁novell	50674
▁sortera	50670
▁rusar	50669
▁havas	50669
▁sängar	50668
bby	50666
col	50658
issen	50657
▁pus	50656
▁nyårs	50641
▁rasande	50636
▁brödet	50636
▁magn	50635
▁strävar	50635
▁hades	50627
▁tillfråg	50625
▁interna	50617
▁miste	50616
▁Airport	50615
▁påsar	50611
▁Pelle	50608
▁toner	50605
▁piff	50602
ege	50601
▁Halland	50600
fyll	50596
▁entré	50593
beck	50592
▁upplägg	50590
▁dl	50586
▁Ele	50586
ness	50585
▁ägarna	50583
ily	50580
▁livsl	50575
▁orter	50554
▁kronan	50549
▁rän	50542
▁ogillar	50541
▁kramade	50541
DS	50534
▁utvis	50534
▁redigera	50533
▁vits	50529
▁Staden	50523
▁Börj	50520
▁Dans	50519
▁beslag	50506
▁bråkar	50503
▁seriösa	50498
▁Pia	50489
▁kosten	50483
▁händelserna	50480
fylld	50475
▁nedgång	50471
▁Desa	50453
▁Jeg	50447
▁talesman	50440
▁experim	50434
▁ställdes	50433
▁brevet	50428
▁term	50427
▁installer	50426
oul	50419
▁stressade	50410
revligt	50400
iserad	50397
gjorde	50388
▁Cu	50384
▁veg	50383
▁patienten	50379
▁nig	50378
▁krydd	50376
▁identifiera	50372
▁begr	50367
olly	50366
▁Ig	50349
▁nag	50342
▁befog	50340
▁ull	50339
▁tvek	50339
▁fylls	50337
iget	50335
▁vardera	50334
satts	50331
▁förändringen	50330
▁hobby	50330
▁engagerad	50328
▁Kär	50326
▁nos	50325
istrikt	50318
▁Åtminstone	50313
mäkt	50305
▁frekv	50300
▁OK	50297
station	50295
bollar	50294
rek	50285
minist	50275
▁Varberg	50268
▁DETTA	50265
▁landskapet	50261
▁förstörd	50255
▁vares	50254
▁adop	50253
▁spektak	50252
▁kind	50240
▁bearbet	50240
▁kamrater	50238
erierna	50236
▁init	50231
▁José	50226
▁DEM	50225
▁after	50221
▁ökande	50220
ap	50216
▁mors	50213
▁Nja	50211
porter	50208
▁varnar	50208
▁euron	50206
▁utv	50204
и	50203
▁ovanlig	50202
▁presenterades	50199
▁Svaret	50197
▁1962	50196
▁regionala	50194
▁råka	50191
▁förvånande	50190
▁Elisabeth	50190
▁famnen	50184
prat	50177
▁lögner	50173
▁intellekt	50166
▁deltagande	50162
▁glaset	50157
▁förund	50156
▁bind	50151
▁påpekade	50151
slöst	50149
▁storleken	50149
▁morot	50145
▁grenar	50143
feldt	50138
▁täckt	50134
▁vard	50130
laren	50126
▁infördes	50106
▁synnerligen	50090
yld	50082
▁engag	50081
▁handes	50074
strå	50074
yft	50073
▁hålet	50072
rafiken	50064
▁rört	50061
▁jobbigare	50061
▁världsc	50050
▁anders	50049
förening	50041
rut	50037
▁forskarna	50033
▁MÖ	50031
▁Ask	50023
▁175	50013
ase	50007
▁stövlar	50004
örelsen	49999
▁missför	49990
▁Mari	49988
kers	49976
▁mc	49968
▁avser	49966
▁fjäder	49961
▁utöv	49947
▁bekräft	49942
tagande	49939
▁omgående	49937
jekt	49937
yga	49933
föräldrar	49928
▁troende	49925
▁Konstigt	49914
▁konsul	49903
blem	49898
varon	49892
▁tonår	49887
▁filmens	49877
stånds	49876
unkten	49872
ural	49866
▁juice	49865
även	49865
▁suverän	49863
lösning	49863
▁öppenhet	49855
bben	49842
körd	49838
▁variation	49837
▁stycke	49833
▁fen	49830
▁cirkul	49829
▁Villa	49828
▁Lindgren	49822
▁Off	49821
▁EX	49809
smat	49809
▁Pris	49800
▁fredrik	49788
▁Mos	49775
ugen	49768
▁gled	49765
cos	49763
ssa	49749
▁Pop	49747
eställ	49746
ativt	49736
▁räkningar	49731
▁tenderar	49728
▁lägsta	49725
▁tragiskt	49721
stag	49716
▁reportage	49716
▁förstört	49716
▁Varken	49711
▁mäkt	49710
▁konvers	49705
▁Vänsterpartiet	49704
▁global	49699
idande	49694
▁pratas	49693
▁utarbet	49692
▁vek	49686
merna	49679
▁konstnärer	49679
▁läcker	49674
NINGEN	49671
▁Gäller	49666
ikor	49663
▁Vatten	49655
▁seri	49650
▁kara	49649
▁gångnas	49642
grader	49642
▁nystart	49636
▁jullov	49632
oritet	49632
▁kulturer	49625
▁listor	49622
▁natts	49616
▁tera	49611
▁likhet	49604
▁motsats	49595
▁ifred	49595
▁pian	49593
skytt	49586
▁trivdes	49582
isses	49582
imma	49581
▁tugga	49579
ür	49572
▁Art	49554
▁sommarjobb	49553
ت	49550
▁importer	49549
orth	49547
▁mäss	49544
▁anal	49541
▁Lam	49539
▁mobiltelefon	49536
iform	49521
▁Beg	49515
ument	49512
▁wadi	49512
auffören	49506
▁Träff	49504
▁exper	49499
▁såld	49494
▁uttryckt	49491
ded	49488
BR	49486
EF	49484
▁grejerna	49476
▁spenderas	49469
stall	49463
innor	49462
oides	49462
▁vandring	49454
▁Pierre	49447
▁betonar	49440
▁omt	49438
▁Risken	49436
▁komprom	49434
▁University	49431
▁begränsade	49431
▁Bob	49430
▁vikter	49429
läst	49428
idigt	49425
gress	49422
▁buff	49419
ällan	49418
▁Histor	49409
vetet	49408
▁ambiti	49405
▁strump	49405
▁koncentration	49397
▁strukt	49394
▁Fest	49393
▁Massor	49391
▁Vit	49391
▁tänkts	49389
▁tänd	49388
▁fluff	49387
▁chillar	49378
▁tä	49374
förhåll	49370
▁Sus	49356
▁födelsedags	49356
▁onytt	49353
lista	49350
▁sporten	49341
omi	49333
▁Skrev	49332
ullar	49326
▁mem	49316
fäl	49306
▁SER	49304
▁Handlar	49302
▁medie	49298
▁strunt	49296
▁utnyttjar	49293
▁havandes	49291
ISKT	49290
▁fälla	49286
▁lata	49281
▁torkade	49280
▁Kristian	49276
▁Pi	49274
▁vilse	49262
▁redskap	49258
▁Fisk	49257
▁Dol	49251
verna	49250
▁planerad	49249
▁Lik	49240
▁kompl	49238
sförbund	49237
atern	49234
▁utvecklings	49226
▁Pre	49226
▁Fer	49200
▁filmade	49199
larnas	49196
▁inneburit	49191
▁överenskommelse	49190
▁Bang	49187
▁balsam	49182
▁Cent	49182
▁reflex	49181
▁Träningen	49176
skiva	49176
▁förbättras	49172
sländor	49172
irat	49169
▁tycktas	49165
jsa	49156
bid	49144
▁kompet	49143
▁Hit	49142
е	49126
▁tröttna	49125
▁ud	49125
▁rösterna	49121
▁försö	49100
▁förklarat	49100
rund	49098
▁mots	49095
ffel	49093
▁understry	49090
▁Od	49086
▁avskaff	49085
delser	49082
▁skaffade	49081
NAR	49080
▁tillhörande	49071
▁engelskan	49067
▁besluten	49063
alus	49062
▁Disk	49057
▁molnen	49052
▁Cypern	49049
▁VARIT	49043
▁förvandlas	49031
ändare	49031
föring	49019
friheten	49017
▁omkull	49015
▁Uts	49009
▁förvånansvärt	49005
▁norsk	49004
▁kommentars	48996
▁förväntade	48996
▁pynt	48994
▁avancerade	48991
▁Vr	48988
▁gående	48984
▁insekter	48982
▁au	48981
▁1965	48976
onym	48971
▁tunnel	48959
war	48954
▁förvånade	48942
▁sisådär	48933
▁Ara	48926
▁behag	48915
orde	48901
illat	48899
▁Mölndal	48896
▁räkor	48892
▁kommers	48883
▁BNP	48883
▁teorin	48881
▁fikt	48880
▁Vik	48879
▁visning	48877
▁Sju	48863
▁utvecklades	48861
▁gode	48857
▁förbli	48856
▁Orsaken	48856
▁blunda	48851
▁professionell	48849
▁bekostnad	48846
▁130	48835
▁spra	48834
▁påsen	48825
▁Solna	48821
veck	48818
▁biff	48814
▁Tips	48812
▁stöttar	48801
▁trädet	48791
▁Dy	48778
▁bryggan	48773
paket	48772
▁åklagare	48767
vida	48766
▁Senast	48760
▁söner	48759
▁dikter	48754
RAT	48754
faller	48753
▁decennier	48739
▁yttrande	48736
▁bakis	48730
▁utbildningar	48725
▁madrass	48723
▁84	48723
▁stundtals	48714
pid	48709
ikal	48705
▁Försök	48700
▁skand	48699
▁svänga	48691
▁färgat	48689
åp	48689
▁bränsle	48688
▁vanor	48684
▁Kvinnor	48682
▁pappor	48672
▁övertyga	48668
▁överhuvud	48667
▁röntgen	48654
▁Liten	48640
▁Win	48636
▁vass	48635
▁tårna	48634
yrkan	48633
idge	48625
▁förned	48622
fett	48613
▁Visar	48612
▁hänvisar	48602
▁anse	48601
▁språng	48594
▁låsa	48593
▁ang	48593
-18	48592
▁88	48590
▁siffra	48590
▁knappar	48582
atar	48582
▁utbyte	48574
▁döttrar	48566
▁naturres	48560
▁noggrant	48560
▁snöar	48558
cl	48547
▁förklaringen	48543
dela	48531
▁Ung	48531
ía	48530
▁tillverk	48528
▁floden	48520
▁gull	48515
▁påsken	48510
▁Kerstin	48499
▁solidaritet	48496
▁våning	48494
boende	48488
▁sannerligen	48488
▁fur	48485
ŏ	48482
▁tänkbara	48480
partement	48478
▁hjälpen	48478
▁1964	48475
▁ovanstående	48474
▁materi	48473
▁skönare	48472
▁MITT	48467
▁divisionen	48466
▁historisk	48460
▁sill	48456
▁drottning	48455
ussar	48443
▁Antar	48441
▁irak	48438
▁ockå	48437
▁Vir	48436
otiska	48421
▁stolthet	48420
▁förare	48409
▁brevlådan	48407
▁lamp	48406
ETER	48404
▁beger	48402
öker	48401
▁vores	48399
▁hittats	48399
▁Sluta	48396
▁landsbygden	48390
▁uppdateringar	48383
▁gås	48382
underna	48378
ituation	48375
▁erfaren	48370
▁varpå	48367
slar	48364
▁puts	48362
▁väsent	48352
TR	48350
ress	48348
▁nedre	48345
▁Amer	48344
▁låst	48339
ques	48337
▁pensionärer	48337
▁1945	48335
▁sammanfatta	48331
▁helvet	48329
▁Charlotte	48324
▁kastrull	48323
▁fit	48318
▁Bosse	48317
▁producent	48315
▁krym	48306
uvor	48304
▁redovisa	48304
skydds	48282
sliv	48280
entera	48280
▁Riv	48277
▁helaste	48276
▁stjärnorna	48270
▁häft	48265
icera	48261
▁Petra	48258
▁fader	48249
▁helikopter	48246
▁ombud	48245
angel	48238
lägga	48237
▁anat	48234
publ	48232
▁Kas	48231
▁öppnades	48225
▁lockade	48222
▁kidnapp	48220
▁tände	48220
▁förne	48206
▁kvarts	48201
▁avvik	48200
▁månen	48193
▁orsakar	48190
▁hastigt	48188
▁betrakta	48185
▁gynnar	48183
▁Försäkring	48179
▁jogging	48176
▁potent	48175
▁demokratiskt	48170
▁Telia	48164
▁begräns	48160
▁genomgång	48152
berätt	48148
▁meddelar	48143
▁firande	48132
▁övervåningen	48131
▁smin	48128
▁Funder	48116
▁89	48115
▁International	48114
ångest	48107
▁SEDAN	48105
ekreterare	48100
▁skattebetal	48091
▁pussar	48091
▁lakan	48088
serv	48087
▁gun	48081
▁kategorier	48074
▁donken	48069
▁Slutligen	48063
utvecklingen	48062
▁tolkas	48059
▁skyller	48059
▁lärande	48057
▁föga	48056
▁säkrare	48054
▁peter	48054
▁Friedrich	48054
▁altan	48051
▁biologiska	48048
aggar	48045
▁kolan	48038
OPP	48023
bletter	48022
▁inträffar	48022
cht	48020
UK	48019
▁välsig	48012
▁SAS	48001
pack	48001
▁luck	47999
iri	47991
▁foder	47986
ally	47984
vind	47983
▁heders	47979
▁superkul	47978
▁blivet	47974
▁mirakel	47973
▁sällskapet	47971
▁involver	47968
▁köksbordet	47957
▁mom	47956
▁like	47948
▁Rosa	47948
▁Gull	47942
inal	47941
▁affärerna	47940
▁glida	47931
▁bygget	47930
▁kup	47926
▁tn	47915
adda	47913
▁sexuell	47910
▁stal	47909
▁tillag	47909
▁Svenskt	47908
varor	47907
▁glöd	47906
▁defens	47903
ivers	47897
▁dejt	47896
slen	47891
▁ordnat	47878
ässiga	47873
▁urval	47870
▁kofta	47859
använd	47851
▁ficka	47849
▁mänsk	47845
▁nyårslö	47834
▁glo	47823
▁sången	47818
▁bedriv	47814
▁Feder	47806
iy	47804
▁utro	47803
▁klappa	47800
▁åtskilliga	47795
▁App	47788
▁170	47786
kval	47785
▁Islam	47781
oom	47776
▁sortens	47774
▁Styr	47773
ckor	47773
förbud	47772
agnar	47771
fina	47766
skador	47764
▁sträckan	47760
komsten	47754
▁texterna	47752
▁befolk	47752
ssan	47750
▁utbilda	47743
▁intet	47738
.15	47730
▁sög	47729
▁måreväx	47727
▁SAK	47726
▁Gärna	47718
entligt	47718
saken	47716
▁sötaste	47712
▁plikt	47698
ict	47695
▁Arm	47695
▁brudar	47691
▁Israels	47686
komma	47684
▁3,5	47681
▁skickades	47674
▁tolkar	47674
▁kongress	47662
▁studion	47660
årar	47659
▁ALDRIG	47658
ådda	47653
lever	47653
ramat	47652
värden	47651
klare	47648
▁sades	47647
ERS	47647
▁motivera	47643
ش	47642
födda	47641
▁US	47639
ordin	47635
rester	47631
▁Soci	47630
▁bokens	47614
ights	47607
umet	47606
ilen	47600
▁påväg	47595
▁hant	47591
▁opera	47589
▁spik	47584
▁fter	47583
▁jobbs	47577
▁underkläder	47574
uttar	47568
▁väsen	47565
▁kin	47558
▁kamer	47558
▁DR	47556
▁Bred	47547
▁praktisk	47542
▁varits	47541
▁stryka	47539
▁inställda	47529
▁fåt	47523
▁kemi	47514
▁Lab	47514
▁ägt	47510
▁Op	47502
▁tvung	47497
▁siffran	47497
▁busa	47489
▁mull	47485
biska	47479
▁gymnas	47472
dres	47469
▁avbrott	47463
▁krävdes	47462
▁Kors	47461
▁rekry	47461
▁Jaa	47461
akade	47459
▁trög	47453
▁förhandling	47452
verken	47451
▁välling	47451
▁påpe	47449
▁Halv	47449
▁inleda	47447
▁stöter	47441
▁rimlig	47440
▁vig	47429
▁utbudet	47421
▁FÖRST	47419
▁uppdaterade	47416
▁kafé	47405
kyl	47404
▁sjöarna	47399
▁Him	47398
▁Fix	47397
akta	47395
▁storlekar	47390
▁Oper	47387
▁positioner	47377
iskan	47376
▁sit	47370
▁vat	47361
▁respektera	47361
▁fickor	47360
▁anmält	47357
▁kalender	47356
▁anställa	47356
▁Pas	47355
▁heliga	47347
▁matematik	47346
ULL	47341
▁Terr	47340
▁undret	47340
▁Vispa	47339
▁Sav	47337
▁helastes	47329
▁galning	47324
▁ettan	47321
▁kuper	47313
givande	47309
▁Mindre	47307
EJ	47305
▁brokparasit	47298
▁judiska	47297
▁kissa	47296
▁felet	47282
ättar	47281
filé	47280
▁tillsam	47278
▁Bla	47276
▁Erika	47276
▁områ	47276
▁typisk	47258
▁ljum	47255
▁överlev	47250
▁klimatet	47244
▁trampa	47240
▁puck	47229
▁värmde	47226
▁turné	47226
▁märktes	47222
kräm	47220
▁riktade	47218
▁rät	47217
▁böter	47216
▁Hmm	47216
▁cirkel	47216
▁kallaste	47213
▁Ont	47212
taget	47198
▁uppskattas	47191
▁World	47186
▁vänlig	47173
▁Ali	47173
▁Jar	47173
▁eft	47166
▁kyrko	47158
cir	47154
andenas	47148
▁arena	47148
marker	47144
▁regimen	47133
igger	47130
god	47117
fyllda	47116
▁[	47116
▁ish	47114
▁Hän	47113
▁genoms	47106
▁puls	47106
▁austral	47098
EK	47095
▁tvärs	47094
▁tillit	47088
▁fost	47083
▁enlighet	47071
olo	47065
fat	47065
utbild	47064
▁Tilda	47051
▁slagen	47048
▁1952	47046
▁roa	47045
nin	47045
▁förtid	47045
▁rörigt	47035
▁kvartal	47035
▁karaktärerna	47029
▁Fors	47029
▁frö	47018
▁framsidan	47014
▁bilj	47011
stt	47011
▁Gh	47005
uen	47002
▁gluten	46999
▁webbplats	46990
▁slar	46989
▁sagdas	46980
▁soldat	46980
▁bubbla	46966
oba	46962
▁lyxigt	46952
▁play	46942
jäv	46933
▁föreningar	46928
värme	46927
▁krävande	46925
▁Läns	46925
▁blan	46923
▁delades	46908
LLER	46906
▁viljande	46900
▁uttryckte	46894
▁Sec	46890
▁framemot	46889
▁förtroendet	46888
▁resulterar	46874
▁Ras	46868
▁Tina	46861
▁inh	46859
parti	46852
▁Jäg	46842
▁presskonferens	46842
▁LÄNG	46840
▁släp	46830
▁Skara	46825
▁tingsrätten	46822
▁Länge	46819
▁ambitioner	46818
urser	46818
tids	46813
lander	46809
ORD	46786
wn	46774
anga	46769
arch	46768
Erik	46759
▁påverkade	46757
▁hemligt	46751
▁övertyg	46750
▁flät	46729
▁pas	46727
▁ensamt	46726
▁tiotal	46726
▁hetr	46722
jd	46719
strar	46712
▁Brand	46702
▁spruta	46701
▁åskådare	46699
▁räntan	46698
▁ändringsförslag	46697
▁Cit	46688
▁längesedan	46687
▁lurar	46673
▁ark	46672
▁tk	46670
▁förklaringar	46669
▁slös	46663
▁ränta	46653
▁halvvägs	46646
▁olag	46640
▁släpa	46635
ferensen	46634
▁förväntningarna	46633
▁gumm	46624
▁spelaren	46622
▁vax	46622
▁Företaget	46621
▁förvänt	46619
▁Knut	46613
▁Hösten	46611
▁inplan	46608
▁Sir	46587
▁entrepren	46582
▁homosexuella	46582
▁kategor	46579
▁Samtliga	46570
ario	46570
▁Fall	46567
▁olivolja	46559
▁hels	46557
intervju	46555
plar	46554
▁regioner	46554
▁Fint	46549
▁deppig	46545
▁motsatt	46541
▁psy	46525
▁myndigheten	46524
▁Potter	46523
tron	46522
orge	46520
▁uppenbara	46520
verkar	46516
▁Slov	46515
▁guds	46514
▁trasiga	46513
▁kamrat	46511
beth	46507
telser	46504
▁Arne	46502
▁nöjer	46500
talade	46498
▁Öpp	46497
▁märket	46496
▁förbannade	46490
▁popul	46487
ego	46487
▁passagerare	46484
▁trakass	46484
▁Grund	46484
▁bedömer	46480
▁höjden	46470
regionen	46466
lamp	46463
▁smär	46460
▁Vägen	46456
eet	46449
▁päron	46449
▁Beat	46446
▁explos	46445
▁parterna	46444
quot	46434
▁hems	46434
ards	46427
▁Säv	46424
▁1966	46423
▁intrycket	46417
cell	46415
▁telefonsamtal	46414
lock	46410
myggor	46405
▁forna	46399
olycka	46397
▁Lunch	46387
▁klubbens	46386
▁näss	46386
▁ögonbryn	46385
▁resande	46384
central	46379
▁skönaste	46378
▁BLEV	46370
▁frukter	46362
▁Sture	46362
gavs	46359
pektiv	46352
▁Az	46351
kons	46348
▁eviga	46346
▁umgänge	46335
▁landst	46330
äkter	46326
▁spetsen	46324
▁brutalt	46322
▁Bonn	46311
▁levererar	46309
atik	46304
▁Williams	46297
▁konserter	46297
▁odla	46293
▁stök	46292
▁förutsäg	46291
▁penna	46290
▁skjutit	46288
▁avvakt	46287
▁mentala	46286
▁ingenjör	46269
irt	46262
▁bliva	46262
▁mjölken	46253
▁avse	46243
▁Fanns	46239
▁fej	46236
▁förberedd	46234
operat	46232
bytt	46230
▁besvik	46229
▁Alma	46225
wal	46224
▁Yo	46224
kland	46217
▁LIV	46214
▁bättra	46212
▁given	46200
▁Nellie	46199
gjordes	46198
vå	46194
▁betydelsen	46193
ocke	46193
▁busk	46191
▁häftig	46169
dis	46167
andring	46167
▁applå	46155
äge	46155
▁tillverka	46153
ituationen	46153
klag	46149
▁london	46145
▁lyr	46143
▁oföränd	46139
▁omöjliga	46137
▁Före	46137
emål	46136
▁slem	46136
▁skridskor	46136
▁Alm	46133
▁genombrott	46133
resultat	46132
hållet	46132
▁varierande	46130
▁svek	46121
▁0-0	46121
▁sunt	46117
▁posit	46115
▁Återigen	46111
▁Familj	46109
▁kore	46107
uf	46102
▁UTAN	46091
▁torraste	46087
▁jordgubb	46076
vald	46071
▁2,3	46071
▁pensionär	46049
▁Nato	46045
▁kärnvapen	46043
▁Lis	46039
iar	46037
▁tystnaden	46034
▁byt	46029
▁PA	46025
▁tapet	46021
▁osäkert	46020
cc	46018
natur	46013
▁principen	46009
▁kompisarna	46007
▁Jär	46006
▁grand	46005
▁båg	45999
ahl	45997
iceps	45992
▁2,2	45991
▁utdelning	45984
▁möj	45983
▁Bertil	45979
▁fyllas	45978
▁insp	45971
shamn	45971
▁Selma	45970
trafik	45968
itel	45966
▁familjs	45962
▁Häm	45958
ows	45957
▁sänder	45957
takt	45952
▁villorna	45949
▁Little	45939
▁nyhetsbyrån	45937
▁levnad	45928
bring	45927
▁Absolut	45924
▁utskott	45921
▁1000	45920
▁setts	45920
▁föl	45919
medvet	45917
▁integritet	45909
▁paprika	45904
▁tavlan	45900
▁brunch	45899
▁bröllops	45892
▁skippa	45889
utveck	45884
jak	45882
▁Kamp	45879
illen	45877
uda	45874
▁symptom	45873
▁metoden	45870
åndet	45865
ökning	45862
▁föras	45850
▁Chr	45847
▁trass	45846
▁nakna	45843
emo	45842
▁packning	45841
skningen	45838
▁Chris	45832
malm	45826
▁elände	45825
▁Bibeln	45822
▁Cr	45820
▁ruta	45813
▁underligt	45807
▁förlov	45805
▁peppad	45805
▁enheter	45798
manland	45792
▁raden	45788
▁tjur	45787
ustning	45782
▁fördela	45775
orl	45774
▁middags	45769
ites	45764
▁fusk	45760
▁Östra	45760
▁grejor	45756
▁kommentaren	45754
regel	45753
▁slav	45750
▁dest	45746
+	45744
ekan	45735
rings	45725
▁överraskade	45723
▁Mormor	45722
▁Göta	45720
▁stra	45718
period	45718
▁textil	45717
ati	45707
▁Adolf	45705
▁Reger	45703
▁RO	45699
▁uppfattningen	45697
ORGON	45696
▁Ari	45682
båg	45679
kore	45674
▁sänker	45674
skom	45665
▁väns	45665
▁backade	45665
ckad	45661
▁bleka	45660
▁Pernilla	45658
▁krävt	45650
iph	45647
▁förete	45635
▁kännes	45624
▁lämnades	45624
▁alternativa	45622
▁TRO	45620
alag	45618
▁röstat	45615
▁Dagbladet	45612
▁morr	45608
▁medlemsstater	45605
▁redas	45601
▁rod	45596
exik	45590
okus	45587
▁återfinns	45579
▁viljandes	45575
▁behåller	45573
▁obek	45572
▁imp	45572
▁motgångar	45567
▁brilj	45563
kus	45559
▁attity	45555
ssystemet	45550
▁Clar	45549
▁förord	45547
▁karta	45540
▁Est	45538
▁Natten	45535
▁Världen	45530
▁tvivlar	45528
▁knar	45527
▁locket	45523
▁uppges	45522
▁coll	45521
▁jätteglad	45519
byn	45519
▁Lagom	45516
▁Näringsliv	45509
▁begränsat	45509
gens	45508
▁belägen	45503
▁begag	45498
ogg	45493
raterna	45492
betet	45489
▁arbetsuppgifter	45489
▁börs	45476
▁nam	45475
edon	45465
▁plant	45458
▁ojäm	45450
▁lillan	45442
▁Läser	45437
▁antik	45433
▁Ler	45433
▁mikro	45428
▁övr	45426
sing	45425
▁kommas	45425
figur	45420
▁trevligare	45414
▁UD	45411
▁Pakistan	45408
ivare	45406
isterande	45404
▁drogs	45403
rätts	45401
vetter	45395
YR	45391
▁betraktar	45383
▁smek	45379
▁belopp	45378
▁buk	45376
▁tred	45363
▁FORT	45361
▁gravida	45360
ÅT	45359
▁Bern	45356
▁demokratisk	45355
gna	45355
▁Internationella	45348
▁varvet	45344
▁innov	45341
▁Djebel	45339
▁kejs	45335
▁john	45333
▁konstater	45331
▁trösta	45326
▁opinions	45326
▁Staffan	45325
▁boxen	45321
▁magsjuka	45320
▁godsaker	45318
▁tyget	45317
▁dsn	45314
▁eleven	45313
▁löken	45309
▁Grå	45299
▁House	45298
▁röker	45293
▁runtomkring	45280
ovis	45277
▁bir	45277
▁låts	45276
▁fastställ	45276
▁vred	45266
▁sjal	45254
regn	45253
▁skolat	45252
▁Vera	45250
▁klaras	45244
▁objektiv	45238
hor	45236
▁teorier	45236
▁Fo	45236
▁innerst	45235
final	45228
eligt	45223
produktion	45222
▁import	45222
ugu	45221
▁dröjde	45216
▁roligast	45208
▁Framförallt	45206
ville	45205
▁stängda	45204
▁beman	45204
iza	45202
▁lustigt	45198
▁KANSKE	45196
▁Linné	45195
▁orsakade	45194
råket	45182
▁löpande	45180
▁dialekt	45170
skomm	45169
▁Sud	45165
▁slalom	45157
▁Stella	45152
sprocessen	45146
tå	45145
syk	45139
▁medlems	45129
▁kokar	45127
▁sovande	45124
▁rådets	45124
▁HEN	45116
▁drunk	45116
▁jubl	45105
benet	45102
▁Bengtsson	45100
▁Kalifornien	45100
▁temperaturen	45087
▁Ernst	45086
▁grabb	45083
promen	45082
edi	45071
▁fins	45071
material	45068
▁baserat	45067
▁övergripande	45057
uppe	45051
▁ömses	45048
däck	45041
ÄD	45038
▁frit	45038
gers	45034
ELL	45026
āb	45026
stell	45024
ADES	45015
plant	45012
▁rapporterade	45008
īn	45005
▁misstänk	44999
▁begäran	44998
▁Veckans	44998
▁bedröv	44998
▁omröstning	44989
▁turer	44981
▁premiären	44981
▁Skillnaden	44980
ame	44973
▁Husse	44970
▁Älskade	44963
▁Ontario	44963
▁kommet	44955
▁vrida	44955
ango	44951
▁overkligt	44939
▁publicerades	44938
'	44935
▁såpass	44918
owe	44915
▁astr	44911
▁Calle	44904
▁vardagliga	44897
cing	44897
▁mygg	44891
▁mogen	44886
▁bortsett	44883
▁vemod	44881
▁Ky	44880
▁årtion	44880
▁julmat	44876
▁Göra	44876
▁Wien	44874
mass	44872
▁mätta	44866
▁funktionsh	44863
▁ingående	44862
▁dokumenter	44862
▁regim	44860
▁cirkus	44858
▁lägret	44857
▁Ken	44853
▁röja	44849
▁Kuba	44849
▁Vasa	44838
sem	44836
känslan	44830
▁specifikt	44812
▁Mala	44809
▁bomull	44808
▁sända	44805
▁tillt	44803
utten	44802
istiken	44796
▁pjäs	44783
▁Jim	44782
▁Shan	44780
▁indirekt	44776
▁vrider	44774
▁Jam	44772
propå	44771
gränsen	44767
jöd	44767
▁Hammar	44763
hammed	44763
▁ala	44754
▁missnöjd	44753
▁soliga	44746
&	44737
▁utmatt	44735
▁slät	44732
▁smidig	44727
▁nyfikenhet	44710
▁tänktas	44709
golvet	44707
▁vågor	44700
▁definition	44699
▁Johnson	44699
▁brons	44696
▁fo	44688
gårdar	44687
▁Spelar	44685
▁bat	44683
▁guide	44674
▁Pres	44671
▁Gi	44665
▁But	44658
▁Tittar	44656
enas	44654
▁Strand	44652
▁utseendet	44648
äktet	44647
▁samlad	44643
klänning	44641
▁Möj	44640
junkturen	44637
▁arkiv	44637
▁lördagens	44636
▁badar	44632
ican	44630
▁sektor	44617
▁brann	44614
▁velr	44612
▁deltagit	44611
▁Bilen	44610
löp	44608
▁Himla	44606
▁jälv	44604
ändr	44604
▁Amerika	44598
vak	44597
▁para	44596
ekom	44592
▁Utveck	44589
▁lukta	44589
▁släcka	44589
edt	44586
▁förlusten	44580
▁Gång	44578
▁återhämtning	44573
▁Para	44573
▁sträva	44561
älet	44559
▁accepterat	44558
▁Manchester	44552
▁förutsätter	44552
▁värdel	44550
▁98	44550
▁långsiktiga	44533
eria	44528
▁Publ	44526
▁Hitler	44525
▁kändas	44522
▁nacke	44513
filmen	44513
▁mobbning	44506
▁Nathalie	44502
▁ordnade	44499
▁Löfven	44498
▁informations	44495
▁okon	44484
▁lamm	44480
▁kunga	44480
▁Hong	44477
▁stand	44472
▁hanna	44465
▁födelse	44460
▁Linnéa	44460
dröm	44459
▁häller	44457
▁Höll	44456
▁FI	44453
▁modernt	44450
▁Seg	44448
▁graf	44436
▁pseud	44435
▁Glömde	44434
▁google	44432
▁instäm	44431
▁rubriker	44423
▁skö	44420
oz	44414
östa	44413
▁kladd	44412
▁vikar	44406
▁82	44403
▁inled	44399
▁filosofi	44396
visningen	44394
▁Hotell	44390
stagande	44387
▁framstå	44384
▁sekunden	44383
▁flor	44366
▁klipper	44365
▁detaljerna	44363
▁ladd	44362
▁]	44362
▁åldrar	44361
▁uppfin	44354
kommissionen	44348
oy	44347
▁tagga	44346
▁knän	44344
▁slutsatsen	44343
▁Dt	44341
▁tegel	44336
▁nordöstra	44329
▁undren	44312
ementet	44311
▁övergång	44309
▁87	44308
▁snackat	44306
▁vald	44303
▁banor	44303
▁liberal	44302
edin	44300
▁meningslöst	44289
▁byråkrat	44286
▁miljöm	44274
▁formulera	44274
▁gångar	44266
utskottet	44264
▁försvag	44261
städ	44256
▁Läg	44254
gärder	44252
▁intervaller	44249
▁Frukost	44232
▁avfär	44230
ophila	44229
iona	44229
▁Lå	44227
inea	44221
▁McC	44219
▁gur	44210
förbund	44208
▁ifrågasätter	44206
▁Joh	44205
▁KÖ	44198
р	44196
etti	44193
▁fran	44192
▁summer	44189
läggningar	44186
▁tjockt	44180
▁svagare	44178
▁streck	44173
▁julbord	44166
inda	44165
atör	44161
▁tretton	44157
90	44155
▁konser	44154
▁funkt	44153
▁61	44148
▁tull	44144
▁Nelly	44140
▁flödar	44140
▁Monica	44136
not	44136
atorn	44136
65	44135
▁Fören	44134
▁mir	44129
sas	44127
▁Året	44124
▁vamp	44122
sska	44118
jakt	44117
▁Hinner	44113
kvällen	44109
▁köttfär	44103
▁vänners	44103
▁tillvara	44092
▁sylt	44092
▁Sport	44090
▁Sonen	44080
ygen	44078
▁nödvänd	44077
OTT	44076
▁lucia	44063
▁tröttheten	44060
▁anhängare	44055
▁riktigas	44055
▁hälla	44054
▁lånar	44049
▁diss	44034
▁varven	44034
▁stötte	44032
▁omdöm	44031
▁stirrade	44028
▁Et	44027
▁Godnatt	44024
slin	44019
▁tillfälliga	44014
▁kax	44014
▁överläg	44005
örsen	44002
▁must	43999
▁Välkommen	43991
▁eler	43991
▁Bah	43988
▁jämföras	43987
▁strej	43985
chy	43985
dör	43982
▁Nedan	43980
▁Värm	43977
▁andr	43976
▁SU	43975
▁föräldraled	43970
▁skri	43969
▁VIS	43969
▁amerik	43965
▁stekt	43962
▁läskig	43950
perioden	43948
▁inledande	43943
MAR	43942
ray	43939
▁ljuvligt	43932
kompisar	43931
▁varorna	43931
▁Ingår	43924
▁orm	43923
▁oroligt	43922
▁rymmer	43922
▁dramatiskt	43918
▁strävan	43913
▁flyttades	43912
▁ds	43907
▁1939	43905
▁Bost	43902
▁rödgröna	43901
umin	43897
▁regeringar	43894
▁Dis	43891
ANT	43890
VAR	43884
äppt	43884
udi	43882
▁anslag	43870
▁Dela	43870
▁Säkert	43863
▁panna	43863
▁stere	43860
▁medicinska	43859
bler	43857
▁1963	43851
▁rubb	43849
▁medger	43838
vapen	43836
dräkt	43835
▁värken	43834
värken	43832
▁trå	43832
▁Hannah	43830
▁lud	43827
▁välmående	43827
▁italiensk	43820
▁skyldiga	43820
▁höjdare	43819
▁tjata	43818
▁fotot	43813
▁177	43809
▁Ned	43808
atum	43808
▁djupet	43807
▁provar	43807
dren	43806
▁INGEN	43806
elly	43803
▁utsatts	43801
▁Östersund	43798
▁uthåll	43797
▁Servera	43793
mun	43789
▁sor	43789
riär	43784
icen	43782
▁kastat	43782
polisen	43776
▁ryn	43761
▁fastighets	43755
▁varifrån	43750
▁inåt	43748
▁synlig	43744
▁svans	43739
fess	43735
▁avsevärt	43732
▁Norm	43728
stjärn	43722
▁grädden	43721
llan	43721
▁mosk	43705
▁hjälte	43699
▁ÄL	43694
▁polare	43691
▁allsvenska	43685
▁undrens	43685
märke	43682
▁späd	43678
åringar	43678
▁integration	43677
organis	43669
anne	43666
[...]
